unsigned char AR_quantized_tflite[] = {
  0x20, 0x00, 0x00, 0x00, 0x54, 0x46, 0x4c, 0x33, 0x00, 0x00, 0x00, 0x00,
  0x14, 0x00, 0x20, 0x00, 0x1c, 0x00, 0x18, 0x00, 0x14, 0x00, 0x10, 0x00,
  0x0c, 0x00, 0x00, 0x00, 0x08, 0x00, 0x04, 0x00, 0x14, 0x00, 0x00, 0x00,
  0x1c, 0x00, 0x00, 0x00, 0x88, 0x00, 0x00, 0x00, 0xe0, 0x00, 0x00, 0x00,
  0x58, 0x45, 0x00, 0x00, 0x68, 0x45, 0x00, 0x00, 0x78, 0x90, 0x00, 0x00,
  0x03, 0x00, 0x00, 0x00, 0x01, 0x00, 0x00, 0x00, 0x04, 0x00, 0x00, 0x00,
  0x2a, 0xb1, 0xff, 0xff, 0x0c, 0x00, 0x00, 0x00, 0x1c, 0x00, 0x00, 0x00,
  0x40, 0x00, 0x00, 0x00, 0x0f, 0x00, 0x00, 0x00, 0x73, 0x65, 0x72, 0x76,
  0x69, 0x6e, 0x67, 0x5f, 0x64, 0x65, 0x66, 0x61, 0x75, 0x6c, 0x74, 0x00,
  0x01, 0x00, 0x00, 0x00, 0x04, 0x00, 0x00, 0x00, 0x94, 0xff, 0xff, 0xff,
  0x48, 0x00, 0x00, 0x00, 0x04, 0x00, 0x00, 0x00, 0x0c, 0x00, 0x00, 0x00,
  0x73, 0x65, 0x71, 0x75, 0x65, 0x6e, 0x74, 0x69, 0x61, 0x6c, 0x5f, 0x39,
  0x00, 0x00, 0x00, 0x00, 0x01, 0x00, 0x00, 0x00, 0x04, 0x00, 0x00, 0x00,
  0x32, 0xbb, 0xff, 0xff, 0x04, 0x00, 0x00, 0x00, 0x07, 0x00, 0x00, 0x00,
  0x69, 0x6e, 0x70, 0x75, 0x74, 0x5f, 0x35, 0x00, 0x02, 0x00, 0x00, 0x00,
  0x34, 0x00, 0x00, 0x00, 0x04, 0x00, 0x00, 0x00, 0xdc, 0xff, 0xff, 0xff,
  0x4b, 0x00, 0x00, 0x00, 0x04, 0x00, 0x00, 0x00, 0x13, 0x00, 0x00, 0x00,
  0x43, 0x4f, 0x4e, 0x56, 0x45, 0x52, 0x53, 0x49, 0x4f, 0x4e, 0x5f, 0x4d,
  0x45, 0x54, 0x41, 0x44, 0x41, 0x54, 0x41, 0x00, 0x08, 0x00, 0x0c, 0x00,
  0x08, 0x00, 0x04, 0x00, 0x08, 0x00, 0x00, 0x00, 0x4a, 0x00, 0x00, 0x00,
  0x04, 0x00, 0x00, 0x00, 0x13, 0x00, 0x00, 0x00, 0x6d, 0x69, 0x6e, 0x5f,
  0x72, 0x75, 0x6e, 0x74, 0x69, 0x6d, 0x65, 0x5f, 0x76, 0x65, 0x72, 0x73,
  0x69, 0x6f, 0x6e, 0x00, 0x4c, 0x00, 0x00, 0x00, 0x74, 0x44, 0x00, 0x00,
  0x6c, 0x44, 0x00, 0x00, 0x58, 0x44, 0x00, 0x00, 0x34, 0x44, 0x00, 0x00,
  0x18, 0x44, 0x00, 0x00, 0xfc, 0x43, 0x00, 0x00, 0xe0, 0x43, 0x00, 0x00,
  0xcc, 0x43, 0x00, 0x00, 0xfc, 0x42, 0x00, 0x00, 0xec, 0x41, 0x00, 0x00,
  0xdc, 0x29, 0x00, 0x00, 0x4c, 0x29, 0x00, 0x00, 0x3c, 0x23, 0x00, 0x00,
  0xec, 0x22, 0x00, 0x00, 0xdc, 0x1c, 0x00, 0x00, 0x4c, 0x1c, 0x00, 0x00,
  0x3c, 0x04, 0x00, 0x00, 0x28, 0x04, 0x00, 0x00, 0x20, 0x04, 0x00, 0x00,
  0x18, 0x04, 0x00, 0x00, 0x04, 0x04, 0x00, 0x00, 0xf4, 0x02, 0x00, 0x00,
  0x24, 0x02, 0x00, 0x00, 0x1c, 0x02, 0x00, 0x00, 0x14, 0x02, 0x00, 0x00,
  0x0c, 0x02, 0x00, 0x00, 0x04, 0x02, 0x00, 0x00, 0xfc, 0x01, 0x00, 0x00,
  0xf4, 0x01, 0x00, 0x00, 0xec, 0x01, 0x00, 0x00, 0xe4, 0x01, 0x00, 0x00,
  0xdc, 0x01, 0x00, 0x00, 0xd4, 0x01, 0x00, 0x00, 0xcc, 0x01, 0x00, 0x00,
  0xc4, 0x01, 0x00, 0x00, 0xbc, 0x01, 0x00, 0x00, 0xb4, 0x01, 0x00, 0x00,
  0xac, 0x01, 0x00, 0x00, 0xa4, 0x01, 0x00, 0x00, 0x9c, 0x01, 0x00, 0x00,
  0x94, 0x01, 0x00, 0x00, 0x8c, 0x01, 0x00, 0x00, 0x84, 0x01, 0x00, 0x00,
  0x7c, 0x01, 0x00, 0x00, 0x74, 0x01, 0x00, 0x00, 0x6c, 0x01, 0x00, 0x00,
  0x64, 0x01, 0x00, 0x00, 0x5c, 0x01, 0x00, 0x00, 0x54, 0x01, 0x00, 0x00,
  0x4c, 0x01, 0x00, 0x00, 0x44, 0x01, 0x00, 0x00, 0x3c, 0x01, 0x00, 0x00,
  0x34, 0x01, 0x00, 0x00, 0x2c, 0x01, 0x00, 0x00, 0x24, 0x01, 0x00, 0x00,
  0x1c, 0x01, 0x00, 0x00, 0x14, 0x01, 0x00, 0x00, 0x0c, 0x01, 0x00, 0x00,
  0x04, 0x01, 0x00, 0x00, 0xfc, 0x00, 0x00, 0x00, 0xf4, 0x00, 0x00, 0x00,
  0xec, 0x00, 0x00, 0x00, 0xe4, 0x00, 0x00, 0x00, 0xdc, 0x00, 0x00, 0x00,
  0xd4, 0x00, 0x00, 0x00, 0xcc, 0x00, 0x00, 0x00, 0xc4, 0x00, 0x00, 0x00,
  0xbc, 0x00, 0x00, 0x00, 0xb4, 0x00, 0x00, 0x00, 0xac, 0x00, 0x00, 0x00,
  0xa4, 0x00, 0x00, 0x00, 0x9c, 0x00, 0x00, 0x00, 0x94, 0x00, 0x00, 0x00,
  0x8c, 0x00, 0x00, 0x00, 0x6c, 0x00, 0x00, 0x00, 0x04, 0x00, 0x00, 0x00,
  0xd6, 0xbc, 0xff, 0xff, 0x04, 0x00, 0x00, 0x00, 0x58, 0x00, 0x00, 0x00,
  0x0c, 0x00, 0x00, 0x00, 0x08, 0x00, 0x0e, 0x00, 0x08, 0x00, 0x04, 0x00,
  0x08, 0x00, 0x00, 0x00, 0x10, 0x00, 0x00, 0x00, 0x28, 0x00, 0x00, 0x00,
  0x00, 0x00, 0x06, 0x00, 0x08, 0x00, 0x04, 0x00, 0x06, 0x00, 0x00, 0x00,
  0x04, 0x00, 0x00, 0x00, 0x01, 0x00, 0x00, 0x00, 0xeb, 0x03, 0x00, 0x00,
  0x00, 0x00, 0x0a, 0x00, 0x10, 0x00, 0x0c, 0x00, 0x08, 0x00, 0x04, 0x00,
  0x0a, 0x00, 0x00, 0x00, 0x02, 0x00, 0x00, 0x00, 0x02, 0x00, 0x00, 0x00,
  0x04, 0x00, 0x00, 0x00, 0x06, 0x00, 0x00, 0x00, 0x32, 0x2e, 0x31, 0x33,
  0x2e, 0x30, 0x00, 0x00, 0x3a, 0xbd, 0xff, 0xff, 0x04, 0x00, 0x00, 0x00,
  0x10, 0x00, 0x00, 0x00, 0x32, 0x2e, 0x31, 0x32, 0x2e, 0x30, 0x00, 0x00,
  0x00, 0x00, 0x00, 0x00, 0x00, 0x00, 0x00, 0x00, 0x48, 0x72, 0xff, 0xff,
  0x4c, 0x72, 0xff, 0xff, 0x50, 0x72, 0xff, 0xff, 0x54, 0x72, 0xff, 0xff,
  0x58, 0x72, 0xff, 0xff, 0x5c, 0x72, 0xff, 0xff, 0x60, 0x72, 0xff, 0xff,
  0x64, 0x72, 0xff, 0xff, 0x68, 0x72, 0xff, 0xff, 0x6c, 0x72, 0xff, 0xff,
  0x70, 0x72, 0xff, 0xff, 0x74, 0x72, 0xff, 0xff, 0x78, 0x72, 0xff, 0xff,
  0x7c, 0x72, 0xff, 0xff, 0x80, 0x72, 0xff, 0xff, 0x84, 0x72, 0xff, 0xff,
  0x88, 0x72, 0xff, 0xff, 0x8c, 0x72, 0xff, 0xff, 0x90, 0x72, 0xff, 0xff,
  0x94, 0x72, 0xff, 0xff, 0x98, 0x72, 0xff, 0xff, 0x9c, 0x72, 0xff, 0xff,
  0xa0, 0x72, 0xff, 0xff, 0xa4, 0x72, 0xff, 0xff, 0xa8, 0x72, 0xff, 0xff,
  0xac, 0x72, 0xff, 0xff, 0xb0, 0x72, 0xff, 0xff, 0xb4, 0x72, 0xff, 0xff,
  0xb8, 0x72, 0xff, 0xff, 0xbc, 0x72, 0xff, 0xff, 0xc0, 0x72, 0xff, 0xff,
  0xc4, 0x72, 0xff, 0xff, 0xc8, 0x72, 0xff, 0xff, 0xcc, 0x72, 0xff, 0xff,
  0xd0, 0x72, 0xff, 0xff, 0xd4, 0x72, 0xff, 0xff, 0xd8, 0x72, 0xff, 0xff,
  0xdc, 0x72, 0xff, 0xff, 0xe0, 0x72, 0xff, 0xff, 0xe4, 0x72, 0xff, 0xff,
  0xe8, 0x72, 0xff, 0xff, 0xec, 0x72, 0xff, 0xff, 0xf0, 0x72, 0xff, 0xff,
  0xf4, 0x72, 0xff, 0xff, 0xf8, 0x72, 0xff, 0xff, 0xfc, 0x72, 0xff, 0xff,
  0x00, 0x73, 0xff, 0xff, 0x04, 0x73, 0xff, 0xff, 0x08, 0x73, 0xff, 0xff,
  0x0c, 0x73, 0xff, 0xff, 0x10, 0x73, 0xff, 0xff, 0x22, 0xbe, 0xff, 0xff,
  0x04, 0x00, 0x00, 0x00, 0xc0, 0x00, 0x00, 0x00, 0xa5, 0x81, 0x25, 0x81,
  0x65, 0xd7, 0x91, 0x81, 0x26, 0x5f, 0x13, 0x81, 0xbe, 0xe6, 0x7f, 0x60,
  0x7f, 0x15, 0x18, 0x09, 0x81, 0x39, 0x7f, 0x33, 0xc5, 0x7f, 0x6d, 0x7f,
  0xd2, 0xc1, 0x7f, 0x44, 0xa1, 0x75, 0x61, 0x7f, 0x9d, 0x45, 0x7f, 0x81,
  0xb0, 0xf5, 0x81, 0xf8, 0xea, 0x31, 0x7f, 0xf4, 0x81, 0x8a, 0x2f, 0x28,
  0x7f, 0x25, 0x7f, 0x22, 0x26, 0xbe, 0x7f, 0x70, 0xbf, 0x15, 0x7f, 0x67,
  0x4f, 0x81, 0x0e, 0x7f, 0xdf, 0x17, 0x3b, 0x81, 0xfc, 0x81, 0x24, 0x34,
  0x54, 0x7f, 0x1b, 0x81, 0x87, 0x7f, 0x91, 0x58, 0x79, 0x7f, 0xa5, 0x81,
  0x7e, 0xc8, 0x81, 0xd3, 0xed, 0x81, 0xc2, 0x95, 0x06, 0x81, 0xa7, 0x81,
  0x30, 0x4a, 0x81, 0x62, 0xe6, 0x75, 0x7f, 0xc1, 0x92, 0x81, 0xce, 0xa8,
  0xa3, 0x7f, 0x7f, 0x1b, 0x19, 0x7f, 0x2f, 0xe7, 0x81, 0x89, 0x11, 0x06,
  0x81, 0x68, 0x99, 0x81, 0x7b, 0x77, 0x7f, 0x2d, 0x7f, 0xf8, 0xcf, 0x7f,
  0xde, 0x0f, 0xc0, 0xfb, 0x81, 0x99, 0x7f, 0xc0, 0x7f, 0x91, 0xa1, 0x33,
  0xd1, 0x7f, 0x7f, 0x1a, 0x99, 0x3b, 0x7b, 0x7f, 0x81, 0x02, 0xa9, 0x7f,
  0x08, 0x5f, 0xda, 0x13, 0x7f, 0xad, 0x7f, 0x3f, 0x40, 0x81, 0xeb, 0x48,
  0xd0, 0x81, 0x7f, 0x63, 0xac, 0x33, 0xad, 0x7f, 0x5d, 0x81, 0x4d, 0xf3,
  0x7f, 0xe3, 0x1f, 0xf5, 0x81, 0xef, 0xeb, 0x7f, 0xee, 0xbe, 0xff, 0xff,
  0x04, 0x00, 0x00, 0x00, 0x00, 0x01, 0x00, 0x00, 0xd0, 0x09, 0x00, 0x00,
  0x48, 0xcd, 0xff, 0xff, 0x6f, 0x16, 0x00, 0x00, 0xcb, 0xf7, 0xff, 0xff,
  0x5f, 0x21, 0x00, 0x00, 0x7f, 0x05, 0x00, 0x00, 0x10, 0x16, 0x00, 0x00,
  0x40, 0xce, 0xff, 0xff, 0x38, 0xc1, 0xff, 0xff, 0xab, 0x1c, 0x00, 0x00,
  0x10, 0x0b, 0x00, 0x00, 0x77, 0xfd, 0xff, 0xff, 0x30, 0xcb, 0xff, 0xff,
  0xf2, 0x18, 0x00, 0x00, 0xed, 0x06, 0x00, 0x00, 0xdb, 0xbe, 0xff, 0xff,
  0xfa, 0xdc, 0xff, 0xff, 0x20, 0xcf, 0xff, 0xff, 0xb3, 0xe5, 0xff, 0xff,
  0x16, 0xe3, 0xff, 0xff, 0x10, 0xfe, 0xff, 0xff, 0x54, 0xe5, 0xff, 0xff,
  0x2c, 0xe4, 0xff, 0xff, 0x07, 0x2f, 0x00, 0x00, 0x61, 0x50, 0x00, 0x00,
  0x26, 0xfc, 0xff, 0xff, 0xa7, 0x2c, 0x00, 0x00, 0xda, 0x1c, 0x00, 0x00,
  0x6e, 0xdc, 0xff, 0xff, 0xc9, 0x2c, 0x00, 0x00, 0xa4, 0xfc, 0xff, 0xff,
  0x33, 0xec, 0xff, 0xff, 0x75, 0x1c, 0x00, 0x00, 0xaa, 0xf4, 0xff, 0xff,
  0x93, 0x29, 0x00, 0x00, 0x95, 0x15, 0x00, 0x00, 0x61, 0xf9, 0xff, 0xff,
  0x19, 0x1f, 0x00, 0x00, 0xb9, 0xc3, 0xff, 0xff, 0x44, 0x1b, 0x00, 0x00,
  0x8c, 0x82, 0x00, 0x00, 0xe4, 0x02, 0x00, 0x00, 0xf2, 0x32, 0x00, 0x00,
  0x6f, 0xdf, 0xff, 0xff, 0xf4, 0xf5, 0xff, 0xff, 0xef, 0xef, 0xff, 0xff,
  0xbd, 0x21, 0x00, 0x00, 0xcd, 0xe0, 0xff, 0xff, 0x9e, 0x26, 0x00, 0x00,
  0x40, 0xe7, 0xff, 0xff, 0x51, 0x7d, 0x00, 0x00, 0x7f, 0x94, 0xff, 0xff,
  0xf8, 0x08, 0x00, 0x00, 0x9c, 0xce, 0xff, 0xff, 0xc1, 0xf1, 0xff, 0xff,
  0x71, 0xff, 0xff, 0xff, 0xf3, 0xdf, 0xff, 0xff, 0xca, 0x37, 0x00, 0x00,
  0xc2, 0xdc, 0xff, 0xff, 0x79, 0x20, 0x00, 0x00, 0xef, 0xf1, 0xff, 0xff,
  0x56, 0xf6, 0xff, 0xff, 0xf4, 0x50, 0x00, 0x00, 0x69, 0x2d, 0x00, 0x00,
  0xfa, 0xbf, 0xff, 0xff, 0x04, 0x00, 0x00, 0x00, 0x01, 0x00, 0x00, 0x00,
  0x00, 0x00, 0x00, 0x00, 0xfc, 0x74, 0xff, 0xff, 0x00, 0x75, 0xff, 0xff,
  0x12, 0xc0, 0xff, 0xff, 0x04, 0x00, 0x00, 0x00, 0x01, 0x00, 0x00, 0x00,
  0x7f, 0x00, 0x00, 0x00, 0x22, 0xc0, 0xff, 0xff, 0x04, 0x00, 0x00, 0x00,
  0x00, 0x18, 0x00, 0x00, 0x00, 0xf6, 0x4a, 0xfd, 0x5c, 0x0e, 0xd3, 0xc3,
  0x03, 0x16, 0x01, 0x1b, 0x19, 0x35, 0xd3, 0xdc, 0xdd, 0x50, 0x54, 0x2d,
  0x44, 0x1b, 0xb7, 0xa6, 0xd4, 0x0c, 0xc8, 0x27, 0xbe, 0xc8, 0xc6, 0x1c,
  0x3b, 0x0f, 0x01, 0x42, 0x03, 0x2c, 0x43, 0x22, 0x33, 0x2f, 0x21, 0xee,
  0x22, 0xd3, 0x40, 0x0a, 0x1a, 0x2e, 0x21, 0xd6, 0xf3, 0x27, 0x64, 0x11,
  0xac, 0xdb, 0x33, 0x55, 0x12, 0x29, 0xca, 0xe0, 0xae, 0xed, 0x0f, 0x2d,
  0xd2, 0x1e, 0x4d, 0x32, 0x7f, 0xce, 0xc1, 0x16, 0x49, 0x10, 0xaf, 0xf3,
  0x35, 0x15, 0x28, 0x30, 0x29, 0x2f, 0x56, 0x3a, 0xa4, 0xdd, 0xa0, 0x3f,
  0x5b, 0x70, 0x1b, 0x19, 0x2f, 0xc7, 0xce, 0xfc, 0xaa, 0x07, 0xcb, 0xf3,
  0x04, 0xd1, 0xc9, 0x2d, 0xe0, 0x4a, 0xe1, 0x35, 0xd2, 0xc9, 0xd5, 0x02,
  0x2e, 0x2f, 0x45, 0x22, 0xe8, 0xf2, 0x29, 0x25, 0xd4, 0x17, 0xf7, 0x36,
  0xc6, 0xe7, 0x0b, 0xd4, 0xca, 0x59, 0xb0, 0xbd, 0x43, 0x40, 0x5e, 0xca,
  0x02, 0xe7, 0xcd, 0xd9, 0x43, 0xf9, 0xd7, 0xf8, 0x11, 0x2b, 0xe8, 0xca,
  0xfa, 0x4f, 0x3d, 0xdc, 0x2a, 0xe6, 0xf3, 0x26, 0x3f, 0xf2, 0x6c, 0xff,
  0xc5, 0x47, 0xfd, 0x4c, 0x15, 0x11, 0x15, 0xf2, 0xe0, 0x79, 0x35, 0x41,
  0x11, 0x39, 0x26, 0xce, 0xb3, 0xfe, 0x0b, 0xf1, 0xd6, 0x09, 0x1a, 0x08,
  0x3a, 0xea, 0x1c, 0x2c, 0xc8, 0x0e, 0x00, 0x31, 0x20, 0xbe, 0x0e, 0x12,
  0x3d, 0x33, 0xcd, 0x11, 0xea, 0x07, 0xe5, 0x42, 0xbc, 0xf2, 0xd2, 0x37,
  0x00, 0xe9, 0xfb, 0x63, 0x02, 0xe0, 0xe2, 0xd4, 0x38, 0x17, 0xe4, 0x14,
  0x3c, 0xc8, 0x3d, 0x44, 0xe5, 0x1b, 0xe5, 0xfe, 0xec, 0x00, 0x3e, 0xdc,
  0x10, 0xe7, 0x27, 0xb7, 0x00, 0xcc, 0x09, 0xee, 0x12, 0xd4, 0xce, 0x33,
  0xec, 0x23, 0xba, 0x49, 0x3a, 0xe5, 0xf2, 0xd9, 0xc0, 0x05, 0x1f, 0x3c,
  0xd5, 0xbc, 0x30, 0xb4, 0xa3, 0xf5, 0xf4, 0xd7, 0x24, 0x11, 0xca, 0xe7,
  0xbf, 0xb6, 0x0b, 0x27, 0xe1, 0xd7, 0x2b, 0x7c, 0x2b, 0xe3, 0xc8, 0xde,
  0xbb, 0x40, 0xe5, 0x46, 0xce, 0x1d, 0x1e, 0x10, 0x13, 0x08, 0xb2, 0xed,
  0xe1, 0xbb, 0xc1, 0xec, 0x21, 0xfb, 0x3d, 0xfb, 0xea, 0xb4, 0x37, 0xbe,
  0xc1, 0xf1, 0x10, 0xba, 0xd7, 0x48, 0xef, 0x4a, 0x29, 0xdf, 0x4c, 0x1f,
  0x1b, 0xb2, 0x10, 0xe3, 0x0d, 0xff, 0x23, 0xf2, 0xed, 0x31, 0xe1, 0x48,
  0x02, 0x16, 0x1a, 0xd2, 0x29, 0xfb, 0x20, 0x02, 0x47, 0xcb, 0xec, 0x15,
  0x7f, 0x0e, 0xfe, 0xd0, 0x09, 0x5b, 0x29, 0xe4, 0x16, 0xfe, 0x15, 0xda,
  0xc3, 0x17, 0x09, 0x22, 0xe1, 0xc3, 0xc3, 0xfd, 0x21, 0x28, 0xc6, 0x2c,
  0x55, 0xe9, 0x1a, 0xb4, 0xca, 0xf4, 0xe7, 0x03, 0x2a, 0x5d, 0x09, 0x47,
  0x0d, 0xe9, 0xff, 0xcc, 0x0a, 0x08, 0xa3, 0xb8, 0x0f, 0x31, 0xb5, 0xb3,
  0x77, 0xbf, 0x54, 0xb3, 0x7f, 0x08, 0x9b, 0xf0, 0xa1, 0x0f, 0x1d, 0xa6,
  0x3a, 0xbc, 0x31, 0xef, 0x17, 0xe9, 0x11, 0x00, 0xfa, 0xd3, 0x14, 0x5f,
  0x24, 0x7f, 0xea, 0xd6, 0x3a, 0xff, 0x46, 0xd3, 0x53, 0xc7, 0xb2, 0xb2,
  0xe0, 0x4d, 0x9e, 0xea, 0x30, 0x4d, 0xf8, 0x13, 0x14, 0xb1, 0x1e, 0x63,
  0x4b, 0x34, 0x34, 0xb6, 0x58, 0x47, 0xa6, 0x9d, 0x34, 0x4d, 0x60, 0xfb,
  0xc5, 0x44, 0xbc, 0xcb, 0x1f, 0x3d, 0x5a, 0xdb, 0x37, 0xd2, 0xce, 0x45,
  0x34, 0x1c, 0xf2, 0xc7, 0xef, 0xff, 0xd5, 0x0b, 0x3c, 0xe1, 0x1a, 0x2e,
  0xae, 0x1f, 0x4d, 0xd6, 0x07, 0xe7, 0xc5, 0x3a, 0x1b, 0x1a, 0x4f, 0x02,
  0xa5, 0x20, 0xea, 0x38, 0xbf, 0xb0, 0x32, 0xca, 0x43, 0xb6, 0xa4, 0x4c,
  0x53, 0x52, 0xa1, 0xa2, 0x69, 0x4a, 0x1e, 0x34, 0x02, 0x03, 0xc0, 0x0d,
  0xda, 0x38, 0x00, 0xc1, 0x44, 0x14, 0xe5, 0x02, 0x1d, 0x36, 0x48, 0x51,
  0xf9, 0x26, 0x60, 0xa3, 0x31, 0xdc, 0x65, 0x9c, 0x8d, 0x4d, 0x19, 0x01,
  0x3a, 0x2e, 0x96, 0xff, 0xb4, 0x2a, 0x36, 0x58, 0xeb, 0x99, 0xd3, 0x60,
  0xbb, 0x3f, 0xc9, 0xc8, 0xa7, 0xf1, 0xf8, 0x25, 0xb0, 0x99, 0x0e, 0x63,
  0x98, 0xd8, 0x9e, 0x18, 0x38, 0x21, 0xcf, 0xdf, 0xdc, 0xde, 0xaa, 0xa6,
  0x3d, 0x12, 0xd1, 0xcf, 0x1e, 0xce, 0x50, 0xd6, 0x50, 0xee, 0x40, 0x06,
  0xbe, 0xb8, 0xfc, 0x29, 0xca, 0x06, 0xc1, 0x3c, 0x40, 0xe8, 0x1e, 0xef,
  0x2d, 0xcb, 0xd4, 0xdd, 0x3d, 0xbb, 0x10, 0x45, 0x42, 0x25, 0x28, 0xb3,
  0x53, 0xc8, 0x20, 0xef, 0x26, 0x01, 0x19, 0x41, 0x17, 0x24, 0xf2, 0x2f,
  0x1f, 0xe7, 0xf2, 0xd2, 0x6f, 0x3d, 0xc3, 0xc9, 0xdb, 0xae, 0x27, 0x0f,
  0x32, 0xcb, 0x9a, 0x49, 0x72, 0xe3, 0x18, 0x3a, 0x23, 0xba, 0x11, 0xc3,
  0x47, 0xd3, 0xbe, 0xc6, 0x9a, 0x51, 0xeb, 0x24, 0x09, 0x3c, 0x50, 0x13,
  0xee, 0xe6, 0xe4, 0x0a, 0x1b, 0x1a, 0x30, 0x55, 0x3f, 0xcc, 0x30, 0xfe,
  0xb5, 0x2f, 0xf3, 0xe0, 0x53, 0xfd, 0x58, 0x1c, 0xcc, 0xf7, 0xc6, 0xb7,
  0x40, 0xe0, 0x3c, 0xf5, 0xb3, 0x45, 0x04, 0x54, 0x09, 0x21, 0x2f, 0xce,
  0xaa, 0xb2, 0x0b, 0x1f, 0xc2, 0x5c, 0x28, 0xb4, 0x81, 0xb5, 0x41, 0x1a,
  0xd2, 0x0a, 0xd6, 0xf7, 0xab, 0xac, 0xb0, 0x44, 0x09, 0x3f, 0xd5, 0xc5,
  0xe2, 0x1e, 0xd5, 0x54, 0x44, 0x05, 0x1d, 0x51, 0x1f, 0xaa, 0x1c, 0x58,
  0x1c, 0xcf, 0xc1, 0xb6, 0x26, 0x9f, 0x1c, 0x32, 0xf6, 0x32, 0x1a, 0x54,
  0xa6, 0x08, 0xc5, 0x46, 0xfd, 0x04, 0xc9, 0xac, 0xf8, 0xff, 0x22, 0x40,
  0xe6, 0x22, 0x4d, 0xad, 0xc2, 0x49, 0x2c, 0x4d, 0xd3, 0x22, 0x0f, 0x44,
  0x39, 0x11, 0x4f, 0xb3, 0x2b, 0x2c, 0x65, 0xf9, 0xa4, 0x9d, 0xa9, 0x6c,
  0x92, 0x6a, 0xd5, 0x95, 0xfa, 0xfa, 0x98, 0x0e, 0x99, 0x11, 0xb3, 0x0e,
  0x19, 0xbf, 0x60, 0xb9, 0x89, 0xce, 0xb7, 0xa2, 0xfb, 0xd0, 0x48, 0x50,
  0x9f, 0x50, 0x8a, 0xed, 0xc6, 0xcc, 0xac, 0xb4, 0xbc, 0x6f, 0xc0, 0x72,
  0x12, 0xd0, 0x60, 0x43, 0xa6, 0x10, 0xc7, 0x5b, 0xac, 0xc6, 0x08, 0x40,
  0x96, 0xca, 0x8b, 0xc9, 0x33, 0x68, 0x57, 0x19, 0xae, 0xc3, 0xc9, 0x00,
  0x4b, 0x06, 0x8d, 0xac, 0x6f, 0xeb, 0xf3, 0xfc, 0x1c, 0x2c, 0x19, 0x3f,
  0x3a, 0x64, 0x17, 0xe2, 0x41, 0xfb, 0x7f, 0xc0, 0x3f, 0x91, 0x9c, 0xe3,
  0xe2, 0xb6, 0xed, 0xe6, 0xcc, 0x5b, 0xe0, 0x23, 0x28, 0xa5, 0x5e, 0xd2,
  0x31, 0x15, 0x91, 0xae, 0xf9, 0x5d, 0xa9, 0x17, 0xe6, 0xbe, 0x1e, 0xdc,
  0x33, 0xbd, 0x35, 0x6c, 0x64, 0x97, 0x57, 0xf5, 0x85, 0x63, 0xf6, 0xec,
  0xab, 0x6e, 0x02, 0x2d, 0xc4, 0xac, 0x15, 0xa4, 0xc5, 0x34, 0x9b, 0x5b,
  0xd1, 0x04, 0xdf, 0xc8, 0x16, 0xaa, 0x8c, 0xba, 0xde, 0xe1, 0xcf, 0x82,
  0xf4, 0xb0, 0x8e, 0x15, 0xc3, 0xb4, 0xec, 0xbf, 0xff, 0xbc, 0x62, 0xbd,
  0xd0, 0xe2, 0xd9, 0x97, 0x61, 0x5b, 0x01, 0xdf, 0x1f, 0x2f, 0xa6, 0x03,
  0xf2, 0xbb, 0x8c, 0xea, 0x63, 0x51, 0x5d, 0x32, 0x6e, 0xf7, 0x29, 0xac,
  0xa2, 0x2b, 0x3d, 0xc9, 0x28, 0x20, 0xfc, 0x2b, 0xd9, 0x44, 0xb9, 0xb6,
  0x30, 0x4e, 0xd0, 0xde, 0xda, 0x3d, 0xf9, 0xaf, 0xac, 0x51, 0x44, 0x40,
  0x4e, 0x1d, 0x3f, 0xe9, 0xb6, 0xe5, 0x33, 0x4d, 0x12, 0x3f, 0x52, 0x0b,
  0xc2, 0x36, 0x19, 0x35, 0x53, 0xd9, 0x24, 0x52, 0xac, 0x5b, 0xfb, 0xf0,
  0x07, 0x0a, 0xff, 0x46, 0xc9, 0x65, 0x4e, 0xca, 0x28, 0xf5, 0xec, 0x37,
  0x0b, 0x0e, 0x25, 0xc5, 0x09, 0x01, 0x37, 0x2b, 0x35, 0xc0, 0xb7, 0xd3,
  0x32, 0x35, 0xe0, 0xf7, 0x66, 0xb9, 0xc1, 0x02, 0x40, 0xa7, 0x17, 0x0d,
  0xf0, 0xb6, 0x04, 0x47, 0xbc, 0xdb, 0x73, 0x04, 0xa3, 0x05, 0xe7, 0xda,
  0x2c, 0x7f, 0xb4, 0xe1, 0xc0, 0x21, 0x42, 0x4e, 0x52, 0x9c, 0xfc, 0xdb,
  0x2d, 0x9d, 0xf8, 0xbb, 0xba, 0x24, 0x14, 0xb5, 0xce, 0x13, 0x18, 0x22,
  0x3b, 0x4a, 0x23, 0xf7, 0xe6, 0xc0, 0xcb, 0xa8, 0x0f, 0xe9, 0x5a, 0xd2,
  0xc8, 0xc6, 0xe6, 0x4b, 0x0e, 0xac, 0xb5, 0xdc, 0xf9, 0xe8, 0xd4, 0xcf,
  0x9c, 0x31, 0xe6, 0xf3, 0xac, 0xb9, 0xfa, 0xb1, 0x30, 0x32, 0xf1, 0x51,
  0xe8, 0x00, 0x26, 0x25, 0x08, 0xec, 0x02, 0xe7, 0xc0, 0x1a, 0xbc, 0xc0,
  0xe8, 0x5b, 0x37, 0x24, 0x0f, 0xbd, 0x19, 0x42, 0x16, 0x6d, 0xd7, 0xac,
  0x20, 0x5b, 0x45, 0xf0, 0xc7, 0x26, 0xb5, 0x40, 0xb3, 0x54, 0xfc, 0xbb,
  0x4d, 0x50, 0x20, 0x18, 0xdd, 0x01, 0x1a, 0x4a, 0x15, 0xde, 0x1b, 0xfd,
  0x37, 0xd6, 0x42, 0xba, 0xda, 0xfc, 0x1d, 0x16, 0x19, 0xc2, 0x50, 0xec,
  0x39, 0xd8, 0x22, 0x56, 0xfb, 0x41, 0x37, 0x3f, 0x33, 0x0d, 0xf9, 0x2f,
  0x05, 0xec, 0x22, 0xeb, 0xc4, 0xc1, 0xdf, 0xeb, 0xca, 0xc6, 0x36, 0xfc,
  0x05, 0x38, 0x21, 0xb7, 0x0a, 0xfd, 0xc1, 0x43, 0x32, 0xbc, 0x08, 0x1b,
  0x18, 0x22, 0xd1, 0x19, 0x81, 0xdf, 0x30, 0x25, 0x3f, 0xe2, 0x2b, 0x03,
  0x17, 0xf8, 0x29, 0xc5, 0x2f, 0x4d, 0x33, 0x3b, 0xdf, 0x4b, 0x34, 0xe6,
  0xf5, 0xc7, 0x52, 0xbf, 0x3f, 0xe4, 0xc8, 0x59, 0xfd, 0x3c, 0xdf, 0xfc,
  0xc2, 0xc8, 0xf0, 0x0c, 0xd6, 0xfd, 0x1b, 0x4c, 0xf2, 0x40, 0xed, 0x50,
  0x02, 0xb2, 0xcf, 0xdc, 0xbd, 0x3d, 0xd3, 0x36, 0x21, 0xeb, 0xd7, 0xec,
  0x1d, 0x15, 0x0a, 0xd9, 0xd3, 0xd6, 0x07, 0xdd, 0x0b, 0x09, 0x36, 0x4c,
  0x0c, 0x0f, 0xf6, 0x46, 0x32, 0x3a, 0x3b, 0xb8, 0xe9, 0x3c, 0x04, 0x15,
  0xc1, 0xe0, 0x35, 0xc7, 0xb8, 0x2a, 0xff, 0xd1, 0xc2, 0x14, 0x28, 0x1d,
  0x01, 0xde, 0xb7, 0x44, 0x3f, 0x32, 0xfb, 0x35, 0x08, 0xe3, 0x49, 0x44,
  0xee, 0xd3, 0x1b, 0x46, 0x12, 0x4a, 0xde, 0xea, 0xeb, 0x35, 0x3d, 0x2d,
  0xf2, 0x04, 0x3b, 0xbe, 0xc6, 0xec, 0xc3, 0xca, 0x07, 0xbb, 0xdd, 0x07,
  0xee, 0x09, 0x19, 0x00, 0x3a, 0xac, 0x4f, 0xbe, 0xe0, 0xca, 0x5a, 0xcb,
  0xb2, 0x6a, 0x27, 0xb2, 0x3b, 0xb9, 0x31, 0xb6, 0xa6, 0xa7, 0xff, 0x5e,
  0xa8, 0x14, 0xf8, 0x0f, 0xa2, 0x14, 0x58, 0x07, 0xbc, 0xb4, 0x35, 0xcc,
  0x44, 0xef, 0x2a, 0xcd, 0xd7, 0x25, 0x0c, 0x31, 0x00, 0xb7, 0xdb, 0xe5,
  0x06, 0x60, 0xfb, 0x9d, 0xbe, 0x68, 0xa3, 0x4a, 0x13, 0x55, 0x0e, 0xeb,
  0xa0, 0x05, 0x14, 0x09, 0x09, 0x00, 0x99, 0xd9, 0x21, 0x13, 0x2f, 0xf3,
  0x25, 0x48, 0xfc, 0xc9, 0xb1, 0x49, 0x36, 0xd0, 0xa3, 0x16, 0x31, 0x32,
  0x38, 0x17, 0xa8, 0x15, 0xe7, 0x42, 0xf3, 0x11, 0xa7, 0xfc, 0xea, 0xc2,
  0xb5, 0x89, 0x18, 0x39, 0x98, 0x9b, 0xef, 0xde, 0xf3, 0xdb, 0x6f, 0xe3,
  0x2e, 0xc2, 0x37, 0xb3, 0xef, 0xfa, 0x1d, 0x28, 0xa3, 0x45, 0x2b, 0x08,
  0x18, 0xcc, 0xa7, 0xb0, 0xa4, 0xcb, 0x15, 0x64, 0x28, 0x00, 0x34, 0x00,
  0x9a, 0xd5, 0xfd, 0xa4, 0x08, 0x12, 0xd2, 0xe1, 0x0f, 0xed, 0x42, 0xef,
  0x24, 0x14, 0xd7, 0x07, 0x59, 0xfd, 0x0c, 0x30, 0xe6, 0x63, 0xc1, 0x7f,
  0x2a, 0xcb, 0x4f, 0x52, 0xbf, 0xe6, 0xe5, 0x5f, 0xeb, 0x2f, 0x42, 0xaf,
  0x46, 0xa5, 0x4f, 0xee, 0xbd, 0xcc, 0xad, 0x4b, 0x7e, 0x49, 0x19, 0xa7,
  0xbf, 0xd5, 0xb6, 0xc7, 0xc0, 0xe6, 0x06, 0x0b, 0x09, 0x0e, 0x26, 0xd4,
  0x13, 0xdd, 0x4e, 0x46, 0x4b, 0x10, 0x16, 0x61, 0x21, 0x0f, 0x92, 0x57,
  0xe0, 0xbb, 0xe4, 0xdd, 0x09, 0xa4, 0x08, 0x45, 0xaf, 0x22, 0x4f, 0xad,
  0x3f, 0x8b, 0x5f, 0xbe, 0xec, 0x52, 0xdb, 0xef, 0xc0, 0x8f, 0xde, 0x49,
  0x35, 0xd7, 0xc1, 0x23, 0xbf, 0x21, 0xbc, 0xe1, 0xbc, 0xdc, 0xe6, 0xff,
  0xdf, 0xfa, 0x59, 0x32, 0xa6, 0x58, 0x00, 0xd5, 0x03, 0x13, 0x00, 0x26,
  0x4f, 0xfa, 0x53, 0x3d, 0xc2, 0x04, 0xdb, 0xd6, 0xaf, 0xe9, 0x56, 0x0d,
  0xdc, 0x4d, 0x5f, 0x0e, 0x75, 0x9a, 0x5e, 0xb8, 0xee, 0xb4, 0xd4, 0xa8,
  0xfb, 0xa2, 0x37, 0x4c, 0xbc, 0xfc, 0xed, 0xe2, 0x3e, 0x59, 0x49, 0xf5,
  0x37, 0x81, 0xc2, 0x3e, 0x48, 0x00, 0x8b, 0x9c, 0x2b, 0x0f, 0x39, 0x50,
  0xe8, 0xf5, 0xa8, 0xf9, 0xc4, 0xe4, 0xc7, 0xad, 0x21, 0xd9, 0x31, 0x34,
  0x39, 0xe9, 0x6f, 0xff, 0xc5, 0xb7, 0xab, 0x34, 0x06, 0x06, 0xba, 0xe1,
  0x2f, 0xdd, 0x0f, 0xd6, 0x01, 0xab, 0x4a, 0x58, 0x45, 0xe1, 0x0f, 0xdc,
  0xc8, 0x4a, 0x3b, 0xca, 0x32, 0x10, 0x4b, 0xc2, 0xe1, 0x0f, 0x64, 0xfa,
  0x82, 0x59, 0xab, 0x33, 0x60, 0x05, 0xf4, 0xad, 0x4a, 0x49, 0xb9, 0xd8,
  0x3d, 0xb2, 0x50, 0x0a, 0x38, 0x15, 0x52, 0xcf, 0xd6, 0x0b, 0x24, 0xe3,
  0x0f, 0xd3, 0x9c, 0x52, 0xfe, 0xde, 0x36, 0xad, 0xd2, 0x09, 0x3a, 0xd6,
  0xc9, 0x44, 0x18, 0xa1, 0xf8, 0xd1, 0xdb, 0x12, 0x2f, 0x21, 0x2c, 0x1d,
  0xef, 0x29, 0xd9, 0x41, 0x04, 0x08, 0xec, 0xdb, 0x39, 0xf8, 0xfd, 0xc8,
  0xf1, 0xf7, 0x20, 0x7f, 0x11, 0xee, 0x3a, 0xf4, 0xd5, 0x04, 0x08, 0xd6,
  0x2a, 0x2c, 0x26, 0x13, 0xd8, 0xc0, 0xef, 0xe2, 0xba, 0xba, 0xf2, 0x24,
  0xf9, 0xc3, 0x29, 0xf7, 0xfb, 0xff, 0x1f, 0x31, 0xee, 0xc6, 0x0c, 0xc8,
  0xda, 0x22, 0xe2, 0x11, 0xd4, 0x28, 0x32, 0xc9, 0x1f, 0xd1, 0x3f, 0x00,
  0xd6, 0xf1, 0xc9, 0xf9, 0xc9, 0xd6, 0xfd, 0x34, 0xb9, 0x02, 0xca, 0x01,
  0x43, 0x2a, 0xff, 0x17, 0x0d, 0xcb, 0x19, 0x30, 0xfb, 0xfd, 0x33, 0xf9,
  0x19, 0xec, 0x3e, 0x28, 0x07, 0xcf, 0xbf, 0x2b, 0x13, 0x4a, 0xf2, 0x3e,
  0x2b, 0xc9, 0xfa, 0x20, 0xf9, 0x2e, 0x10, 0x08, 0x13, 0x39, 0xe0, 0xeb,
  0x04, 0x29, 0x41, 0xe8, 0x07, 0xef, 0x15, 0xd8, 0x42, 0x2b, 0xc1, 0xce,
  0x0a, 0xcf, 0x22, 0x3e, 0x35, 0x04, 0xc6, 0x0d, 0xca, 0x43, 0x23, 0x06,
  0xe7, 0xff, 0xfa, 0x33, 0xbb, 0xf3, 0xce, 0xc7, 0xea, 0xe1, 0x33, 0x0a,
  0x2c, 0x0f, 0x09, 0x3e, 0x37, 0x1a, 0xe6, 0xe1, 0xd0, 0xe6, 0x0b, 0xe5,
  0xd0, 0x20, 0xf5, 0x25, 0x0a, 0xce, 0xe3, 0xe6, 0x18, 0x09, 0xef, 0x1e,
  0xdd, 0x0d, 0x32, 0xcc, 0x27, 0x2a, 0x1e, 0xe5, 0x2a, 0xe9, 0xe7, 0xeb,
  0x42, 0xf8, 0x1b, 0xc5, 0xe2, 0x22, 0xe1, 0x09, 0x36, 0x4a, 0xc1, 0x44,
  0x2d, 0x54, 0x13, 0x0f, 0xc3, 0x20, 0x01, 0xa7, 0xfb, 0xfc, 0x3b, 0xb2,
  0xdc, 0x05, 0xaf, 0x11, 0x62, 0x32, 0xce, 0xce, 0x07, 0x45, 0x1e, 0xae,
  0x4a, 0xad, 0x1a, 0xed, 0x09, 0x7a, 0xd9, 0xbe, 0x24, 0x02, 0xba, 0x2a,
  0xa1, 0x5d, 0x0a, 0x0d, 0xc4, 0xcf, 0x3c, 0x4a, 0xcc, 0x2d, 0x0a, 0x46,
  0xbd, 0x5f, 0xe0, 0xe9, 0x35, 0x07, 0xce, 0x04, 0x0c, 0xb7, 0x47, 0x3b,
  0xc4, 0x2f, 0xaa, 0xf6, 0x33, 0xc3, 0x35, 0x24, 0xce, 0x18, 0x45, 0xda,
  0xf2, 0x34, 0xb7, 0xe3, 0x9d, 0x2c, 0xf9, 0x7f, 0x03, 0xd5, 0x21, 0x38,
  0xb4, 0x13, 0xbc, 0x26, 0xbc, 0x09, 0x0f, 0x01, 0xfb, 0xb6, 0x30, 0x2c,
  0x4c, 0x26, 0xc1, 0x11, 0xcd, 0xe9, 0xe5, 0x2f, 0x2b, 0xc9, 0x09, 0x07,
  0x45, 0x14, 0x93, 0x44, 0xd8, 0xeb, 0xce, 0x4c, 0xf4, 0x12, 0x20, 0x10,
  0x49, 0xaa, 0x4c, 0x07, 0x49, 0xb1, 0x4c, 0xc5, 0xd6, 0xed, 0x06, 0xd9,
  0xc3, 0xd7, 0xd6, 0xa2, 0x07, 0xdc, 0xed, 0x41, 0x22, 0xe8, 0xb4, 0x21,
  0x61, 0xf4, 0xbe, 0x23, 0xcc, 0xfb, 0xe7, 0xb7, 0xc3, 0xf1, 0x2d, 0x0f,
  0xc9, 0x53, 0xde, 0xb6, 0x41, 0x2e, 0xea, 0xcb, 0xae, 0xd5, 0x01, 0x3e,
  0xf6, 0x2f, 0x3c, 0x3c, 0x51, 0xde, 0xad, 0xc4, 0x26, 0x2f, 0xb1, 0xb1,
  0x0b, 0xae, 0x3f, 0xdc, 0xfa, 0xd5, 0x0b, 0xc0, 0xf0, 0xb6, 0x2e, 0xbe,
  0x33, 0xeb, 0xcb, 0x21, 0x53, 0x35, 0x40, 0xf8, 0xff, 0x1c, 0xce, 0xd2,
  0x3b, 0x21, 0x07, 0x2c, 0xe6, 0x28, 0xbe, 0x12, 0x21, 0xe0, 0x19, 0xc4,
  0x10, 0xd8, 0xdf, 0xc6, 0x33, 0x3f, 0x3e, 0x48, 0x07, 0xd1, 0xb9, 0x1f,
  0xf3, 0x44, 0x37, 0x1f, 0x11, 0x11, 0xb0, 0x00, 0x31, 0x17, 0x09, 0x3e,
  0x0e, 0x33, 0x23, 0x2f, 0xc0, 0x9d, 0xba, 0xf1, 0xb9, 0x21, 0xfe, 0x4f,
  0xf3, 0xdb, 0x17, 0xb7, 0x36, 0x3c, 0xd8, 0xa0, 0x1c, 0xbd, 0x53, 0xb2,
  0xc3, 0xba, 0xc8, 0x89, 0x13, 0x28, 0x13, 0x14, 0x09, 0xd9, 0x33, 0x03,
  0xbb, 0xb4, 0x15, 0x11, 0x4b, 0x10, 0xde, 0xf1, 0xf2, 0xb5, 0xc1, 0xce,
  0x04, 0x17, 0x10, 0xee, 0xc3, 0x14, 0x05, 0xad, 0xd7, 0x62, 0xeb, 0xda,
  0x0a, 0xf8, 0xfa, 0x9d, 0xdd, 0x05, 0x3b, 0xef, 0xd3, 0x45, 0x9f, 0xf6,
  0x1b, 0x36, 0xfc, 0x2f, 0x48, 0x16, 0x3a, 0xfe, 0x08, 0xeb, 0x26, 0x36,
  0xf8, 0x44, 0x07, 0x0c, 0x1c, 0x19, 0xe7, 0xd6, 0x03, 0xf4, 0x3c, 0xec,
  0x81, 0xbb, 0x2b, 0xfd, 0xbb, 0x2b, 0xd6, 0xda, 0x4f, 0x43, 0x1f, 0xae,
  0xde, 0x02, 0xc8, 0x1c, 0x32, 0x1e, 0x51, 0xe8, 0xde, 0xd5, 0xb3, 0x32,
  0x42, 0xff, 0x11, 0xf0, 0x22, 0x2b, 0x59, 0xd3, 0x39, 0x02, 0xdb, 0xd5,
  0x30, 0x3b, 0x21, 0xae, 0x2f, 0x2b, 0x3f, 0x41, 0xe0, 0x12, 0x37, 0x0e,
  0xbd, 0x71, 0xa6, 0x17, 0xf7, 0x4b, 0x4b, 0x24, 0xba, 0xc9, 0x59, 0xe1,
  0x63, 0x4e, 0xcd, 0x4c, 0x0c, 0xeb, 0x66, 0x98, 0xbd, 0xff, 0x3f, 0xad,
  0x0d, 0x3f, 0x67, 0x53, 0xa0, 0xf2, 0xef, 0x4d, 0x46, 0x0b, 0xb4, 0x36,
  0x2c, 0xf7, 0xf1, 0xd6, 0x64, 0x2b, 0x46, 0xde, 0x5d, 0x5e, 0xf6, 0x31,
  0xc4, 0x0c, 0x1a, 0xd9, 0x5f, 0xda, 0xad, 0x3f, 0xa0, 0x58, 0xc1, 0x51,
  0xfc, 0xad, 0xec, 0xe6, 0x35, 0xc3, 0x12, 0x4b, 0x46, 0x13, 0x23, 0x45,
  0xaf, 0xc6, 0xdc, 0x05, 0xeb, 0xda, 0xfa, 0x63, 0x30, 0x2e, 0x1b, 0x36,
  0xac, 0xf9, 0x5b, 0x9d, 0x42, 0xc3, 0x26, 0x12, 0x1d, 0xd5, 0x21, 0xf8,
  0x3f, 0x20, 0x43, 0xf0, 0xfb, 0xa2, 0xe3, 0x45, 0xae, 0x53, 0xcc, 0x1f,
  0x11, 0x61, 0x23, 0x02, 0xcd, 0xc4, 0x65, 0x02, 0xfd, 0xc9, 0xec, 0x45,
  0x2d, 0xbe, 0x01, 0x16, 0x49, 0xf7, 0xf2, 0xac, 0x56, 0xf4, 0x73, 0x00,
  0x18, 0xe4, 0x97, 0x40, 0x02, 0x00, 0x1c, 0x29, 0x00, 0x54, 0x62, 0x9b,
  0xaa, 0xf8, 0x26, 0x4a, 0x15, 0x27, 0xd7, 0x59, 0x45, 0x22, 0x14, 0x55,
  0xb6, 0x4c, 0x55, 0xa9, 0xc6, 0x47, 0x93, 0xcb, 0x01, 0x7f, 0x05, 0xeb,
  0x28, 0x49, 0x51, 0xde, 0xce, 0xd9, 0xae, 0xd3, 0xf1, 0x25, 0x5c, 0xb3,
  0x65, 0xe2, 0xf3, 0xf7, 0xcb, 0xac, 0x41, 0x05, 0xd6, 0x0e, 0xd9, 0x14,
  0x33, 0xe0, 0x14, 0x50, 0xf9, 0x3a, 0x18, 0x32, 0x0e, 0x4f, 0x49, 0x01,
  0x52, 0xfa, 0x2a, 0xfe, 0xe5, 0x4b, 0x3c, 0xd9, 0xf6, 0x05, 0xc3, 0xba,
  0xb9, 0x4d, 0xb8, 0xea, 0x0e, 0xfb, 0xe1, 0x33, 0xd3, 0x66, 0xc9, 0xdb,
  0x50, 0xcc, 0x2b, 0x0d, 0xe7, 0x4b, 0x28, 0x45, 0xda, 0xf5, 0x51, 0xf3,
  0x03, 0x0c, 0xd6, 0xda, 0xf4, 0xf5, 0xca, 0xfe, 0xb3, 0x47, 0xd4, 0x46,
  0xff, 0x24, 0x4b, 0x06, 0x31, 0xfb, 0xea, 0x1f, 0x4a, 0x2d, 0x18, 0xe9,
  0x14, 0x31, 0xd7, 0x15, 0x37, 0x05, 0x07, 0xce, 0xd1, 0x23, 0xd2, 0xbd,
  0x49, 0x25, 0x30, 0xc9, 0xb3, 0xe8, 0x38, 0x03, 0xe5, 0x1a, 0xbc, 0x0c,
  0xda, 0x03, 0x09, 0xff, 0xc4, 0xed, 0xe6, 0x60, 0x0e, 0xb8, 0x18, 0x25,
  0xb8, 0x39, 0x30, 0xd1, 0x28, 0xc2, 0xe8, 0x10, 0x09, 0x06, 0xdf, 0x16,
  0x1d, 0xef, 0xea, 0xf2, 0xca, 0x04, 0xc6, 0x05, 0xfe, 0x04, 0x37, 0x05,
  0x81, 0x04, 0x0a, 0xcd, 0x11, 0xbd, 0x3a, 0xf6, 0x2d, 0x0e, 0xcd, 0xf7,
  0xe0, 0xd8, 0x44, 0xf0, 0x10, 0x20, 0xb5, 0xdf, 0x22, 0xfe, 0xf8, 0xc1,
  0xf4, 0xea, 0x04, 0xe1, 0xc1, 0xe6, 0xff, 0x2a, 0x1c, 0xfc, 0xdf, 0xb4,
  0x57, 0x36, 0xf7, 0xe9, 0xdc, 0xe5, 0x4e, 0x1f, 0x36, 0xfb, 0xea, 0x2d,
  0x00, 0x3f, 0xfb, 0xef, 0xff, 0x56, 0x0f, 0xe4, 0x3c, 0x39, 0x15, 0xbb,
  0x44, 0xef, 0x3e, 0xdc, 0xbf, 0x00, 0xc1, 0x05, 0x06, 0xdd, 0x43, 0xe5,
  0xa0, 0xe0, 0xf1, 0x3a, 0x19, 0xf2, 0xef, 0xcb, 0xf3, 0x4e, 0xdc, 0x2b,
  0x3b, 0xb1, 0x45, 0xfb, 0x0e, 0x4a, 0xc5, 0xe0, 0x32, 0x30, 0x15, 0x06,
  0x20, 0xa1, 0x26, 0x25, 0x99, 0xc0, 0xc7, 0xbb, 0xbf, 0x23, 0xc1, 0x2d,
  0xa7, 0xae, 0x45, 0x45, 0x37, 0xb5, 0xde, 0xf1, 0xec, 0xdd, 0x42, 0x04,
  0x19, 0x18, 0xdc, 0x07, 0xb7, 0x58, 0x0e, 0x05, 0xa9, 0xce, 0xd2, 0xdd,
  0xf1, 0x30, 0x10, 0x13, 0xb3, 0xc0, 0xac, 0x0f, 0x43, 0xe2, 0x19, 0x3c,
  0xf9, 0x13, 0xad, 0x4f, 0xe9, 0xe5, 0xcf, 0x22, 0xfa, 0xdd, 0xd5, 0x26,
  0xec, 0xff, 0xcc, 0xf5, 0xc7, 0xc3, 0x13, 0xde, 0x33, 0x5b, 0x53, 0xff,
  0x0a, 0x09, 0xf4, 0x9f, 0xf7, 0x2e, 0x25, 0xb8, 0xd9, 0xf2, 0x17, 0xd4,
  0xc6, 0xcf, 0xc0, 0x33, 0xe0, 0xfb, 0xec, 0xb7, 0x13, 0x5f, 0xb2, 0x14,
  0xd0, 0x28, 0x40, 0x32, 0xaf, 0x54, 0xfd, 0xf6, 0xfa, 0xa9, 0x42, 0xef,
  0xfd, 0xce, 0x20, 0x5d, 0xa9, 0xa2, 0xa5, 0xdf, 0x53, 0x9d, 0xef, 0x5d,
  0xaf, 0x81, 0xef, 0x0a, 0xba, 0x2d, 0x33, 0x24, 0xdf, 0xe4, 0xd9, 0xde,
  0x3a, 0x34, 0x0e, 0x1a, 0xf9, 0xb4, 0x1d, 0x3d, 0x4b, 0xfc, 0xc8, 0xff,
  0xe7, 0xea, 0xd0, 0x07, 0x3e, 0xdf, 0xcc, 0x51, 0x31, 0xc3, 0xd0, 0xcb,
  0xfc, 0x54, 0xae, 0xe4, 0xeb, 0x56, 0xf6, 0xc8, 0xfc, 0x1d, 0x5f, 0x36,
  0xe5, 0x06, 0x42, 0xcc, 0x24, 0x05, 0x2c, 0x15, 0x38, 0x9a, 0xb6, 0x3d,
  0xeb, 0xc0, 0x1a, 0xcf, 0x35, 0x41, 0x62, 0x31, 0xd2, 0x0f, 0x30, 0xf4,
  0xee, 0xe8, 0x23, 0x38, 0xca, 0x43, 0x1a, 0xcf, 0xf9, 0xb8, 0x51, 0xe3,
  0x46, 0x4a, 0x0b, 0xd3, 0xc6, 0xeb, 0xd1, 0xf9, 0xb7, 0xc7, 0xd5, 0x19,
  0xd6, 0xe1, 0xb3, 0xdb, 0xc8, 0x01, 0x40, 0xd2, 0xf2, 0xde, 0xfb, 0x2f,
  0xe5, 0x3f, 0xc9, 0x4d, 0x5e, 0x81, 0xc7, 0xf6, 0xe6, 0x5f, 0x40, 0xd1,
  0xbf, 0xe4, 0x31, 0xd5, 0x0c, 0xeb, 0xca, 0x4a, 0x24, 0xbb, 0xf9, 0xd9,
  0x4e, 0xb3, 0xe9, 0x2f, 0xd7, 0xbc, 0x12, 0x3f, 0xb3, 0x17, 0x05, 0xfd,
  0x04, 0x46, 0xfc, 0x3e, 0xe2, 0xbf, 0xed, 0xf4, 0x87, 0xa7, 0x20, 0xef,
  0xfd, 0xff, 0x3e, 0xfe, 0xed, 0x0e, 0xc1, 0x1a, 0x30, 0xaa, 0x2e, 0xfe,
  0xcb, 0xcd, 0x01, 0x24, 0xc4, 0xb8, 0x45, 0x58, 0x1a, 0xe3, 0xe8, 0xce,
  0xe7, 0xcb, 0xee, 0xca, 0x31, 0xcf, 0x39, 0x23, 0x2b, 0xac, 0xc8, 0xcc,
  0x42, 0xdc, 0x4b, 0xc4, 0x27, 0x1c, 0xdd, 0x39, 0x21, 0xfb, 0xfb, 0x21,
  0x13, 0x1b, 0x5d, 0x52, 0x19, 0x5a, 0xd0, 0xca, 0xd4, 0x3a, 0x41, 0x22,
  0xf7, 0x3a, 0xec, 0xbc, 0x11, 0x9f, 0xc9, 0xdc, 0xcc, 0x27, 0xfa, 0xf7,
  0x20, 0x18, 0xf1, 0x18, 0x50, 0xd5, 0x10, 0x16, 0xb9, 0xd9, 0xab, 0x59,
  0xa8, 0xe4, 0x3d, 0x06, 0x7f, 0xed, 0x1a, 0x00, 0x14, 0x59, 0x46, 0x13,
  0xd3, 0x2a, 0x27, 0xa4, 0xc5, 0xcc, 0x03, 0x4d, 0xd9, 0x05, 0xa8, 0xac,
  0xb8, 0x53, 0x3c, 0x14, 0xe3, 0xed, 0x1a, 0xde, 0x53, 0xac, 0x06, 0xf4,
  0xf6, 0x54, 0x4b, 0x5d, 0x1b, 0x9e, 0x5c, 0x51, 0xb9, 0x2f, 0xca, 0xfc,
  0xac, 0x4c, 0x04, 0x49, 0xd7, 0xce, 0xbd, 0xd8, 0xbe, 0x3f, 0xca, 0x28,
  0x08, 0xe6, 0xdf, 0xcd, 0x3a, 0xed, 0x10, 0x6e, 0x63, 0x08, 0x5b, 0x30,
  0xbf, 0x46, 0x07, 0xdd, 0x5a, 0xaf, 0xb9, 0xf3, 0xb6, 0x34, 0xe3, 0x13,
  0x36, 0x26, 0x38, 0x31, 0xb0, 0x1b, 0x0f, 0x3c, 0x0e, 0xb2, 0x23, 0xf6,
  0xee, 0x05, 0x15, 0xd3, 0xcf, 0xd8, 0x36, 0xc3, 0x54, 0x98, 0xe0, 0xe3,
  0xc5, 0xa7, 0x23, 0x23, 0xe0, 0x60, 0x17, 0xfa, 0xba, 0xf6, 0xf5, 0xd1,
  0x23, 0x42, 0xcb, 0xb3, 0xc1, 0x1d, 0x04, 0xbd, 0x0a, 0xf9, 0x3d, 0x05,
  0x77, 0xfa, 0x3f, 0xaa, 0xb7, 0x01, 0xcd, 0xe3, 0x2e, 0x41, 0xa1, 0xc7,
  0x49, 0x26, 0xed, 0xe5, 0x13, 0x5b, 0x4c, 0xaf, 0x54, 0xc0, 0x1e, 0xab,
  0x46, 0x14, 0x3e, 0xb4, 0xa2, 0x08, 0xc1, 0x5b, 0x4f, 0x5a, 0xa3, 0x3b,
  0x0d, 0xec, 0xd4, 0xa9, 0xfb, 0xff, 0xda, 0xe8, 0xe5, 0x2c, 0x39, 0x1c,
  0xe6, 0x39, 0xf2, 0xc0, 0x4c, 0x49, 0xf2, 0xa9, 0xe5, 0x05, 0xf1, 0x26,
  0x62, 0xfb, 0xd3, 0x46, 0x08, 0x44, 0x4f, 0x5b, 0x02, 0xe2, 0x10, 0xf4,
  0xde, 0x1f, 0x09, 0xc5, 0xa8, 0x19, 0x4f, 0xe3, 0x48, 0xac, 0xfe, 0xb7,
  0xa8, 0xe6, 0xea, 0xfd, 0x1f, 0xb3, 0x22, 0xda, 0x45, 0x1c, 0x05, 0x0f,
  0xa5, 0x60, 0x38, 0x01, 0xb2, 0x50, 0xf3, 0x0f, 0x2b, 0x41, 0xd5, 0x17,
  0xc3, 0xc3, 0x64, 0x1f, 0x04, 0x61, 0xf2, 0x59, 0xeb, 0xb5, 0x2f, 0x98,
  0x61, 0x4a, 0xfc, 0xd3, 0xc0, 0x6e, 0xb8, 0x6c, 0xed, 0x49, 0x59, 0x52,
  0xf9, 0xc5, 0x14, 0x28, 0x0f, 0xdc, 0xde, 0x63, 0x39, 0xfc, 0xc9, 0xfa,
  0x51, 0xab, 0x42, 0xe6, 0x3d, 0x94, 0xb2, 0x23, 0x28, 0xeb, 0xdc, 0xed,
  0x3d, 0xc3, 0x07, 0x42, 0xa3, 0xb8, 0xba, 0xe2, 0x9c, 0x05, 0x5b, 0xdf,
  0xef, 0xc8, 0x3e, 0x16, 0xe8, 0x3b, 0x39, 0xb2, 0xa7, 0xb2, 0xdd, 0xf8,
  0xce, 0x2b, 0xd8, 0xe7, 0x5a, 0x44, 0xf0, 0xb4, 0x6e, 0xb7, 0x06, 0x12,
  0x7f, 0xe5, 0x1d, 0x1a, 0x4e, 0x38, 0xb4, 0x9a, 0xbc, 0xc9, 0x00, 0x06,
  0x1c, 0xff, 0x44, 0x0b, 0x6c, 0xf2, 0x36, 0x56, 0xb3, 0x06, 0x47, 0xbe,
  0xcb, 0xad, 0x5b, 0xcd, 0x5d, 0x5f, 0xfa, 0xb6, 0xd8, 0x21, 0x25, 0x08,
  0xfd, 0xf7, 0x12, 0x69, 0xd6, 0x08, 0xe9, 0xbc, 0x16, 0x41, 0xd4, 0x3c,
  0xe6, 0xb4, 0x03, 0x2b, 0xd3, 0x19, 0xe3, 0x5a, 0xe2, 0xf1, 0xf4, 0x47,
  0x1e, 0x1d, 0x6d, 0xc1, 0x47, 0x03, 0xda, 0xb5, 0xf2, 0x40, 0x21, 0x02,
  0x48, 0xcb, 0xf8, 0xb6, 0xd8, 0x66, 0xf3, 0xb7, 0xd9, 0x7f, 0x29, 0xae,
  0x1a, 0xff, 0xa2, 0x3f, 0xab, 0x19, 0xf4, 0x2c, 0xb1, 0xd8, 0xc5, 0xe6,
  0xd3, 0x88, 0xf6, 0x4f, 0x0a, 0xfc, 0x02, 0xd4, 0xa8, 0x2a, 0x3b, 0x2e,
  0xd2, 0x35, 0x38, 0xdd, 0x25, 0x28, 0x57, 0x53, 0x28, 0xd5, 0xb0, 0xdb,
  0xe7, 0xb9, 0xd7, 0x2a, 0xc2, 0x10, 0x3c, 0x43, 0x2e, 0x15, 0xe6, 0xdb,
  0x2f, 0x75, 0x59, 0xdb, 0x40, 0x34, 0xf8, 0x0b, 0x35, 0x5c, 0xdf, 0xc0,
  0x03, 0xff, 0xc7, 0xd0, 0x51, 0x33, 0xfd, 0xc4, 0x33, 0x46, 0x2b, 0xdd,
  0xf9, 0xe7, 0xc9, 0xce, 0xb5, 0xff, 0x6b, 0xf8, 0x30, 0xf1, 0x14, 0xb9,
  0x5e, 0xfc, 0xfb, 0x37, 0x46, 0x16, 0x37, 0x27, 0x3a, 0x3e, 0x40, 0x08,
  0xd0, 0x12, 0xfb, 0x1e, 0x4a, 0xf5, 0xbf, 0x4e, 0xf7, 0x1f, 0x34, 0x20,
  0xc6, 0xa6, 0xb4, 0xf9, 0x4b, 0x3a, 0x4d, 0xbc, 0xd4, 0x67, 0x58, 0xea,
  0xb8, 0x4e, 0xb0, 0xc1, 0xd1, 0x24, 0xba, 0xc6, 0x8e, 0x2b, 0x18, 0x57,
  0x4d, 0x3a, 0x1f, 0x0e, 0x48, 0xd8, 0x45, 0x25, 0xea, 0xf0, 0xa6, 0x08,
  0xd9, 0x40, 0xeb, 0x19, 0xed, 0xb4, 0x27, 0x48, 0x46, 0xdf, 0xb4, 0x03,
  0xdb, 0x22, 0x2e, 0xdd, 0xf8, 0xba, 0x0e, 0x23, 0x9c, 0x53, 0x26, 0x02,
  0xb1, 0x22, 0x21, 0x0c, 0x8f, 0xf5, 0x30, 0xbd, 0xeb, 0x4c, 0xc1, 0x47,
  0xc2, 0xe5, 0x00, 0x28, 0xee, 0x1e, 0x47, 0xfd, 0x1e, 0xd9, 0x29, 0x48,
  0xc1, 0xe1, 0xfb, 0x13, 0x0f, 0x24, 0xd2, 0x49, 0x12, 0xcf, 0x27, 0xd8,
  0xde, 0xe2, 0x3b, 0x37, 0x3c, 0x66, 0xc3, 0xc8, 0xe2, 0xbc, 0xa1, 0x37,
  0x4f, 0xcc, 0x1d, 0xaf, 0xc5, 0xcf, 0xdc, 0x0d, 0xb9, 0xb5, 0xe3, 0x45,
  0xfa, 0x18, 0x24, 0xe7, 0xd6, 0xe1, 0x27, 0x36, 0xba, 0x34, 0x12, 0x07,
  0x57, 0xd0, 0xc2, 0x23, 0xfa, 0x91, 0x9a, 0x2f, 0xca, 0x39, 0xe6, 0xbc,
  0xee, 0x12, 0x09, 0x1b, 0x7f, 0x02, 0x37, 0x2b, 0xfd, 0x24, 0x3e, 0x4d,
  0x2f, 0x58, 0x3a, 0x11, 0x2e, 0x36, 0x24, 0xe3, 0x1b, 0xe2, 0xd4, 0xea,
  0x04, 0x46, 0x0b, 0x05, 0x32, 0x0f, 0x56, 0x00, 0xdf, 0xd3, 0x1a, 0x57,
  0xbe, 0xe8, 0xbf, 0xd8, 0x3e, 0x15, 0x06, 0x42, 0xb8, 0x11, 0x4a, 0x18,
  0x26, 0x05, 0x1d, 0x4e, 0xba, 0xc7, 0x24, 0xf5, 0xe5, 0x23, 0x09, 0xf3,
  0xfc, 0x2e, 0x23, 0x45, 0x0e, 0xa2, 0x1a, 0x21, 0xf0, 0x27, 0xd0, 0x24,
  0x99, 0x19, 0x09, 0x06, 0xa2, 0x15, 0xe5, 0x41, 0x43, 0x20, 0x3f, 0xbc,
  0xf9, 0xb2, 0x3a, 0x07, 0x25, 0x4f, 0xda, 0x13, 0xb3, 0x43, 0x18, 0x11,
  0xf2, 0x4b, 0xc0, 0x52, 0xdc, 0xfb, 0x43, 0xaf, 0xe8, 0x2d, 0xab, 0xef,
  0x31, 0x3a, 0x0a, 0xc1, 0x27, 0xd3, 0x00, 0x3a, 0x03, 0x10, 0x3b, 0xd9,
  0x3f, 0xb6, 0x20, 0xce, 0xe2, 0x0d, 0xf9, 0xd4, 0x3e, 0x08, 0x2f, 0x2c,
  0x42, 0xa9, 0xbc, 0x3e, 0x9d, 0x42, 0x31, 0xcc, 0x23, 0x1d, 0x14, 0x1b,
  0x26, 0x0d, 0xfb, 0x14, 0x05, 0xf3, 0x21, 0xd4, 0x01, 0x37, 0x31, 0xb5,
  0xdd, 0x2f, 0xc8, 0xe4, 0xd5, 0xf8, 0x19, 0x41, 0xc5, 0xe5, 0x1e, 0xb2,
  0xc8, 0x45, 0xd2, 0xe4, 0x6b, 0x83, 0x1a, 0x0a, 0xc7, 0xeb, 0x28, 0x5c,
  0xe6, 0xa5, 0xdd, 0xfa, 0x1a, 0xc4, 0xd4, 0xb5, 0x30, 0x1f, 0x11, 0x41,
  0xf1, 0x34, 0x47, 0xdb, 0x3d, 0xd5, 0xb4, 0xe0, 0x0c, 0xe8, 0xf8, 0x00,
  0xf2, 0xd4, 0x52, 0xec, 0x33, 0xd6, 0xc3, 0xd0, 0x78, 0xce, 0xa8, 0x17,
  0xae, 0xbe, 0x28, 0x14, 0xfc, 0x1a, 0xd1, 0xbd, 0x53, 0xef, 0x50, 0x53,
  0x31, 0xb6, 0xb5, 0x60, 0xd6, 0x10, 0x1c, 0xe1, 0x17, 0x44, 0x4b, 0xe3,
  0xe1, 0x32, 0xc1, 0x03, 0x32, 0x19, 0x0e, 0xb5, 0xbf, 0xd6, 0x10, 0x06,
  0x19, 0xd8, 0x2d, 0x18, 0xbc, 0x39, 0x12, 0x16, 0x0f, 0xfa, 0xd9, 0x51,
  0x51, 0xda, 0x42, 0x5c, 0xdf, 0xbd, 0xef, 0x3a, 0xf8, 0xce, 0x19, 0x3a,
  0xef, 0x7f, 0xe8, 0xe2, 0x3f, 0xb5, 0x2c, 0xb6, 0xcf, 0x15, 0xdb, 0x43,
  0xd0, 0x43, 0x15, 0x4a, 0x14, 0xdf, 0xb0, 0x34, 0x29, 0x59, 0x0a, 0x18,
  0xe2, 0xc6, 0x4e, 0xb7, 0xdb, 0x4d, 0x11, 0x57, 0x3d, 0x19, 0x5e, 0xac,
  0xb2, 0x17, 0x5e, 0x5a, 0xe6, 0x3e, 0xa3, 0xe7, 0xff, 0xbd, 0xe2, 0xca,
  0x02, 0xda, 0xa8, 0xb2, 0x35, 0x40, 0x26, 0xa6, 0xb7, 0xb9, 0x37, 0xc9,
  0x55, 0xd2, 0xce, 0x1a, 0x14, 0xe9, 0xfb, 0x3d, 0xc8, 0x0c, 0xb5, 0xa1,
  0xdc, 0xc6, 0xf1, 0x2a, 0x26, 0xfd, 0x53, 0xac, 0x44, 0x4b, 0x05, 0xc1,
  0x0e, 0x16, 0x17, 0xb4, 0x05, 0xee, 0x53, 0xd9, 0x40, 0xba, 0x3e, 0xde,
  0x02, 0x18, 0xa9, 0xde, 0x22, 0x0f, 0xe5, 0x2f, 0x00, 0xec, 0xde, 0xac,
  0x4f, 0x4a, 0x25, 0xd8, 0xe8, 0x34, 0xeb, 0xe0, 0x05, 0x9f, 0xf5, 0xac,
  0xe3, 0x28, 0x1e, 0x0d, 0x4d, 0x4b, 0xb2, 0x2c, 0x1d, 0x25, 0xf3, 0x4f,
  0xa9, 0xe2, 0x36, 0xab, 0x01, 0xeb, 0xe5, 0xa5, 0xf2, 0xe0, 0xdf, 0x07,
  0x26, 0xab, 0xbd, 0x34, 0xcb, 0x1b, 0xb3, 0x48, 0x44, 0x1d, 0x56, 0xfd,
  0x59, 0xfa, 0x24, 0x0b, 0xb3, 0x7f, 0xf7, 0xd6, 0x4d, 0x21, 0x14, 0xa1,
  0x21, 0x6f, 0xc4, 0x48, 0xe6, 0xe4, 0xdf, 0x57, 0x07, 0x08, 0xb8, 0xb1,
  0x4d, 0x10, 0x40, 0x46, 0x4f, 0xa4, 0x1c, 0x00, 0x4e, 0xaa, 0xf1, 0x36,
  0xfd, 0x0d, 0xd9, 0x5d, 0x24, 0x15, 0xcb, 0xdc, 0xfe, 0xe7, 0x1d, 0xf7,
  0x51, 0xdb, 0x42, 0xd3, 0xcb, 0x4c, 0xb8, 0xfd, 0x3d, 0xc2, 0x11, 0xff,
  0xf6, 0xbe, 0x33, 0x20, 0x9b, 0x21, 0x12, 0xae, 0x2e, 0xce, 0x44, 0xc9,
  0xcb, 0x2a, 0xb9, 0xb5, 0xf9, 0x12, 0x47, 0x10, 0x41, 0x09, 0xe4, 0xc9,
  0x43, 0x47, 0x36, 0x59, 0x08, 0xca, 0x1d, 0x08, 0x17, 0x4a, 0x18, 0x4b,
  0xf6, 0xde, 0x53, 0xeb, 0xa0, 0x04, 0xaf, 0xb7, 0xce, 0xb3, 0xe3, 0x20,
  0xb4, 0xba, 0x28, 0x25, 0x13, 0xc1, 0x1b, 0x56, 0xf7, 0xe0, 0x37, 0xff,
  0x49, 0x4f, 0xd1, 0x3c, 0x55, 0xfd, 0x49, 0x20, 0x10, 0xff, 0xf3, 0xb6,
  0x52, 0x81, 0x07, 0x2e, 0xee, 0xe4, 0xee, 0x4c, 0x3d, 0xe1, 0x57, 0xeb,
  0x0a, 0xcf, 0xc7, 0xfd, 0xfd, 0xf6, 0xe0, 0x48, 0xb7, 0x59, 0x33, 0x53,
  0x48, 0xcc, 0xad, 0x37, 0x25, 0x14, 0x59, 0xb7, 0x5a, 0x9c, 0x0e, 0x3f,
  0xda, 0xba, 0xfc, 0x4f, 0x01, 0xc2, 0x3b, 0xef, 0xdd, 0x38, 0xb7, 0xae,
  0x50, 0x31, 0x28, 0x3b, 0x4f, 0xd3, 0xd5, 0xdb, 0xd7, 0x32, 0xb7, 0xc3,
  0xf4, 0x24, 0xe6, 0xda, 0xcb, 0x43, 0x39, 0xd9, 0x27, 0xd9, 0x48, 0x3a,
  0xed, 0xd1, 0xad, 0x32, 0xe8, 0xed, 0xd2, 0x41, 0xbd, 0x05, 0xaa, 0x04,
  0x99, 0xc5, 0xd9, 0xb6, 0x12, 0xbf, 0xbc, 0xd2, 0x46, 0x50, 0x0f, 0x1e,
  0xfb, 0xed, 0xa5, 0x29, 0x2c, 0xcb, 0x13, 0x1f, 0xd7, 0xf9, 0x1a, 0x25,
  0x2c, 0xd6, 0x22, 0x21, 0xf4, 0x29, 0xda, 0x2c, 0xca, 0xe3, 0xec, 0xd4,
  0x3b, 0xea, 0xfc, 0x6e, 0x0b, 0x3b, 0x03, 0xe5, 0xea, 0x2e, 0x04, 0x29,
  0x1d, 0xca, 0xda, 0x35, 0x2e, 0x45, 0x10, 0x2c, 0x45, 0xde, 0xe2, 0x3c,
  0xe4, 0xc2, 0xe3, 0xc8, 0x24, 0xbd, 0x25, 0x2c, 0xf9, 0xbe, 0xce, 0x27,
  0x1d, 0xdf, 0x03, 0xfc, 0xed, 0x17, 0x5d, 0x27, 0xf7, 0x2c, 0xfc, 0x00,
  0xef, 0xf3, 0xe7, 0xde, 0x0e, 0x26, 0xcb, 0x1d, 0xe9, 0xc7, 0x23, 0xf7,
  0x07, 0xef, 0xda, 0x02, 0x2e, 0x24, 0xba, 0x4b, 0x7f, 0xc7, 0xe4, 0x2c,
  0xf7, 0xec, 0xcf, 0x07, 0x17, 0xe5, 0xdd, 0xcf, 0x07, 0x52, 0xcb, 0x27,
  0xe9, 0x2e, 0xfa, 0xe3, 0xe5, 0x29, 0xc6, 0xe8, 0x2f, 0x12, 0xea, 0x05,
  0x23, 0xc3, 0xd1, 0x07, 0xf9, 0xf4, 0x18, 0x3d, 0x31, 0xb5, 0x29, 0xf6,
  0xf5, 0xe4, 0xe4, 0xea, 0x11, 0x19, 0xf0, 0x38, 0xa0, 0x2a, 0x21, 0xe9,
  0xb3, 0xe5, 0x17, 0xba, 0x05, 0xd1, 0xc8, 0xff, 0x06, 0x02, 0xea, 0x18,
  0x1b, 0x1d, 0xcf, 0x08, 0xd7, 0x6f, 0xdd, 0xc9, 0x31, 0x05, 0x25, 0xda,
  0xee, 0x1c, 0x21, 0x13, 0x1d, 0x26, 0x25, 0x1f, 0xbf, 0xee, 0xfb, 0xdf,
  0x05, 0x29, 0xef, 0xbb, 0x38, 0xf2, 0xff, 0x0c, 0x16, 0x11, 0xc6, 0xe0,
  0xeb, 0xe3, 0x2d, 0x2a, 0xd3, 0x1e, 0xdf, 0x08, 0xb9, 0x37, 0x64, 0x1a,
  0x93, 0x25, 0x01, 0x54, 0xb1, 0x8c, 0x0c, 0xa9, 0xdf, 0x2f, 0xee, 0xab,
  0x99, 0x51, 0x37, 0x93, 0xe0, 0x5c, 0x17, 0xf7, 0xc9, 0xc9, 0xfa, 0x3a,
  0x12, 0xe8, 0x10, 0x57, 0x38, 0x63, 0xe9, 0xac, 0x2e, 0x4e, 0xd9, 0x2d,
  0x54, 0x7f, 0xfe, 0xd1, 0x34, 0x34, 0x5d, 0xa9, 0x39, 0x7d, 0xa6, 0x27,
  0xe5, 0x68, 0xb3, 0x2d, 0xf5, 0x05, 0x0d, 0x0b, 0xb0, 0xcc, 0xdc, 0xbe,
  0x2a, 0x53, 0x03, 0xb0, 0x21, 0x56, 0xf0, 0x2c, 0x19, 0xc5, 0x2c, 0x4c,
  0xca, 0x00, 0x99, 0xfc, 0x99, 0x9b, 0x65, 0xb2, 0x46, 0xc3, 0xcb, 0x53,
  0x6b, 0x5b, 0x2b, 0x4f, 0x3a, 0xcd, 0x55, 0xd6, 0xc0, 0xc9, 0x7a, 0xf5,
  0x31, 0xfa, 0xc3, 0x42, 0x56, 0xc2, 0x89, 0x3d, 0xbc, 0x94, 0x8b, 0xc7,
  0xda, 0xfd, 0xad, 0x12, 0x28, 0xfa, 0xc9, 0x52, 0x4c, 0xb5, 0x26, 0x48,
  0xdf, 0xda, 0x9b, 0x55, 0x97, 0xd0, 0x89, 0x9c, 0x1c, 0xc5, 0xf2, 0xc4,
  0xe1, 0x1d, 0x27, 0x4d, 0x09, 0x03, 0xc5, 0x44, 0x1f, 0xc0, 0xee, 0x4e,
  0x2a, 0xf3, 0xea, 0x98, 0xc9, 0xbf, 0x8c, 0xd3, 0x51, 0x69, 0x94, 0xaa,
  0x38, 0xc9, 0xdc, 0xa9, 0x9b, 0xb4, 0xe4, 0x51, 0x2d, 0x02, 0xd7, 0x6a,
  0xc2, 0xde, 0xe9, 0x10, 0xf3, 0xb8, 0x34, 0xe5, 0x11, 0xfe, 0x4b, 0x2c,
  0x34, 0xc3, 0x11, 0x2a, 0xc4, 0xe0, 0x14, 0x3f, 0x10, 0x1a, 0x5e, 0xeb,
  0xf9, 0xfa, 0x37, 0x01, 0xa9, 0xd8, 0xf6, 0xfd, 0xf9, 0x09, 0x03, 0x26,
  0x9e, 0x1d, 0x1b, 0xf5, 0x0e, 0x22, 0x20, 0xcf, 0xb8, 0x49, 0xcb, 0xd6,
  0x24, 0x12, 0x36, 0x0b, 0x33, 0xe3, 0xf0, 0xda, 0xfa, 0xe2, 0xc7, 0xe5,
  0xdd, 0xae, 0x61, 0x05, 0x1c, 0xeb, 0xe2, 0x35, 0xe0, 0xd5, 0xed, 0xba,
  0x38, 0x0f, 0x3a, 0xe7, 0x81, 0x63, 0xdb, 0xe8, 0xdb, 0xbb, 0xe7, 0xf0,
  0xdc, 0xe4, 0xe3, 0x17, 0xff, 0xdb, 0xf2, 0xbe, 0xd8, 0x4c, 0x2e, 0x42,
  0x00, 0xeb, 0xb4, 0xf1, 0xed, 0xbb, 0xe7, 0xbf, 0xd7, 0xd8, 0x20, 0xc6,
  0x15, 0xd7, 0x2f, 0xd8, 0x1c, 0xf3, 0x34, 0xc1, 0x45, 0x07, 0x1d, 0x32,
  0x23, 0xd1, 0xd6, 0xeb, 0x13, 0x1f, 0x1a, 0x20, 0xfb, 0x15, 0x0f, 0x3a,
  0xd4, 0xda, 0xde, 0xf5, 0xf2, 0xb8, 0xe8, 0x45, 0x35, 0xdd, 0x1c, 0xc3,
  0xc5, 0x2d, 0x03, 0x14, 0x04, 0xc6, 0xda, 0xcf, 0xa1, 0xc6, 0x04, 0xdf,
  0xee, 0xdd, 0x58, 0xa2, 0x08, 0xdf, 0x39, 0xd8, 0x39, 0xbf, 0xa6, 0x42,
  0x52, 0x33, 0xf5, 0xcf, 0x3a, 0x65, 0x1b, 0xdc, 0xec, 0xf4, 0x13, 0x3a,
  0x0e, 0x2a, 0x08, 0xd1, 0x31, 0xc6, 0x2a, 0x10, 0xf0, 0xf6, 0xfd, 0x12,
  0xd5, 0xa5, 0xc9, 0x23, 0xe8, 0xd2, 0x20, 0x3a, 0x23, 0xc3, 0xd0, 0xf7,
  0xa3, 0xc1, 0xd1, 0xc4, 0xcb, 0x9f, 0xe2, 0x1d, 0xb7, 0xa3, 0xdc, 0xd7,
  0x2f, 0x69, 0xd7, 0xb5, 0xce, 0x06, 0xc6, 0x4a, 0x37, 0xc3, 0xe4, 0xd9,
  0x13, 0x98, 0x1b, 0xef, 0xca, 0x57, 0x56, 0x4b, 0xca, 0xea, 0x01, 0xbe,
  0x05, 0x33, 0xf1, 0x4d, 0x49, 0xcc, 0x6b, 0x5d, 0x03, 0xc7, 0xc0, 0xd4,
  0xf6, 0x7f, 0xf4, 0x50, 0x5e, 0x03, 0xc1, 0x30, 0xaf, 0x32, 0xd3, 0xc3,
  0x42, 0x37, 0x30, 0x6b, 0x4b, 0xdb, 0xac, 0x24, 0x05, 0xe9, 0xbc, 0x21,
  0xfd, 0xbe, 0x0c, 0xdc, 0xba, 0x00, 0xb3, 0x66, 0xc2, 0x9e, 0x19, 0xfd,
  0xbf, 0x24, 0x44, 0xc0, 0xf7, 0xe7, 0xce, 0x9d, 0x04, 0xe8, 0x3a, 0x67,
  0x2d, 0xb8, 0xc1, 0x2c, 0xbb, 0x6e, 0xef, 0x11, 0xa6, 0xdd, 0x2c, 0xc0,
  0xcf, 0x13, 0x35, 0x14, 0x15, 0x5a, 0xbd, 0x54, 0x48, 0xed, 0xc1, 0xf7,
  0x1c, 0xd8, 0xc3, 0xab, 0xd0, 0xb1, 0x54, 0xd4, 0xbc, 0x93, 0x48, 0xfb,
  0xc7, 0xf4, 0xa2, 0x27, 0x54, 0xcb, 0x00, 0x3b, 0x16, 0xb7, 0xd4, 0x50,
  0x0d, 0xab, 0x02, 0x31, 0xf1, 0x2c, 0x21, 0x56, 0x60, 0x9e, 0x3a, 0x0e,
  0xa9, 0xf7, 0xfd, 0xb1, 0x07, 0x8b, 0x0e, 0xe7, 0x02, 0x2b, 0x0d, 0x05,
  0xbb, 0xec, 0x5f, 0xd4, 0x55, 0xb7, 0xa8, 0xc3, 0xf4, 0xdf, 0x20, 0x22,
  0xe1, 0xef, 0x2d, 0x37, 0x27, 0x17, 0xd5, 0xd5, 0x5a, 0x22, 0xde, 0xc0,
  0xf7, 0x4f, 0x41, 0xd3, 0xc8, 0x32, 0xc7, 0xc7, 0x42, 0xdd, 0xd8, 0xf7,
  0xc1, 0xd2, 0x27, 0xcc, 0x08, 0xdc, 0xb6, 0xd4, 0xd2, 0xe1, 0xd1, 0x3d,
  0xbb, 0x09, 0xd8, 0x22, 0x4f, 0xd0, 0x38, 0x18, 0xcd, 0x12, 0xfd, 0xe2,
  0x30, 0x20, 0xec, 0x2d, 0x2d, 0x01, 0xbf, 0x1e, 0x22, 0x09, 0xf9, 0x29,
  0xdc, 0xd4, 0xbc, 0x07, 0x53, 0xfe, 0x23, 0x02, 0xdf, 0xd3, 0xfb, 0x15,
  0xc8, 0x4e, 0xf8, 0xef, 0xf9, 0x03, 0xfa, 0xe6, 0xfb, 0xc4, 0xf4, 0x1e,
  0x2e, 0xf2, 0xfa, 0xbb, 0x93, 0x3e, 0xde, 0x0b, 0xb0, 0xfa, 0x3f, 0xd9,
  0x34, 0x13, 0xee, 0xe9, 0x21, 0xcb, 0xb4, 0x29, 0x7f, 0x26, 0x4b, 0xe3,
  0xb5, 0x26, 0x17, 0xc3, 0xea, 0x26, 0x15, 0x33, 0xdb, 0xed, 0xfa, 0xfb,
  0xd8, 0x49, 0x41, 0xde, 0xf5, 0xf1, 0xcc, 0xd5, 0x56, 0xb8, 0x33, 0x30,
  0xe1, 0xcb, 0xd5, 0xc3, 0x44, 0x21, 0xe0, 0x48, 0x40, 0x04, 0x36, 0x0e,
  0x08, 0xe1, 0x18, 0xe1, 0xe9, 0x20, 0xe4, 0xbf, 0xb8, 0xd6, 0xd0, 0xdf,
  0xda, 0xf4, 0x27, 0x0f, 0xde, 0x0e, 0xfe, 0x1e, 0xe7, 0x0b, 0xe3, 0x29,
  0x32, 0x1a, 0x13, 0xfd, 0x3b, 0x30, 0xcf, 0xc7, 0x34, 0x09, 0x54, 0xf3,
  0xdf, 0x50, 0xa9, 0x2d, 0x2d, 0xed, 0xda, 0xbc, 0x25, 0xed, 0x00, 0xec,
  0x09, 0x25, 0x03, 0xc8, 0xdc, 0x22, 0x1b, 0x28, 0xd0, 0x36, 0xe4, 0xea,
  0xda, 0x0d, 0xfd, 0x3b, 0xbc, 0xe4, 0xef, 0xf8, 0x0f, 0xeb, 0x13, 0x38,
  0xf4, 0xf5, 0xd2, 0x06, 0xbb, 0x2a, 0x2f, 0x16, 0xd5, 0x39, 0xf7, 0xc7,
  0x29, 0x9d, 0x1a, 0xce, 0x2d, 0x13, 0x33, 0xff, 0x39, 0xbd, 0xd2, 0x35,
  0x41, 0x10, 0xcb, 0xcc, 0x16, 0xd9, 0xf8, 0xcc, 0x20, 0x05, 0xc6, 0x09,
  0x2c, 0x44, 0x01, 0x04, 0xdd, 0xd4, 0xc6, 0x37, 0xdb, 0x10, 0x1a, 0x0b,
  0x17, 0xfc, 0x14, 0x1d, 0xdf, 0xf5, 0x3c, 0x03, 0x00, 0x15, 0xe0, 0x15,
  0xda, 0xce, 0xbf, 0xf3, 0xc5, 0xe3, 0x2f, 0x2d, 0x11, 0xee, 0xf4, 0xf3,
  0xe8, 0x2f, 0xd2, 0x25, 0x27, 0xc2, 0x26, 0xc4, 0xeb, 0x36, 0xc1, 0x38,
  0x24, 0xf7, 0xe7, 0xf1, 0xbd, 0x0c, 0xee, 0x30, 0xc6, 0xf0, 0xe1, 0xc6,
  0x3d, 0x31, 0x44, 0xcc, 0xec, 0x52, 0x02, 0x28, 0x26, 0x47, 0xf2, 0xc0,
  0xfd, 0x4c, 0x44, 0x20, 0x24, 0x21, 0x1a, 0x1e, 0x7f, 0x30, 0xdc, 0x0f,
  0x1c, 0x42, 0xed, 0xc1, 0x2f, 0xf6, 0xe4, 0x3d, 0x3a, 0x1f, 0x26, 0xc1,
  0xfa, 0x2d, 0xf1, 0x16, 0xd8, 0xdc, 0x08, 0x05, 0xc7, 0x08, 0x2b, 0xe1,
  0x00, 0xeb, 0xe4, 0xfc, 0xc7, 0xe4, 0xfc, 0x2c, 0xfc, 0xe4, 0xdc, 0x34,
  0xe8, 0x02, 0x3f, 0x09, 0xcf, 0xcb, 0xc6, 0x2f, 0x20, 0x27, 0x25, 0x30,
  0x0b, 0xe9, 0x28, 0xf3, 0xdc, 0xc2, 0x37, 0xf0, 0x1e, 0x2b, 0xd9, 0xfa,
  0xc8, 0x4b, 0x15, 0x0e, 0x19, 0xd5, 0x25, 0xb9, 0xe3, 0xc0, 0x49, 0x19,
  0xb7, 0xb7, 0xfa, 0x4d, 0x25, 0xcf, 0xdc, 0xdf, 0xfb, 0x22, 0x19, 0xc9,
  0xae, 0x4f, 0x0a, 0x15, 0x9d, 0x65, 0x3d, 0x40, 0xee, 0xdf, 0xe7, 0x16,
  0x1d, 0xdf, 0xde, 0x1a, 0x4a, 0xcf, 0x13, 0x5a, 0x58, 0xcd, 0xb8, 0x52,
  0xd3, 0x13, 0x17, 0x9e, 0x13, 0x25, 0x34, 0x20, 0x02, 0xe0, 0x9d, 0x35,
  0x02, 0x2c, 0x18, 0xce, 0xbf, 0x01, 0xb3, 0xe1, 0xb8, 0x56, 0x02, 0x32,
  0xd3, 0xf8, 0xc2, 0x4a, 0x0f, 0x0c, 0x0e, 0x4b, 0xc1, 0xcf, 0x34, 0xda,
  0x92, 0xb0, 0x6a, 0x1b, 0x15, 0xf0, 0xf8, 0xb2, 0xdf, 0x4a, 0x60, 0xc9,
  0x33, 0x42, 0xdd, 0xf2, 0xa8, 0xc4, 0xb0, 0xd4, 0x19, 0xee, 0xf3, 0xe5,
  0xec, 0xab, 0x2d, 0x50, 0x73, 0x07, 0x18, 0x08, 0xc2, 0x66, 0x55, 0xd9,
  0x21, 0x50, 0xf7, 0xf1, 0x05, 0xe4, 0x7c, 0x55, 0x3c, 0xd0, 0x4e, 0x2f,
  0x5c, 0xb5, 0x29, 0xc7, 0xd0, 0x50, 0x9a, 0xdb, 0xc6, 0xec, 0xbf, 0xdb,
  0xe5, 0x9b, 0xb2, 0xc8, 0x18, 0xba, 0x53, 0x9f, 0x61, 0x84, 0x5d, 0xe8,
  0x94, 0x4e, 0xe8, 0xc5, 0x10, 0x14, 0x25, 0xfa, 0xe8, 0xfd, 0x81, 0xaa,
  0x14, 0xd9, 0xc5, 0x38, 0xf1, 0xbf, 0xbf, 0x37, 0x38, 0x30, 0xc6, 0xff,
  0xbc, 0x70, 0xfb, 0x11, 0x43, 0xbf, 0x2f, 0x45, 0xad, 0x6b, 0xb2, 0x1e,
  0x17, 0x02, 0x45, 0xd2, 0xa0, 0x10, 0x28, 0x1e, 0xcf, 0x16, 0xce, 0xbd,
  0x13, 0x0c, 0x4f, 0xab, 0xfb, 0x16, 0x1d, 0xab, 0x1c, 0x32, 0x3e, 0xa2,
  0x2f, 0x7f, 0xdf, 0x1e, 0x43, 0x41, 0x14, 0xfb, 0x20, 0x6c, 0x29, 0x11,
  0xdd, 0x28, 0x05, 0xc0, 0xff, 0x31, 0x14, 0x0b, 0xdb, 0x97, 0xe1, 0xe8,
  0x02, 0xf7, 0xf7, 0x4f, 0xec, 0x46, 0x66, 0xb6, 0x01, 0xc0, 0x09, 0x46,
  0xd3, 0x21, 0xf9, 0xa7, 0xe9, 0xe7, 0xf6, 0xe1, 0x2f, 0xf9, 0x39, 0x06,
  0xf6, 0x58, 0x10, 0x05, 0x9b, 0xf5, 0xf2, 0x36, 0x0c, 0x35, 0x57, 0xa3,
  0xdb, 0x0c, 0x09, 0xb1, 0xa8, 0xe0, 0xc7, 0xcc, 0xec, 0x21, 0x13, 0xef,
  0xd3, 0x92, 0x53, 0xbd, 0x27, 0x30, 0x00, 0x05, 0xe9, 0x5a, 0xb0, 0xf5,
  0x31, 0x16, 0xe4, 0x03, 0xd1, 0x0c, 0xec, 0xed, 0xe4, 0x13, 0x0e, 0x46,
  0xc9, 0xb6, 0x22, 0xe8, 0x54, 0x50, 0xd5, 0x08, 0xb6, 0x3c, 0x34, 0xad,
  0xaa, 0xc7, 0x01, 0x2c, 0xfc, 0xa6, 0xd5, 0x4c, 0x8c, 0x4b, 0x2d, 0xd5,
  0x48, 0xb6, 0x00, 0x48, 0xc7, 0xc7, 0xc1, 0xf7, 0xcf, 0xf1, 0xbb, 0xb2,
  0xb0, 0xe2, 0x11, 0x5f, 0x1a, 0xd5, 0xd5, 0xce, 0xe9, 0x35, 0x03, 0x50,
  0xdf, 0x2f, 0x23, 0x3f, 0xe4, 0x3c, 0x12, 0xd1, 0x2f, 0x15, 0x4e, 0x3a,
  0x2a, 0xee, 0xf9, 0x11, 0xdf, 0x4f, 0xe3, 0x2a, 0x2b, 0x12, 0x0c, 0x2a,
  0x3e, 0x04, 0x3e, 0xcb, 0xc9, 0xfd, 0xdc, 0x2d, 0xa4, 0xf6, 0x52, 0xaa,
  0xa3, 0x51, 0x32, 0xf9, 0xf3, 0x34, 0xc1, 0x0a, 0x9f, 0xc9, 0x26, 0xae,
  0xe3, 0x23, 0x26, 0x64, 0x1d, 0x02, 0x4c, 0xef, 0x95, 0x41, 0xe5, 0x3c,
  0xc2, 0x50, 0x01, 0x1e, 0x07, 0x31, 0x36, 0xf6, 0x67, 0x7d, 0x53, 0x94,
  0xd0, 0xd3, 0xb6, 0x2c, 0x18, 0xc9, 0x55, 0xf0, 0x4b, 0xbb, 0xe6, 0xec,
  0x64, 0xe8, 0xfc, 0xd0, 0x75, 0x06, 0xf0, 0xfd, 0x2e, 0xe2, 0xf7, 0x90,
  0x2d, 0xb8, 0xe6, 0xe8, 0x06, 0xb6, 0x4a, 0x1d, 0x5c, 0xa4, 0x10, 0x2d,
  0xb9, 0x52, 0x0e, 0x53, 0x66, 0x3b, 0xbb, 0xfb, 0xee, 0x47, 0x0c, 0x11,
  0xce, 0x71, 0x22, 0x5a, 0x5e, 0x59, 0x49, 0x23, 0xca, 0x3e, 0xfd, 0x99,
  0xd2, 0xa9, 0xa9, 0x55, 0x22, 0x3d, 0x61, 0xef, 0x39, 0x82, 0x33, 0xcb,
  0xd4, 0x38, 0x0b, 0xf5, 0xaa, 0xfe, 0xdb, 0x9b, 0x23, 0xf7, 0x6d, 0x5c,
  0x0a, 0xf5, 0xa9, 0x29, 0xfa, 0xdb, 0xb7, 0xb8, 0x48, 0x63, 0x62, 0x26,
  0x9b, 0x07, 0x22, 0xba, 0x3c, 0x97, 0xea, 0x30, 0xa5, 0x0a, 0x4c, 0x71,
  0x4a, 0x51, 0xf8, 0xd6, 0x25, 0xd2, 0x07, 0xa5, 0x9c, 0x81, 0x0a, 0x45,
  0x43, 0x3a, 0x07, 0x28, 0xd2, 0x43, 0xe9, 0xbf, 0xd1, 0xb4, 0x25, 0x30,
  0xcb, 0xfb, 0xec, 0x28, 0xbb, 0x1a, 0xd5, 0xa9, 0xc3, 0x39, 0x31, 0x2e,
  0x11, 0xf1, 0xee, 0x4a, 0x2e, 0xd8, 0xff, 0xff, 0x04, 0x00, 0x00, 0x00,
  0x80, 0x00, 0x00, 0x00, 0x19, 0xf5, 0xff, 0xff, 0xf4, 0x13, 0x00, 0x00,
  0xde, 0x0a, 0x00, 0x00, 0xa4, 0x20, 0x00, 0x00, 0x9f, 0xea, 0xff, 0xff,
  0x5b, 0xf6, 0xff, 0xff, 0xc3, 0x0d, 0x00, 0x00, 0x14, 0xe8, 0xff, 0xff,
  0xe8, 0xe8, 0xff, 0xff, 0x5b, 0x0a, 0x00, 0x00, 0x49, 0x17, 0x00, 0x00,
  0x9c, 0xf2, 0xff, 0xff, 0xe4, 0xec, 0xff, 0xff, 0xbe, 0xee, 0xff, 0xff,
  0xec, 0x07, 0x00, 0x00, 0x84, 0xef, 0xff, 0xff, 0xba, 0x13, 0x00, 0x00,
  0x69, 0x18, 0x00, 0x00, 0x94, 0xf2, 0xff, 0xff, 0xb9, 0xf0, 0xff, 0xff,
  0xf2, 0xf8, 0xff, 0xff, 0xb0, 0xf4, 0xff, 0xff, 0x4e, 0xea, 0xff, 0xff,
  0x0b, 0x17, 0x00, 0x00, 0x6b, 0xea, 0xff, 0xff, 0x7d, 0x0b, 0x00, 0x00,
  0x99, 0xf0, 0xff, 0xff, 0xde, 0x1a, 0x00, 0x00, 0xa1, 0xf5, 0xff, 0xff,
  0x63, 0xfa, 0xff, 0xff, 0x4a, 0x11, 0x00, 0x00, 0x08, 0x10, 0x00, 0x00,
  0xba, 0xd8, 0xff, 0xff, 0x04, 0x00, 0x00, 0x00, 0x00, 0x06, 0x00, 0x00,
  0xd0, 0x6d, 0xaf, 0x5c, 0xd7, 0x27, 0xe1, 0xa9, 0xc4, 0xc8, 0xb2, 0xa0,
  0x9a, 0xb3, 0x00, 0xf7, 0xd9, 0x62, 0x28, 0xf2, 0xe7, 0x5d, 0xf6, 0x76,
  0xc5, 0x03, 0xf5, 0x5c, 0xd8, 0xde, 0xba, 0xb6, 0x47, 0x87, 0xd8, 0x36,
  0xc6, 0xde, 0x1b, 0x9c, 0x58, 0x0e, 0x33, 0x18, 0x16, 0xfe, 0x4b, 0x4a,
  0x62, 0xbc, 0xd8, 0xee, 0xff, 0xbf, 0xc7, 0x9e, 0x7f, 0xb7, 0x51, 0x2f,
  0x28, 0xc9, 0x4a, 0x07, 0xef, 0xab, 0xaf, 0x18, 0x12, 0x1f, 0x0e, 0xaa,
  0x01, 0xcb, 0xc0, 0xae, 0xec, 0x35, 0xe4, 0x1a, 0x36, 0x1d, 0x64, 0x19,
  0x24, 0xd4, 0xd5, 0x14, 0x8c, 0xdb, 0xa6, 0x8c, 0xb5, 0xaf, 0xa4, 0xc5,
  0xe0, 0x56, 0x9f, 0xbc, 0x3b, 0x11, 0xc0, 0xc0, 0x1f, 0x2d, 0xb1, 0xbd,
  0x17, 0x25, 0xe6, 0x2e, 0xd7, 0x37, 0x3b, 0x46, 0x22, 0x2f, 0x20, 0x05,
  0xce, 0xd6, 0x48, 0x3d, 0xaa, 0x4c, 0xdf, 0x23, 0x1d, 0xc5, 0xe3, 0x6e,
  0xa3, 0x0b, 0xa2, 0xc3, 0x25, 0xe3, 0x91, 0x19, 0xc2, 0xdb, 0xc1, 0xe5,
  0xa3, 0xc3, 0x46, 0xc9, 0x7f, 0xd8, 0x08, 0x36, 0xac, 0x9c, 0xf4, 0xc3,
  0x32, 0xfb, 0xc3, 0xba, 0x77, 0x33, 0xaf, 0xc2, 0x0d, 0x0a, 0xc3, 0x0b,
  0xab, 0xe2, 0x6a, 0xc6, 0xf1, 0xe1, 0xce, 0x61, 0x06, 0xed, 0x42, 0x9a,
  0x30, 0x2c, 0xc7, 0xda, 0xf5, 0xb8, 0xa6, 0x06, 0x0e, 0x0d, 0xc5, 0x2b,
  0xce, 0x1d, 0xed, 0xea, 0xc0, 0x2c, 0xa7, 0xf6, 0x1f, 0x25, 0x0d, 0x14,
  0xaa, 0xb8, 0x3d, 0x5f, 0x14, 0x51, 0xe1, 0xd0, 0x0c, 0x1a, 0xbb, 0x42,
  0xda, 0x86, 0xc0, 0x05, 0xcf, 0x53, 0x36, 0xf0, 0xbf, 0x4e, 0xe1, 0x4a,
  0xac, 0xdf, 0xda, 0x58, 0x47, 0x0f, 0x88, 0xc6, 0x3d, 0x12, 0xc7, 0xbf,
  0xc3, 0x25, 0x0c, 0x31, 0xce, 0xf9, 0x12, 0xe0, 0x46, 0xd6, 0xee, 0xe1,
  0x0c, 0x0d, 0x62, 0x5b, 0xbd, 0xe9, 0xd1, 0xe2, 0x26, 0xfa, 0xf4, 0x13,
  0x27, 0xfd, 0xf7, 0x5e, 0x23, 0x67, 0x04, 0x0b, 0x30, 0x9d, 0x46, 0x10,
  0xf4, 0x52, 0x18, 0x1c, 0x01, 0x7f, 0x5b, 0xc2, 0x35, 0x10, 0x0d, 0xcb,
  0x58, 0x31, 0x2f, 0x02, 0xb7, 0x32, 0x11, 0x54, 0x29, 0xe0, 0xbc, 0x4d,
  0xfe, 0x53, 0x34, 0xc6, 0xee, 0x4b, 0xf6, 0x26, 0x7f, 0x8f, 0xa8, 0x28,
  0x4f, 0x53, 0xbb, 0xde, 0x2c, 0xf1, 0xc1, 0x3a, 0x56, 0xcd, 0x57, 0x1d,
  0xa4, 0xbe, 0x67, 0xe6, 0x34, 0xa4, 0xd3, 0xdd, 0x44, 0xc0, 0xa3, 0xd0,
  0xf8, 0xfa, 0x3f, 0xf6, 0xc2, 0x4b, 0xcc, 0xc5, 0xb1, 0x95, 0xce, 0xc4,
  0xee, 0x14, 0x12, 0xde, 0x13, 0xc0, 0x35, 0xb9, 0x39, 0xda, 0xdd, 0xf2,
  0xf4, 0x2b, 0xc6, 0xc0, 0x3e, 0x0d, 0x1d, 0xbe, 0x42, 0x58, 0x5d, 0x01,
  0xac, 0xf0, 0xc7, 0x48, 0x45, 0x2e, 0x3c, 0x40, 0x16, 0x19, 0x2e, 0xae,
  0xd4, 0xb4, 0x5e, 0x17, 0xbf, 0x17, 0xff, 0xd8, 0xc5, 0x1a, 0x08, 0xea,
  0x20, 0x34, 0x33, 0x30, 0xee, 0xa0, 0xe5, 0x17, 0x0a, 0xbc, 0x27, 0x9d,
  0xaf, 0x0b, 0x4b, 0x81, 0xed, 0xe8, 0xc7, 0xec, 0x48, 0x04, 0xed, 0xcd,
  0x3f, 0xca, 0x06, 0x4a, 0x59, 0xb9, 0x20, 0x3d, 0xc5, 0x01, 0x43, 0x35,
  0xe1, 0xe5, 0xe8, 0x6b, 0x56, 0xa6, 0x61, 0xd7, 0x56, 0x56, 0x49, 0xe8,
  0x21, 0xf3, 0x47, 0xbd, 0xd5, 0xe7, 0xbd, 0xc9, 0x2b, 0x61, 0xb7, 0x51,
  0x56, 0xa0, 0xdf, 0x1a, 0x18, 0x17, 0x9f, 0xab, 0xa6, 0xf4, 0x39, 0xf0,
  0x4d, 0x03, 0x61, 0xcb, 0x3a, 0xc6, 0x34, 0x2d, 0x47, 0xef, 0x9c, 0x04,
  0xb5, 0xe2, 0x3b, 0x63, 0x35, 0x2e, 0xef, 0xa7, 0xbd, 0xb7, 0x79, 0x90,
  0x10, 0xc7, 0xf4, 0xd7, 0x43, 0xea, 0x03, 0xff, 0xe7, 0xc0, 0x94, 0xee,
  0xac, 0x34, 0xc9, 0x85, 0x3d, 0x59, 0xed, 0x10, 0xac, 0xc5, 0x2f, 0x81,
  0x8b, 0x2c, 0x49, 0x26, 0x4e, 0xad, 0x32, 0xf2, 0x17, 0x42, 0x17, 0xed,
  0xdc, 0xce, 0x3c, 0x37, 0x9f, 0x5e, 0x9b, 0xec, 0xe9, 0x39, 0x34, 0xc2,
  0x7e, 0x3b, 0x34, 0x3e, 0x92, 0xc9, 0x42, 0xd9, 0xbb, 0x38, 0xd7, 0x06,
  0x0b, 0xb9, 0x19, 0xde, 0x0c, 0xa4, 0x65, 0xaf, 0x12, 0xfc, 0x30, 0xdb,
  0x46, 0xb3, 0x87, 0xae, 0x50, 0x40, 0x09, 0x49, 0x99, 0x28, 0xf6, 0x46,
  0x95, 0xa8, 0xb7, 0x1f, 0xbd, 0x08, 0xac, 0x27, 0x43, 0x7d, 0xab, 0x2a,
  0x5d, 0xbc, 0x54, 0xdc, 0xce, 0xb3, 0xa1, 0xe3, 0x28, 0x93, 0xd4, 0x0e,
  0x87, 0xe6, 0x4b, 0x2e, 0x47, 0xc8, 0xb0, 0xa5, 0x7f, 0xa2, 0xa7, 0xcd,
  0x16, 0xf3, 0x66, 0x14, 0xfd, 0x7b, 0x03, 0xe3, 0xa7, 0x77, 0xb6, 0x46,
  0xb8, 0x67, 0xaa, 0xc6, 0x36, 0x5e, 0xf4, 0xfe, 0xdb, 0x6b, 0x35, 0xc3,
  0xe9, 0x1e, 0x51, 0x3f, 0xbd, 0xf6, 0x95, 0x58, 0xfc, 0x99, 0x0b, 0xfd,
  0x99, 0xbd, 0x2e, 0xb7, 0xd7, 0x26, 0x4b, 0x25, 0x27, 0xd2, 0xf2, 0x78,
  0xa0, 0xdb, 0x33, 0xb4, 0x3a, 0x46, 0x63, 0x65, 0x66, 0x59, 0x64, 0xc3,
  0x5a, 0xbf, 0x9c, 0x2e, 0x5a, 0x6d, 0x3f, 0x85, 0x9f, 0x69, 0x13, 0xff,
  0x3e, 0xf1, 0x66, 0x1b, 0x2f, 0xac, 0x9b, 0xc5, 0x7f, 0x0b, 0xb6, 0xfe,
  0x56, 0xc6, 0xdc, 0x5c, 0xe3, 0x40, 0xba, 0xf6, 0xd3, 0x51, 0x6b, 0x0e,
  0x46, 0x40, 0x3c, 0x2e, 0xd4, 0x68, 0xb2, 0xfd, 0x8a, 0xfb, 0x9c, 0xca,
  0xce, 0x2a, 0xc6, 0xdd, 0x89, 0x1f, 0x1e, 0xc5, 0x28, 0x74, 0x4c, 0x99,
  0x9d, 0xfc, 0x9f, 0x24, 0x25, 0x5f, 0x6e, 0xe2, 0xf7, 0x6e, 0x0c, 0x4b,
  0x09, 0xc2, 0x2a, 0x2b, 0xb3, 0x0c, 0xa0, 0xb2, 0x23, 0x39, 0x3f, 0x3c,
  0xb0, 0x3c, 0x54, 0xca, 0x2c, 0xdb, 0x39, 0xf2, 0x05, 0xe6, 0x36, 0x66,
  0x61, 0xb4, 0xf5, 0x9a, 0xf3, 0x4d, 0xb0, 0xbb, 0xc6, 0xbf, 0x3e, 0x34,
  0xd3, 0x00, 0x2a, 0x22, 0x00, 0x65, 0x31, 0xe8, 0xc5, 0x66, 0xe4, 0x31,
  0x99, 0xc7, 0x58, 0x8f, 0x54, 0x43, 0x41, 0xf4, 0x57, 0x2a, 0xe5, 0xfc,
  0x53, 0x4e, 0xba, 0xf3, 0xc3, 0x0c, 0x81, 0xcc, 0x36, 0x61, 0xf0, 0xb6,
  0xb1, 0xa8, 0x07, 0x52, 0xee, 0xfd, 0xb3, 0xa1, 0x49, 0xf2, 0xfb, 0xd8,
  0xde, 0xd9, 0xc1, 0xce, 0xcf, 0x55, 0xcd, 0xaa, 0x22, 0xc2, 0xe0, 0xc0,
  0x11, 0xaf, 0x0e, 0x33, 0x63, 0x67, 0xa1, 0x1c, 0x01, 0xcc, 0x52, 0x4c,
  0x16, 0x4a, 0xc9, 0x32, 0x29, 0x50, 0x9a, 0x37, 0x10, 0xc4, 0x1d, 0xbe,
  0x1a, 0xbf, 0x30, 0xb7, 0x56, 0xc0, 0x02, 0x44, 0x1a, 0xbe, 0x81, 0x38,
  0xcc, 0xec, 0x2f, 0xf7, 0xe0, 0xd4, 0x35, 0x4c, 0x03, 0x07, 0xcb, 0x1d,
  0x3b, 0xd1, 0x00, 0x20, 0x06, 0x52, 0x09, 0x2f, 0x35, 0x18, 0xcf, 0xfb,
  0x36, 0x2b, 0xe2, 0x46, 0x20, 0xb8, 0xa1, 0x15, 0xd7, 0x2c, 0xd1, 0x21,
  0x05, 0x4c, 0x01, 0x1d, 0xdd, 0x52, 0x0a, 0x8d, 0x1a, 0x0c, 0xba, 0xbf,
  0xfd, 0x53, 0x4c, 0x56, 0xef, 0xe7, 0xec, 0x2c, 0x35, 0x04, 0xd3, 0x24,
  0xad, 0xed, 0x1a, 0x30, 0x12, 0xe1, 0x8d, 0x40, 0x94, 0x49, 0xc7, 0x44,
  0xba, 0x00, 0xff, 0x27, 0xaf, 0xbb, 0x11, 0x0c, 0x0e, 0xda, 0x2c, 0x2d,
  0xd0, 0xed, 0xd1, 0xb9, 0x30, 0xed, 0xce, 0x4d, 0xe0, 0x19, 0x11, 0xd6,
  0x02, 0xbd, 0x27, 0xf1, 0xe6, 0xbd, 0xfa, 0x2d, 0x5c, 0x26, 0xae, 0x5f,
  0x25, 0xe2, 0xe5, 0xb5, 0xef, 0xcb, 0xbc, 0x0d, 0xdc, 0x54, 0x00, 0xe7,
  0x47, 0x9e, 0x33, 0x3b, 0xe2, 0xcb, 0x67, 0xd7, 0x01, 0xe5, 0xb0, 0x2d,
  0x39, 0xb6, 0x1e, 0x35, 0xba, 0xa1, 0x15, 0xe9, 0x17, 0x12, 0x38, 0x3c,
  0x0a, 0x33, 0x81, 0x20, 0xe2, 0xc5, 0xf5, 0x8c, 0x02, 0x21, 0xc1, 0xfe,
  0x50, 0x2d, 0x93, 0xfc, 0x37, 0xed, 0xfc, 0x5c, 0x40, 0xdc, 0x00, 0xf9,
  0xdb, 0xfc, 0xd7, 0x4d, 0x3e, 0xdb, 0x2b, 0x3c, 0xd2, 0x32, 0x3b, 0x56,
  0xd1, 0x44, 0xf4, 0xe5, 0x56, 0xcd, 0xdb, 0x33, 0xde, 0x20, 0x02, 0x32,
  0x50, 0x4a, 0xf5, 0x13, 0xfb, 0x93, 0xae, 0xe2, 0xf4, 0x38, 0x02, 0xef,
  0x29, 0x0f, 0x98, 0x81, 0xfe, 0x1d, 0x66, 0x00, 0x52, 0x99, 0x2b, 0xfd,
  0xfb, 0x28, 0xcc, 0xcd, 0x5d, 0x6d, 0xa2, 0x8f, 0x01, 0x30, 0x58, 0xd4,
  0x21, 0xdc, 0x2f, 0x4b, 0xa7, 0x41, 0xfc, 0x04, 0xfd, 0xd5, 0xd3, 0x0e,
  0x03, 0x44, 0x69, 0xe2, 0x67, 0xd9, 0x1b, 0xe6, 0x92, 0x3b, 0x01, 0x1c,
  0xe0, 0x1a, 0x78, 0x4f, 0x40, 0x5e, 0xd2, 0x91, 0xdf, 0xce, 0xb9, 0xd1,
  0xe5, 0x0d, 0xe7, 0x59, 0x75, 0xfc, 0x2f, 0xaf, 0xf7, 0x9f, 0x8e, 0x20,
  0x54, 0x20, 0x9c, 0x09, 0xe9, 0xdc, 0xf3, 0x07, 0x3c, 0x41, 0xbe, 0xbd,
  0xbb, 0xc6, 0xc6, 0x2c, 0x33, 0x2f, 0xc5, 0xda, 0x52, 0x5f, 0x63, 0x9c,
  0x69, 0x11, 0xbf, 0x8c, 0x63, 0xd6, 0xeb, 0xf2, 0xa6, 0x36, 0x6f, 0x53,
  0x12, 0x6d, 0xcb, 0xe7, 0x21, 0xa6, 0xfe, 0xb0, 0x4c, 0xd1, 0x2d, 0x2d,
  0x98, 0x26, 0xc9, 0x56, 0x96, 0x70, 0x42, 0x29, 0xfc, 0x50, 0x24, 0xe1,
  0x0a, 0xdb, 0x09, 0xb5, 0xde, 0x33, 0x08, 0x08, 0x54, 0xcf, 0xef, 0x3b,
  0x27, 0x0a, 0xb3, 0x07, 0x1c, 0x9d, 0x00, 0x03, 0x3c, 0xe2, 0x97, 0x55,
  0xc5, 0xec, 0xcd, 0x7f, 0x40, 0x9e, 0x6f, 0x06, 0x10, 0x36, 0xc7, 0x77,
  0x17, 0xdc, 0xc1, 0xaf, 0xf5, 0x16, 0x04, 0x3c, 0x10, 0x3f, 0x0c, 0xcc,
  0x11, 0xc9, 0xe2, 0x1e, 0xee, 0x19, 0xc9, 0x55, 0x0f, 0xe8, 0x3f, 0xf8,
  0xf6, 0xeb, 0xc1, 0x9c, 0x41, 0xd8, 0xc2, 0x0e, 0xd7, 0x45, 0x48, 0xdb,
  0xc0, 0xa5, 0x16, 0x1b, 0x29, 0x37, 0xdd, 0x4e, 0xb0, 0x06, 0xa9, 0xc4,
  0xd2, 0xe5, 0xcf, 0x5e, 0x2b, 0xc9, 0xba, 0x75, 0xf5, 0xc4, 0x4c, 0x7f,
  0x33, 0x0d, 0x0c, 0xe5, 0xf4, 0x37, 0x1f, 0x0c, 0xcd, 0xf2, 0x1e, 0xff,
  0x36, 0x24, 0x40, 0x39, 0x29, 0xfe, 0xe9, 0x00, 0xeb, 0xfa, 0xc0, 0xcd,
  0xdb, 0x19, 0xdc, 0x01, 0x04, 0xca, 0x3c, 0xe8, 0xcd, 0xfb, 0xc8, 0xf8,
  0x1b, 0x65, 0xca, 0x11, 0x93, 0x1a, 0x19, 0x52, 0x21, 0x18, 0xbe, 0x0c,
  0x5a, 0x31, 0x4a, 0xb0, 0xfd, 0x5e, 0xa0, 0x01, 0x62, 0xe2, 0x15, 0xb0,
  0xd8, 0x4e, 0x01, 0x8e, 0xdb, 0x18, 0x6d, 0x00, 0x08, 0x13, 0x98, 0xef,
  0x32, 0x36, 0x28, 0x4b, 0xae, 0x96, 0xbe, 0x20, 0x54, 0xfe, 0x85, 0xf5,
  0x62, 0x7f, 0x2c, 0x19, 0xdc, 0xac, 0xe9, 0x8a, 0x40, 0x01, 0x96, 0xcc,
  0xbc, 0xc6, 0x3a, 0x01, 0x97, 0x9b, 0xe9, 0x2d, 0x58, 0x12, 0x17, 0x79,
  0x50, 0xb9, 0x7b, 0x39, 0x09, 0x68, 0xb6, 0x53, 0xa0, 0x32, 0xed, 0x6c,
  0x29, 0x13, 0xbc, 0x58, 0x6a, 0xa8, 0xb2, 0x47, 0x18, 0x30, 0xd0, 0x6f,
  0xcd, 0x0d, 0x01, 0xdd, 0xf4, 0x2a, 0x1f, 0xf6, 0x2e, 0x0c, 0x00, 0x0b,
  0x2a, 0xf6, 0xc4, 0xae, 0xe2, 0x25, 0x00, 0xc9, 0x2c, 0xe0, 0xde, 0x41,
  0xce, 0x05, 0x3a, 0x7f, 0xbd, 0xfd, 0xc8, 0x3b, 0xd4, 0x2c, 0xbd, 0x14,
  0x0b, 0xe3, 0xde, 0xbe, 0x32, 0xe5, 0x3c, 0x15, 0xc4, 0x27, 0xdc, 0xa9,
  0x21, 0xba, 0x54, 0x26, 0x36, 0xf5, 0x22, 0x54, 0x3f, 0xc4, 0xc1, 0x15,
  0x1e, 0xd4, 0xf2, 0xd4, 0x14, 0xb1, 0xe9, 0x53, 0xaa, 0xfb, 0xc6, 0x47,
  0xc5, 0xc6, 0x21, 0x45, 0x46, 0xbe, 0xe5, 0xf6, 0xd2, 0xec, 0x15, 0x2a,
  0x3a, 0xc3, 0x20, 0xdd, 0x38, 0x1e, 0xdd, 0x65, 0xcb, 0xbe, 0x35, 0xf1,
  0xc6, 0xde, 0xff, 0xff, 0x04, 0x00, 0x00, 0x00, 0x40, 0x00, 0x00, 0x00,
  0xcd, 0x02, 0x00, 0x00, 0xd8, 0xfa, 0xff, 0xff, 0x7b, 0xff, 0xff, 0xff,
  0x44, 0x03, 0x00, 0x00, 0x50, 0xf4, 0xff, 0xff, 0xdf, 0xfa, 0xff, 0xff,
  0x73, 0xf9, 0xff, 0xff, 0x88, 0xf6, 0xff, 0xff, 0xe4, 0xf7, 0xff, 0xff,
  0x78, 0xf3, 0xff, 0xff, 0x6b, 0x02, 0x00, 0x00, 0x2e, 0xf7, 0xff, 0xff,
  0xb0, 0xfa, 0xff, 0xff, 0x83, 0xfc, 0xff, 0xff, 0x81, 0xf6, 0xff, 0xff,
  0x4f, 0x0a, 0x00, 0x00, 0x12, 0xdf, 0xff, 0xff, 0x04, 0x00, 0x00, 0x00,
  0x00, 0x06, 0x00, 0x00, 0x3d, 0x10, 0x28, 0x0a, 0xbb, 0x27, 0xd5, 0x17,
  0xec, 0x3b, 0xfa, 0xdd, 0x3c, 0x4c, 0x08, 0x48, 0x0b, 0xdf, 0x7f, 0xe6,
  0x6f, 0xe9, 0xe0, 0x13, 0xde, 0x0b, 0xe0, 0xfe, 0xb0, 0x09, 0x34, 0xbe,
  0x2a, 0xfd, 0x3b, 0xb7, 0x24, 0x1c, 0x7d, 0xc6, 0xd4, 0x1e, 0x2d, 0x3a,
  0x86, 0x9d, 0x56, 0x33, 0x1f, 0x7b, 0xac, 0x70, 0x21, 0xb5, 0x98, 0x1f,
  0xf9, 0x0f, 0x81, 0x54, 0x89, 0xcc, 0x86, 0xef, 0x53, 0x3c, 0x1d, 0x65,
  0x04, 0x66, 0x6d, 0x5b, 0x49, 0x66, 0x9a, 0x0a, 0x64, 0xa5, 0x40, 0x0a,
  0xe4, 0x42, 0x9a, 0x6d, 0x9b, 0xc2, 0xb7, 0x67, 0x96, 0xe8, 0x76, 0xe4,
  0xbc, 0xef, 0x73, 0xf3, 0x42, 0x09, 0x31, 0xa0, 0xed, 0x36, 0xb2, 0x81,
  0x3a, 0xc5, 0xb2, 0x8a, 0x3c, 0xa0, 0xb9, 0xec, 0x6b, 0x03, 0x8e, 0x87,
  0x02, 0xff, 0x25, 0x8c, 0x5e, 0xa4, 0x5b, 0x0e, 0x4c, 0x61, 0xa5, 0xd2,
  0xc7, 0xfc, 0x5e, 0x91, 0xa4, 0x18, 0xde, 0x9a, 0xad, 0x43, 0x69, 0x8a,
  0xff, 0x8f, 0xfe, 0x3a, 0x19, 0xcc, 0x61, 0x10, 0x1d, 0xdd, 0xea, 0x8d,
  0x34, 0xf8, 0xb9, 0xe1, 0x16, 0xed, 0x11, 0xaf, 0xee, 0x37, 0x37, 0x1e,
  0xf4, 0x63, 0xa3, 0x9b, 0x56, 0xc9, 0x43, 0xff, 0x87, 0x4f, 0x3e, 0x94,
  0xab, 0x18, 0x16, 0xa3, 0x82, 0xbb, 0x65, 0x2a, 0x05, 0x52, 0x88, 0xff,
  0x7f, 0xec, 0x81, 0xe6, 0x49, 0x6d, 0xd5, 0x69, 0x3c, 0x1d, 0x4f, 0x81,
  0xf3, 0xc5, 0x94, 0xd8, 0x95, 0x4a, 0xde, 0xce, 0x8f, 0x3a, 0x3b, 0xf1,
  0x46, 0x21, 0x59, 0xfd, 0x21, 0xc2, 0x71, 0x95, 0x8c, 0x97, 0x9f, 0x99,
  0x2d, 0x2f, 0x4c, 0xdb, 0x3a, 0xfe, 0x1f, 0x17, 0x5a, 0x95, 0x29, 0xf7,
  0x15, 0xf2, 0xe6, 0x0e, 0xbe, 0x26, 0x17, 0x44, 0x54, 0x2d, 0x2d, 0x86,
  0x54, 0x2c, 0x7f, 0xef, 0xb2, 0xc5, 0x2b, 0x0c, 0x1a, 0x7d, 0x51, 0x63,
  0x07, 0xd7, 0xb2, 0x2a, 0xc3, 0xa8, 0x3b, 0xa6, 0x90, 0xaf, 0x46, 0x47,
  0xd8, 0x16, 0x2d, 0x49, 0xd6, 0x42, 0x48, 0xbb, 0x14, 0x31, 0x4c, 0x52,
  0x1a, 0xae, 0x19, 0x58, 0x0a, 0x0e, 0xa0, 0x46, 0x51, 0xc9, 0xe0, 0x41,
  0x2a, 0x70, 0xfc, 0xc8, 0xa8, 0xa8, 0x9e, 0x97, 0xd8, 0x56, 0xc6, 0xe5,
  0xd4, 0x2d, 0xd3, 0x20, 0x2d, 0x20, 0xdc, 0xb6, 0xf0, 0x7f, 0xb3, 0xa3,
  0xdf, 0x0e, 0xac, 0xc6, 0x4a, 0x59, 0xb1, 0x17, 0xe2, 0x41, 0x61, 0xba,
  0x04, 0x50, 0xe3, 0x44, 0xba, 0x4c, 0xbd, 0xda, 0x0a, 0xce, 0xe4, 0x1b,
  0x05, 0x20, 0xcc, 0x1d, 0x58, 0xed, 0x81, 0xfb, 0x1a, 0x23, 0x62, 0x31,
  0xa1, 0x0e, 0xc1, 0xd5, 0x25, 0xcc, 0xba, 0xcb, 0x5f, 0x9b, 0xb0, 0x2b,
  0xcc, 0x26, 0x02, 0x42, 0x0d, 0x0c, 0x55, 0x61, 0x9a, 0x7f, 0x22, 0xf3,
  0x33, 0x22, 0x39, 0xf3, 0x7a, 0x09, 0x63, 0xfd, 0xa0, 0x91, 0x34, 0xc2,
  0x3e, 0xf3, 0xb2, 0x2d, 0x09, 0x32, 0x0a, 0x32, 0xa2, 0x63, 0x1e, 0x3a,
  0x2e, 0xa9, 0xbf, 0xed, 0xe3, 0xe3, 0x89, 0xeb, 0x83, 0x34, 0x63, 0xcc,
  0x81, 0xf5, 0xa6, 0x79, 0x47, 0x6e, 0xa1, 0x8d, 0x0c, 0xc9, 0xb4, 0x71,
  0xfd, 0x68, 0x3b, 0x63, 0xd4, 0x39, 0xd4, 0xfe, 0xac, 0xc0, 0x1d, 0x2a,
  0x2b, 0xd0, 0x1c, 0xb1, 0x01, 0xf1, 0x65, 0xca, 0x00, 0xa3, 0xba, 0x12,
  0xd1, 0xb2, 0x05, 0xac, 0xb3, 0xd3, 0xb9, 0x1b, 0x5c, 0x0a, 0x76, 0x62,
  0x75, 0x4b, 0xe3, 0x7f, 0xdb, 0x24, 0xa7, 0xa5, 0x88, 0x57, 0xe7, 0xcd,
  0xb3, 0xcb, 0xb6, 0xcd, 0xa3, 0x2b, 0x9c, 0x39, 0x89, 0xb4, 0x59, 0x07,
  0xe3, 0xb2, 0xea, 0x14, 0xc2, 0x62, 0x26, 0x5c, 0x29, 0x2b, 0xbd, 0xa3,
  0xa7, 0x81, 0x59, 0x9a, 0x97, 0xf5, 0x3c, 0xd0, 0xbe, 0xf9, 0x20, 0x5b,
  0xfc, 0xa4, 0xbd, 0x42, 0x13, 0x05, 0xb8, 0x22, 0x43, 0x64, 0xc2, 0x0b,
  0xf8, 0xc0, 0x2b, 0xd2, 0xc5, 0x0c, 0x61, 0xb5, 0x7f, 0xe2, 0xca, 0x30,
  0x04, 0x2c, 0xa4, 0x62, 0x0f, 0x91, 0x1d, 0xf2, 0x19, 0x14, 0x99, 0x13,
  0x29, 0x57, 0x2c, 0x62, 0xc9, 0xdd, 0xc8, 0x5e, 0xf8, 0xce, 0xd6, 0xf1,
  0x1c, 0x17, 0xf7, 0xd8, 0xe2, 0x53, 0x39, 0xa7, 0xa7, 0x2f, 0x2a, 0x2e,
  0x62, 0x1b, 0x04, 0x52, 0xb5, 0x1c, 0xf1, 0xd6, 0x27, 0x15, 0xf2, 0xdc,
  0xd2, 0xde, 0x43, 0x35, 0xbf, 0xe4, 0x5b, 0x47, 0xd1, 0x4c, 0x31, 0x53,
  0xf4, 0xe7, 0x37, 0x34, 0xe6, 0x17, 0xab, 0x27, 0x1d, 0x98, 0xbf, 0x02,
  0x8a, 0x37, 0x81, 0xcf, 0x4b, 0x70, 0x11, 0xfe, 0x3f, 0x06, 0xf4, 0x68,
  0x61, 0x64, 0x59, 0xf1, 0x16, 0x41, 0xaf, 0xc4, 0xef, 0xc2, 0x36, 0x69,
  0x2e, 0xf6, 0x94, 0x42, 0x2f, 0xab, 0xf1, 0x0b, 0xa6, 0x9e, 0xbf, 0x61,
  0xef, 0xaf, 0xcc, 0x33, 0x1b, 0x9f, 0x0c, 0xdd, 0x41, 0x9d, 0x14, 0x39,
  0x0d, 0xce, 0xc8, 0xa5, 0xa3, 0x26, 0xc0, 0x30, 0xaa, 0x81, 0xf0, 0x13,
  0xf0, 0xbd, 0xd3, 0xbc, 0xd4, 0x87, 0x1f, 0xb4, 0xd0, 0xfa, 0x49, 0xce,
  0x92, 0x1b, 0x78, 0x2e, 0x21, 0xe0, 0x12, 0xb4, 0x8c, 0xb7, 0xba, 0xec,
  0x1b, 0x8b, 0x0a, 0x7d, 0x3e, 0x26, 0x4a, 0x8c, 0x8f, 0x77, 0xfa, 0x20,
  0x75, 0xe6, 0xf0, 0xe5, 0x7f, 0x51, 0xb2, 0x9d, 0xe6, 0x99, 0xc5, 0xfa,
  0xad, 0x32, 0x68, 0x50, 0x66, 0x52, 0x06, 0xe0, 0x9f, 0x73, 0x3f, 0xa5,
  0x1f, 0x08, 0xb1, 0x4b, 0xa0, 0x59, 0x19, 0x5b, 0x08, 0xfc, 0x47, 0xe1,
  0x07, 0xa5, 0xa2, 0x55, 0x3c, 0x5e, 0x85, 0xd7, 0xe2, 0x4b, 0x81, 0x3c,
  0x6b, 0xcb, 0xe5, 0x3c, 0xc4, 0x85, 0xd2, 0x11, 0x3e, 0xd0, 0x4f, 0xae,
  0xf2, 0x16, 0x34, 0x44, 0xe8, 0xa5, 0xb7, 0x4a, 0x89, 0xf5, 0x3e, 0xad,
  0x3d, 0xfa, 0x26, 0x2d, 0x2d, 0xf6, 0x7f, 0x35, 0xd1, 0x5e, 0x43, 0xe3,
  0xef, 0x75, 0xcc, 0xf1, 0xb3, 0x3a, 0xba, 0xc1, 0x0f, 0x4a, 0xd8, 0x42,
  0x6b, 0x43, 0x6b, 0x9d, 0xf6, 0xee, 0xab, 0xe1, 0x1d, 0xb0, 0x0a, 0x98,
  0x1b, 0xbe, 0x6c, 0x38, 0x27, 0xfd, 0xb0, 0x55, 0x2e, 0x39, 0xec, 0x03,
  0xc6, 0x50, 0xb4, 0xd7, 0xe5, 0x45, 0xf7, 0xf3, 0x4e, 0x9f, 0xc9, 0xd0,
  0x81, 0x43, 0xa0, 0xd4, 0xc3, 0x1e, 0x33, 0x98, 0xcf, 0x2e, 0xa0, 0x0a,
  0xf8, 0x67, 0x70, 0x37, 0x87, 0xd8, 0x9a, 0x6c, 0x17, 0x19, 0x9b, 0xe9,
  0xe7, 0x85, 0x92, 0x27, 0x6b, 0x23, 0x02, 0x40, 0xaf, 0xe9, 0x0f, 0x7f,
  0x9f, 0x39, 0x6a, 0x1d, 0xff, 0xf7, 0x68, 0x99, 0x8c, 0xa4, 0xbc, 0x03,
  0xef, 0x18, 0xa7, 0xb4, 0x9e, 0x44, 0x29, 0x2d, 0x26, 0x5f, 0xf9, 0xf2,
  0x25, 0x9b, 0x99, 0x9c, 0xd5, 0x6d, 0x5c, 0xe7, 0x02, 0x6f, 0x4d, 0x61,
  0xea, 0x06, 0x55, 0x90, 0x2c, 0xff, 0x2d, 0xec, 0x51, 0x5f, 0xcc, 0x05,
  0x08, 0x5a, 0x9a, 0x66, 0xb9, 0x35, 0x0c, 0x09, 0xf0, 0xe9, 0x91, 0x24,
  0x9e, 0x02, 0x6c, 0x3d, 0x0b, 0x35, 0x60, 0x4c, 0xf6, 0x8e, 0xf5, 0xdc,
  0x5b, 0x3c, 0x34, 0x4f, 0x81, 0x2b, 0x6f, 0x42, 0x61, 0x62, 0xcb, 0x6c,
  0x5f, 0xf9, 0x3e, 0x25, 0x4f, 0xea, 0x0a, 0x7f, 0x23, 0xd4, 0x65, 0xdb,
  0x43, 0xc2, 0xf6, 0x5a, 0xb0, 0xfe, 0x26, 0xca, 0xa3, 0x03, 0x96, 0xd9,
  0xab, 0x48, 0xba, 0xf1, 0x03, 0x0e, 0xdb, 0x0d, 0x79, 0xb2, 0xad, 0x56,
  0xb8, 0x06, 0xb0, 0x4f, 0xf5, 0x27, 0x46, 0xbf, 0x4d, 0xb7, 0x68, 0xe5,
  0xc1, 0xf1, 0xab, 0x9e, 0x6d, 0xd5, 0xb9, 0x30, 0xad, 0x9f, 0x53, 0x20,
  0x1b, 0x11, 0xc2, 0xe8, 0xbb, 0xc7, 0x65, 0x14, 0xec, 0xf1, 0xe8, 0x31,
  0x68, 0xf1, 0x1d, 0x7b, 0xeb, 0xb0, 0x5f, 0x42, 0x22, 0x2e, 0xbc, 0x86,
  0x68, 0x5a, 0x4e, 0x33, 0xc0, 0x32, 0x5b, 0x6f, 0x99, 0x45, 0x31, 0xcc,
  0x7f, 0xde, 0x84, 0xef, 0xee, 0x54, 0x3c, 0x13, 0x1d, 0x85, 0xb5, 0x55,
  0x89, 0x11, 0xac, 0x3f, 0x9f, 0xfb, 0xbe, 0xa1, 0x81, 0x01, 0xbc, 0xdf,
  0xb3, 0x69, 0x0f, 0x21, 0xe0, 0xb0, 0x11, 0x58, 0xc5, 0x52, 0x95, 0x1a,
  0x28, 0xe2, 0xcc, 0x0e, 0x2e, 0xfc, 0x49, 0x7a, 0x4d, 0xc7, 0x97, 0x10,
  0xd9, 0x65, 0xa0, 0xcf, 0xde, 0xe4, 0x8d, 0xc9, 0x5b, 0xbe, 0xdd, 0x09,
  0x35, 0xec, 0x67, 0xbf, 0x57, 0x18, 0xae, 0x19, 0x34, 0x49, 0xb1, 0x37,
  0xcf, 0xe2, 0x73, 0x9b, 0x0a, 0x8d, 0xd3, 0xdc, 0xc1, 0x21, 0x74, 0x93,
  0xb2, 0x2e, 0xb2, 0xa7, 0xe1, 0x87, 0x81, 0x21, 0xe3, 0xa7, 0x5d, 0x59,
  0x0a, 0x2d, 0xd7, 0xdb, 0x36, 0x4f, 0x14, 0x0f, 0xa5, 0x1b, 0xab, 0xb2,
  0xf5, 0xbc, 0xd8, 0x23, 0x65, 0x02, 0x06, 0xd1, 0xec, 0x21, 0x73, 0x99,
  0xbe, 0xbf, 0xc5, 0x09, 0x14, 0x27, 0x95, 0x3e, 0x86, 0x78, 0xa9, 0xdd,
  0xa7, 0xd7, 0x3e, 0xc8, 0x0e, 0x3d, 0x40, 0xa9, 0xb9, 0xae, 0xc8, 0xe3,
  0x81, 0xf1, 0x65, 0xbf, 0x1e, 0xd9, 0xe4, 0x95, 0x64, 0x46, 0x2a, 0x06,
  0xf0, 0x24, 0x3b, 0xf5, 0x53, 0x66, 0x36, 0x3a, 0xbf, 0x73, 0x8d, 0xf3,
  0x55, 0x3a, 0x51, 0xe0, 0x85, 0xba, 0x00, 0xb6, 0xf9, 0x6b, 0xb8, 0xb6,
  0x4d, 0x78, 0x76, 0x82, 0x02, 0xd6, 0x5e, 0x55, 0x3d, 0x13, 0x1c, 0xe1,
  0x33, 0x1d, 0x81, 0x20, 0x04, 0x62, 0x3a, 0x11, 0xb6, 0xa7, 0x03, 0x42,
  0xbe, 0xca, 0x11, 0x95, 0x54, 0x27, 0x3a, 0x38, 0xa5, 0x31, 0x12, 0xbc,
  0x8c, 0x26, 0x17, 0xcc, 0xac, 0x83, 0xa9, 0x43, 0x30, 0x4a, 0xea, 0x73,
  0x4b, 0x05, 0x02, 0x4c, 0xda, 0xf7, 0x7a, 0xfc, 0xbb, 0x55, 0x1b, 0x81,
  0xbe, 0xe1, 0xc6, 0x28, 0xb2, 0xf3, 0x15, 0xef, 0x62, 0xaa, 0x0e, 0x75,
  0x14, 0xe6, 0xea, 0x03, 0x1d, 0x2a, 0x38, 0xb2, 0x3c, 0xf2, 0x8b, 0xbd,
  0xdc, 0x34, 0x03, 0x47, 0x01, 0x68, 0xeb, 0x90, 0xae, 0xf4, 0x3c, 0x97,
  0xfe, 0x28, 0xad, 0x60, 0x3e, 0x47, 0xe3, 0xa9, 0xe8, 0x25, 0xe6, 0x67,
  0x1a, 0x7f, 0xcd, 0x4d, 0xc2, 0xe8, 0x2a, 0x01, 0xbe, 0x34, 0x3d, 0xc7,
  0xd0, 0xb6, 0x3c, 0x1a, 0x13, 0x1b, 0x05, 0x00, 0x34, 0xc5, 0x28, 0x48,
  0x2d, 0xba, 0x92, 0xf3, 0x06, 0x1f, 0xe1, 0xf7, 0xc8, 0x76, 0xaa, 0x7f,
  0x45, 0x1e, 0xe7, 0x46, 0xe1, 0xa2, 0xd7, 0x4e, 0x03, 0xbb, 0x24, 0x00,
  0xa2, 0xcf, 0xd1, 0x63, 0xc7, 0xa0, 0xe7, 0xb0, 0x2b, 0xd5, 0x2d, 0x4f,
  0xe0, 0xec, 0x31, 0xb2, 0x1b, 0xeb, 0x32, 0x21, 0xb4, 0x3b, 0xec, 0x04,
  0xdd, 0xc2, 0x81, 0xaa, 0xf9, 0x37, 0x03, 0xf0, 0x18, 0x31, 0x9c, 0x3c,
  0xd4, 0x01, 0xa9, 0xe6, 0x51, 0xa3, 0x52, 0x9c, 0xc4, 0x0b, 0x16, 0x8c,
  0xf3, 0x26, 0xa2, 0xe8, 0x99, 0x6d, 0xf0, 0xbe, 0x11, 0x87, 0x25, 0x5c,
  0x47, 0xc4, 0xee, 0xc1, 0x95, 0x53, 0x48, 0xee, 0x83, 0x82, 0xc7, 0x08,
  0xb9, 0xfa, 0x7e, 0xa1, 0xfb, 0xaa, 0x23, 0x31, 0x72, 0xda, 0xcf, 0x38,
  0x23, 0x07, 0xb5, 0x38, 0x34, 0x4c, 0xf2, 0xa0, 0xe9, 0xe3, 0xd0, 0xd5,
  0x81, 0xe4, 0xf0, 0x61, 0xc0, 0xaa, 0x00, 0x0e, 0xb6, 0x46, 0x28, 0xa1,
  0xcc, 0xbb, 0x67, 0x24, 0xa7, 0x38, 0x6a, 0xd2, 0xe9, 0x63, 0x81, 0x56,
  0xcd, 0xf7, 0x6c, 0x6a, 0xfc, 0x15, 0x25, 0xe9, 0x76, 0xae, 0x2c, 0xf8,
  0x3c, 0x1f, 0x8f, 0xbf, 0x47, 0x44, 0x60, 0x67, 0x53, 0x21, 0x63, 0xa6,
  0x1a, 0xec, 0x02, 0xfb, 0x1e, 0xe5, 0xff, 0xff, 0x04, 0x00, 0x00, 0x00,
  0x80, 0x00, 0x00, 0x00, 0xc0, 0x05, 0x00, 0x00, 0x1e, 0xfc, 0xff, 0xff,
  0x11, 0xfd, 0xff, 0xff, 0xda, 0xfc, 0xff, 0xff, 0xf1, 0xf9, 0xff, 0xff,
  0xef, 0xfe, 0xff, 0xff, 0x32, 0xfc, 0xff, 0xff, 0x7f, 0xf6, 0xff, 0xff,
  0xe2, 0xfa, 0xff, 0xff, 0x9d, 0x04, 0x00, 0x00, 0x6c, 0x05, 0x00, 0x00,
  0x0a, 0xf9, 0xff, 0xff, 0x1f, 0xf7, 0xff, 0xff, 0x0a, 0x0b, 0x00, 0x00,
  0xf5, 0x04, 0x00, 0x00, 0x00, 0xfc, 0xff, 0xff, 0x68, 0x0b, 0x00, 0x00,
  0x07, 0x06, 0x00, 0x00, 0x6c, 0x04, 0x00, 0x00, 0xbc, 0xfb, 0xff, 0xff,
  0x40, 0x05, 0x00, 0x00, 0x68, 0xf8, 0xff, 0xff, 0xdd, 0xff, 0xff, 0xff,
  0x07, 0xf8, 0xff, 0xff, 0x5c, 0xff, 0xff, 0xff, 0x6c, 0xf9, 0xff, 0xff,
  0x9b, 0x0b, 0x00, 0x00, 0x0a, 0xfc, 0xff, 0xff, 0x53, 0x04, 0x00, 0x00,
  0x9f, 0xf8, 0xff, 0xff, 0x23, 0x07, 0x00, 0x00, 0xc2, 0xf9, 0xff, 0xff,
  0xaa, 0xe5, 0xff, 0xff, 0x04, 0x00, 0x00, 0x00, 0x00, 0x18, 0x00, 0x00,
  0xfb, 0xd9, 0xcd, 0x3a, 0x27, 0xf4, 0xec, 0x14, 0x0c, 0x01, 0xc2, 0x0d,
  0xc5, 0x43, 0x0f, 0x17, 0xf7, 0xc0, 0xe5, 0xd3, 0x1e, 0x20, 0x3e, 0xed,
  0x1a, 0x4c, 0x44, 0xf5, 0xcc, 0x08, 0x0f, 0x4e, 0x50, 0x29, 0x16, 0x2f,
  0x37, 0x39, 0xcb, 0xe1, 0xe7, 0x08, 0x53, 0x2d, 0x0b, 0x0d, 0x0a, 0xb3,
  0xc1, 0xeb, 0xbe, 0xed, 0xf5, 0x0b, 0xbe, 0xe1, 0xbe, 0xba, 0x51, 0x00,
  0xd6, 0xe5, 0xb0, 0xfc, 0x07, 0x19, 0xcb, 0xd3, 0xd2, 0xbb, 0xc6, 0x13,
  0xdb, 0x81, 0xdf, 0xf8, 0x4b, 0xc6, 0xc0, 0xaa, 0xc7, 0xab, 0xe9, 0x3a,
  0x1b, 0xf8, 0xde, 0x4b, 0xaf, 0xe6, 0x12, 0x40, 0xef, 0x2b, 0xc9, 0x14,
  0xd2, 0xd2, 0x0d, 0xb1, 0xe6, 0x5b, 0xdc, 0x5e, 0x81, 0x11, 0xa4, 0x29,
  0x43, 0x3d, 0xc1, 0xf6, 0x12, 0xd8, 0xda, 0xc6, 0x24, 0x62, 0x23, 0xcb,
  0x24, 0xc9, 0x35, 0x1c, 0xeb, 0xb6, 0xea, 0x9d, 0xa4, 0xc9, 0xdc, 0x64,
  0x57, 0xe6, 0xdb, 0x66, 0xf5, 0x48, 0x40, 0x3f, 0xef, 0x1f, 0xd6, 0xf4,
  0x6a, 0x5a, 0x6b, 0x3e, 0x8a, 0x9f, 0xf0, 0x57, 0x45, 0x1b, 0xe1, 0x1d,
  0xd9, 0xf1, 0x5c, 0x0e, 0x18, 0xb1, 0x20, 0xa3, 0x42, 0x22, 0xf0, 0x65,
  0x54, 0x25, 0x9b, 0xc9, 0xd4, 0x95, 0xd7, 0x32, 0xfd, 0x49, 0x39, 0x52,
  0xf1, 0x01, 0x4c, 0xda, 0xd8, 0xea, 0x49, 0xe1, 0xc1, 0xb4, 0xe4, 0xd2,
  0x62, 0x0d, 0x35, 0x5b, 0x10, 0xab, 0xd1, 0xcb, 0xf5, 0x48, 0x9e, 0xd2,
  0xd9, 0xa1, 0xa3, 0x54, 0x70, 0x56, 0xeb, 0xb4, 0x46, 0xb8, 0x98, 0xc9,
  0xd2, 0xfd, 0xd0, 0x47, 0xbd, 0xe7, 0xc4, 0xd2, 0xed, 0x4c, 0x9c, 0xa0,
  0x69, 0xba, 0xc6, 0x3b, 0xf7, 0x8c, 0x60, 0x5c, 0x7f, 0x3f, 0x49, 0xb1,
  0xbc, 0xfc, 0xae, 0x6f, 0x9f, 0x43, 0xfc, 0x43, 0x4d, 0xb0, 0x8c, 0x68,
  0x56, 0x35, 0x3a, 0xcf, 0x1f, 0x3c, 0x0f, 0x23, 0x58, 0xf5, 0x3f, 0x5d,
  0x28, 0x15, 0x1b, 0x68, 0x9e, 0x2f, 0xe6, 0xd5, 0x05, 0x22, 0xf0, 0x4d,
  0xf8, 0x73, 0x25, 0xe9, 0xaa, 0xd3, 0xd3, 0x0c, 0xc8, 0x64, 0x38, 0xb7,
  0x2f, 0x0b, 0xbe, 0x1f, 0x27, 0x3d, 0xe2, 0xb7, 0xe0, 0xab, 0x41, 0x66,
  0xbd, 0x2c, 0x06, 0x20, 0xe9, 0x95, 0x62, 0xc1, 0x15, 0x9f, 0xe5, 0x74,
  0xf2, 0xea, 0x32, 0xe3, 0xbd, 0xee, 0x34, 0x5e, 0xe0, 0xff, 0x2f, 0x0f,
  0x48, 0xbb, 0xb9, 0xca, 0x25, 0x65, 0x0f, 0xc8, 0xce, 0xf1, 0xe5, 0xf3,
  0x23, 0x04, 0x30, 0x4f, 0x62, 0x00, 0x45, 0x65, 0x96, 0x97, 0xb8, 0x53,
  0xc7, 0xd3, 0x7f, 0x46, 0x5a, 0xf6, 0xf7, 0xfc, 0x4c, 0xb6, 0xb0, 0x1b,
  0x07, 0x29, 0xff, 0x99, 0x4d, 0x37, 0xcf, 0x44, 0x61, 0x6b, 0x5a, 0xbc,
  0x9f, 0xe5, 0xda, 0xf7, 0x23, 0xbe, 0x5c, 0xc5, 0x14, 0x49, 0xfb, 0x19,
  0xfc, 0xcc, 0xe4, 0x9a, 0xbc, 0x6c, 0x01, 0xd0, 0x53, 0x5a, 0xdf, 0x18,
  0xf8, 0x3f, 0x57, 0x4e, 0x70, 0x77, 0x52, 0xc6, 0xee, 0x20, 0xfd, 0xc5,
  0x6f, 0x30, 0x2a, 0xfc, 0x43, 0x5e, 0x8f, 0x02, 0x1c, 0xe6, 0xf4, 0xd8,
  0x15, 0xad, 0xb1, 0x0a, 0xc3, 0x74, 0x62, 0xd6, 0x7f, 0xc9, 0xc7, 0x4d,
  0x5e, 0x42, 0x4d, 0xff, 0x2f, 0x07, 0xf7, 0x1c, 0x4f, 0x09, 0x45, 0x4c,
  0xd7, 0xa8, 0xbb, 0x2e, 0x91, 0x51, 0xf1, 0xae, 0xf5, 0x73, 0x5a, 0xfa,
  0xbf, 0x6a, 0x26, 0xc4, 0x12, 0xce, 0x0f, 0x18, 0x76, 0xd2, 0x49, 0xe0,
  0x63, 0xa3, 0xd2, 0x5e, 0x5b, 0xbb, 0x57, 0xdf, 0x6b, 0xdc, 0x2d, 0x41,
  0x53, 0xbf, 0x52, 0x08, 0x08, 0xb3, 0xf4, 0xad, 0x1a, 0x25, 0xc9, 0xda,
  0x39, 0xe7, 0xc9, 0x17, 0x11, 0xd5, 0x18, 0x00, 0xf8, 0x1a, 0x4a, 0xdd,
  0x0b, 0x22, 0x0f, 0xa1, 0x7f, 0xaa, 0x20, 0x4d, 0xc0, 0xe3, 0xea, 0xea,
  0xa4, 0xd0, 0xc4, 0x0e, 0x28, 0xe5, 0xd9, 0x09, 0x07, 0xd9, 0xf4, 0x16,
  0xee, 0x31, 0x48, 0x2c, 0x0b, 0xd4, 0x31, 0xde, 0xd1, 0xfc, 0x5f, 0x0f,
  0x0d, 0x0c, 0xae, 0xa9, 0x4d, 0x2c, 0x0e, 0x25, 0x22, 0xce, 0x3b, 0x2b,
  0x33, 0x72, 0xcf, 0xd2, 0xbf, 0xb8, 0xd2, 0xe0, 0xc2, 0xfe, 0x02, 0xd1,
  0xf6, 0xec, 0xbe, 0x9f, 0xda, 0x30, 0x32, 0xc5, 0xc3, 0xfb, 0x4c, 0xa8,
  0x66, 0x9f, 0xd4, 0x2d, 0xfb, 0xfb, 0x17, 0x08, 0xf3, 0x16, 0xde, 0x40,
  0x5c, 0x46, 0xe0, 0x27, 0xa6, 0x6a, 0x08, 0xf2, 0x38, 0x2c, 0xb0, 0x1a,
  0xb2, 0x9e, 0xb7, 0xa7, 0xfe, 0x69, 0x43, 0x39, 0xe8, 0x81, 0x5d, 0x3a,
  0x25, 0x41, 0xa0, 0xc9, 0x45, 0x12, 0x6d, 0xdd, 0x26, 0xa2, 0x18, 0xcc,
  0xda, 0x2a, 0x9b, 0x48, 0xef, 0x2c, 0xac, 0x01, 0x0f, 0xb1, 0xc0, 0x3c,
  0x1f, 0x50, 0xc1, 0x2e, 0xf5, 0x02, 0x34, 0xf9, 0x28, 0xff, 0xe0, 0x57,
  0x40, 0x45, 0xce, 0xc3, 0xe1, 0x2e, 0xda, 0x38, 0xdd, 0xf2, 0xfb, 0x53,
  0xe3, 0xd0, 0x1e, 0x4d, 0x35, 0xb1, 0xe9, 0x36, 0xf1, 0x1e, 0xd3, 0xef,
  0x1d, 0xea, 0xe9, 0x30, 0x47, 0x34, 0x21, 0x2d, 0xeb, 0xc3, 0xb5, 0xe4,
  0xe6, 0xa6, 0xe6, 0x2e, 0x44, 0x50, 0xdb, 0x3c, 0xe8, 0x2f, 0x1c, 0x04,
  0xd0, 0x01, 0xe1, 0x42, 0xee, 0xe7, 0x5e, 0x0a, 0x5d, 0x21, 0x00, 0x3d,
  0x16, 0x0c, 0xa6, 0xe7, 0x03, 0x18, 0xcd, 0x13, 0x01, 0xcf, 0xd2, 0xe1,
  0x2c, 0xae, 0x3d, 0x03, 0x3a, 0x26, 0x97, 0xa1, 0xc0, 0xf4, 0x2f, 0xb9,
  0x05, 0x22, 0x97, 0xd0, 0x9d, 0xf6, 0xae, 0xb4, 0x37, 0x01, 0x0e, 0x41,
  0x4c, 0xcc, 0xca, 0x47, 0x67, 0x2a, 0xf8, 0xf9, 0x31, 0xc4, 0xf3, 0x24,
  0xd5, 0xb5, 0x42, 0x0d, 0x20, 0x09, 0xad, 0x52, 0x81, 0xfd, 0xfc, 0x45,
  0xf5, 0x89, 0xab, 0x76, 0x5f, 0x24, 0xb7, 0x72, 0x81, 0x56, 0xd0, 0x4a,
  0x22, 0x24, 0x46, 0xe7, 0xe9, 0x20, 0x51, 0x49, 0xa0, 0xc1, 0xc4, 0xab,
  0x90, 0xd8, 0x55, 0xee, 0x5c, 0x39, 0x18, 0x63, 0x3d, 0xfa, 0x54, 0xbe,
  0xbc, 0x47, 0x6f, 0x4d, 0x2a, 0x31, 0xd7, 0x0c, 0xdc, 0x91, 0xb3, 0xac,
  0xe3, 0x1f, 0xd1, 0xbb, 0x20, 0x2d, 0x8d, 0x69, 0x3c, 0x45, 0x8c, 0x60,
  0x39, 0x99, 0x15, 0xb8, 0xb9, 0xee, 0x11, 0xba, 0xf3, 0x20, 0x26, 0x44,
  0x31, 0x78, 0xe1, 0x3a, 0x53, 0xb9, 0xce, 0xae, 0x8b, 0x95, 0xd9, 0x70,
  0xfd, 0xe1, 0x9c, 0x2e, 0xf1, 0x1a, 0xc5, 0x62, 0x17, 0x28, 0x32, 0x0e,
  0x2a, 0xc3, 0x08, 0x1c, 0x0d, 0x11, 0x31, 0x3f, 0x0b, 0x07, 0x01, 0x42,
  0xde, 0xde, 0xee, 0xbf, 0x03, 0xfa, 0xdb, 0x0a, 0xf2, 0xe7, 0xff, 0x06,
  0x2a, 0x1e, 0x19, 0xd9, 0x1b, 0x00, 0xb4, 0x3d, 0x34, 0xdb, 0xa7, 0xd7,
  0x31, 0x29, 0x3b, 0x1e, 0x2a, 0x03, 0xd8, 0xed, 0x25, 0xe9, 0x07, 0x21,
  0xcf, 0xdf, 0x04, 0x38, 0xcc, 0xf4, 0xd2, 0xb7, 0xc1, 0x23, 0x84, 0x44,
  0xb1, 0x12, 0x17, 0xf8, 0xf6, 0xde, 0xfb, 0x26, 0x23, 0xde, 0xe9, 0x22,
  0x0f, 0xd9, 0x81, 0x20, 0x0f, 0xd4, 0xf6, 0xbd, 0x14, 0xdd, 0x45, 0xdc,
  0xdf, 0xd7, 0xc3, 0xff, 0x04, 0x02, 0x17, 0x28, 0xff, 0x16, 0xcc, 0xcc,
  0x5d, 0x7f, 0xbc, 0x86, 0x27, 0x9a, 0x11, 0x34, 0x7c, 0xf2, 0xb3, 0x2b,
  0x4e, 0x07, 0x6c, 0xf7, 0x06, 0xbb, 0x17, 0x0d, 0x88, 0xc0, 0x33, 0xa2,
  0x8d, 0xbb, 0x68, 0xde, 0x9c, 0xcc, 0x66, 0xfc, 0x86, 0x51, 0x01, 0xfe,
  0xc6, 0x19, 0xef, 0xba, 0x53, 0x01, 0x13, 0xe4, 0xbc, 0x29, 0xd0, 0x50,
  0x7a, 0xc0, 0x45, 0x2a, 0xec, 0xeb, 0xea, 0xd7, 0xed, 0x41, 0xbb, 0x68,
  0xae, 0xba, 0x4a, 0x62, 0xe5, 0x9e, 0xf3, 0xbf, 0xa9, 0x5e, 0x77, 0x53,
  0x00, 0x2c, 0x1b, 0x6f, 0xd3, 0xf6, 0x4d, 0xf0, 0x99, 0x72, 0x92, 0x00,
  0x63, 0xc7, 0x39, 0xfd, 0x68, 0xf0, 0x3c, 0x56, 0xd5, 0xcc, 0x9c, 0xa8,
  0x18, 0x81, 0x0d, 0xd8, 0x9f, 0xa1, 0x49, 0xae, 0xc2, 0xd7, 0xc2, 0xe4,
  0x7d, 0xa7, 0xd2, 0x72, 0xfa, 0x43, 0x9a, 0xf4, 0x9d, 0x1e, 0x6c, 0xc5,
  0x8d, 0x72, 0x2d, 0xc2, 0xd2, 0x05, 0xec, 0xfd, 0xd9, 0x43, 0x96, 0xab,
  0x28, 0x31, 0x9d, 0x15, 0xb7, 0x6a, 0xf9, 0xa7, 0x12, 0x0a, 0x3a, 0xa7,
  0xd2, 0x3d, 0x46, 0x0b, 0x09, 0x15, 0x3e, 0x2c, 0xd0, 0xbf, 0x06, 0x0f,
  0x6a, 0x18, 0xb1, 0xd6, 0xee, 0xf5, 0xc9, 0x22, 0xa7, 0xad, 0xdc, 0x61,
  0xa3, 0x9e, 0xc3, 0x45, 0x7a, 0x34, 0x06, 0x88, 0x3b, 0xac, 0x56, 0xb6,
  0xe2, 0x5d, 0xd1, 0xe4, 0x98, 0xde, 0x99, 0xec, 0x03, 0x0b, 0x02, 0xf9,
  0xbf, 0xd5, 0xc8, 0xc7, 0xc7, 0x22, 0xb7, 0xca, 0x51, 0x76, 0xed, 0x2f,
  0xc3, 0xa4, 0xd7, 0xbd, 0x42, 0x2a, 0x33, 0xde, 0xf4, 0x06, 0xc3, 0xdf,
  0x32, 0x37, 0x7f, 0xbb, 0x60, 0xfd, 0xc3, 0x2b, 0x33, 0x00, 0xab, 0xec,
  0xfc, 0x4c, 0x9e, 0xcd, 0x54, 0xd1, 0xf2, 0xe9, 0x12, 0xa4, 0x65, 0x66,
  0xab, 0x50, 0xfa, 0x34, 0x5a, 0xd4, 0x0d, 0xe1, 0x57, 0xbd, 0x45, 0x59,
  0x14, 0x05, 0xdc, 0xc4, 0xa2, 0x55, 0x45, 0x17, 0xd6, 0x21, 0xd1, 0x3e,
  0x47, 0x60, 0x1c, 0x22, 0x00, 0x2e, 0xf2, 0xad, 0x0b, 0xf2, 0x4b, 0xcf,
  0xfa, 0xe2, 0xad, 0xea, 0x2f, 0xf0, 0x54, 0x23, 0x57, 0xde, 0x17, 0xad,
  0x71, 0x3b, 0xe9, 0xdd, 0x57, 0xc3, 0xfa, 0x17, 0xeb, 0xb0, 0x6a, 0x53,
  0x30, 0xf9, 0x03, 0xe9, 0x81, 0x94, 0xab, 0xe4, 0x17, 0xb3, 0x6d, 0x75,
  0x78, 0xb6, 0xf3, 0xb5, 0x90, 0x9b, 0xef, 0x35, 0x96, 0x3a, 0x9b, 0x29,
  0x61, 0xaa, 0x4a, 0xa2, 0x27, 0xa3, 0x8d, 0xc1, 0x2b, 0xfb, 0x87, 0x56,
  0x62, 0xc8, 0x75, 0x51, 0x3d, 0x09, 0x39, 0x8f, 0xf0, 0x13, 0x30, 0xed,
  0x51, 0x43, 0x2f, 0x2c, 0x12, 0xd3, 0xb7, 0xe6, 0xa7, 0x2d, 0xe0, 0x32,
  0x67, 0xee, 0xf6, 0x76, 0x11, 0xe6, 0xbb, 0xdf, 0x60, 0xc1, 0x87, 0x01,
  0x11, 0xa0, 0x01, 0xbc, 0x76, 0x99, 0x10, 0xf1, 0x7c, 0x94, 0x23, 0x76,
  0x5a, 0x60, 0x06, 0x94, 0xf0, 0x98, 0x4f, 0xa0, 0x97, 0x58, 0xc7, 0x93,
  0xa2, 0x76, 0xc2, 0xd3, 0x29, 0xd5, 0xbc, 0xa5, 0x4e, 0xa2, 0xaa, 0xb4,
  0x21, 0x9d, 0xee, 0x67, 0xb9, 0xdc, 0x6a, 0xfe, 0x1e, 0x9a, 0x3e, 0x29,
  0xf2, 0x3b, 0x4e, 0xd3, 0x0d, 0x7f, 0x47, 0xaa, 0xf0, 0x4c, 0x1c, 0x16,
  0x17, 0x19, 0xa3, 0x51, 0xb6, 0x35, 0x5e, 0xf1, 0x0d, 0x1c, 0x71, 0x9f,
  0x2f, 0xf4, 0x03, 0x01, 0xf8, 0xcd, 0xd1, 0x5d, 0xb9, 0xeb, 0xee, 0x62,
  0x47, 0x9b, 0xbd, 0xe2, 0xd1, 0x19, 0xaf, 0xe1, 0x0e, 0x28, 0x3b, 0x03,
  0x35, 0xe3, 0x35, 0x34, 0xfd, 0x18, 0x0c, 0xb1, 0xe7, 0x07, 0x0b, 0xdf,
  0xfe, 0xb2, 0x46, 0xf2, 0x8d, 0x4f, 0x3b, 0x18, 0xa9, 0xbb, 0x23, 0x09,
  0x03, 0x9f, 0x98, 0x5a, 0x46, 0xfd, 0x1b, 0xaa, 0x19, 0xbc, 0x0f, 0xb2,
  0x0c, 0xe9, 0x63, 0x18, 0x7f, 0x03, 0xa3, 0x72, 0x82, 0x4b, 0x53, 0x29,
  0x02, 0x23, 0xaf, 0x1f, 0x0c, 0x4e, 0xe0, 0xea, 0xd8, 0x5d, 0xea, 0x1a,
  0xc2, 0xf6, 0x14, 0xa3, 0x02, 0x15, 0x28, 0x70, 0x44, 0xe3, 0x3a, 0x9a,
  0x55, 0xa5, 0xc7, 0xe3, 0x46, 0xdd, 0xa9, 0x6f, 0x9e, 0x18, 0x57, 0x2f,
  0x0a, 0x13, 0xb8, 0xfd, 0xf8, 0xed, 0x55, 0x9d, 0x23, 0x5a, 0x26, 0x1a,
  0x95, 0xed, 0xd9, 0x23, 0x50, 0x51, 0x22, 0xd3, 0xcc, 0xef, 0x8d, 0x14,
  0x2c, 0x24, 0x50, 0xba, 0xbb, 0xb7, 0x3a, 0x12, 0xe2, 0xe6, 0xee, 0xbd,
  0xaa, 0x07, 0x10, 0xd4, 0xc2, 0xa4, 0x45, 0xc1, 0xeb, 0xa8, 0x16, 0x49,
  0x1c, 0xd0, 0xcc, 0x11, 0xe8, 0xcc, 0xb7, 0xe1, 0xc6, 0x4a, 0x03, 0x44,
  0x35, 0xb2, 0x07, 0x8c, 0x47, 0xec, 0x92, 0x0a, 0x08, 0x71, 0xde, 0x42,
  0xbe, 0x1e, 0xf5, 0xa9, 0x2f, 0xcb, 0x3c, 0x48, 0x4b, 0xa8, 0xfd, 0xca,
  0x31, 0x37, 0x4c, 0xc3, 0x00, 0x81, 0xe2, 0xc5, 0xc1, 0x66, 0x48, 0x09,
  0xe7, 0x55, 0x4c, 0xae, 0x3c, 0x27, 0xdf, 0x25, 0x1d, 0x5a, 0xb9, 0xe1,
  0x5c, 0x72, 0x26, 0xe3, 0xd6, 0xe6, 0x64, 0x1d, 0x42, 0xa8, 0xdb, 0x41,
  0x4c, 0x02, 0xc7, 0xc2, 0xc3, 0xe0, 0x03, 0x1a, 0xdb, 0x0b, 0x12, 0x9f,
  0x1e, 0xa9, 0xb2, 0xfc, 0x01, 0xae, 0xdd, 0x29, 0x37, 0xcc, 0x00, 0x07,
  0x3f, 0x4d, 0xdd, 0xd1, 0x19, 0xca, 0x4d, 0x41, 0x3d, 0x15, 0x19, 0x4d,
  0xea, 0x22, 0xc0, 0xf4, 0xfe, 0xdd, 0xd0, 0xf6, 0x5b, 0xb0, 0xf8, 0xd6,
  0xfc, 0xa4, 0x00, 0xc9, 0xcc, 0xe2, 0xd1, 0xdf, 0x4a, 0xef, 0x38, 0xde,
  0x4e, 0x41, 0xc5, 0x31, 0xf9, 0x7f, 0x33, 0x17, 0xc8, 0x27, 0xe5, 0x0b,
  0x1c, 0xda, 0xd0, 0x47, 0xc2, 0x5f, 0xaf, 0xf5, 0x31, 0x24, 0x09, 0x56,
  0x43, 0x16, 0x05, 0xf5, 0xe3, 0xa4, 0xc6, 0x07, 0xf9, 0xf8, 0xf3, 0x44,
  0xfa, 0xe6, 0xd3, 0xd6, 0x13, 0x2b, 0xc9, 0xf1, 0xe4, 0xce, 0xf9, 0xd1,
  0xac, 0x28, 0xd5, 0xfa, 0x03, 0x45, 0xe7, 0xb8, 0x51, 0xd9, 0x00, 0x26,
  0xf1, 0x00, 0xe7, 0xd6, 0x18, 0xdf, 0x7f, 0x1d, 0xf6, 0x05, 0x33, 0x33,
  0x90, 0x05, 0x22, 0x1c, 0xad, 0x2d, 0x15, 0xc6, 0x1a, 0xdd, 0x32, 0xfe,
  0xe2, 0xd1, 0xfb, 0xec, 0x51, 0x1d, 0x0c, 0x74, 0x66, 0xb8, 0x7e, 0xa6,
  0x75, 0x5a, 0xf0, 0xab, 0xd0, 0x32, 0x13, 0x1c, 0x49, 0xcf, 0xaa, 0xd4,
  0xd8, 0xd2, 0x3e, 0x09, 0xa8, 0x1a, 0x1c, 0x68, 0x3d, 0xe1, 0xc7, 0xd4,
  0x42, 0x34, 0x5a, 0xfb, 0x46, 0xf0, 0xfe, 0x36, 0xea, 0x46, 0x1e, 0x00,
  0x3f, 0xe4, 0xf3, 0xd9, 0xc5, 0x38, 0x46, 0x76, 0xeb, 0x4a, 0x3e, 0xce,
  0x0d, 0x09, 0xdd, 0xbe, 0x1f, 0x60, 0xcb, 0xd8, 0x53, 0x96, 0x25, 0x08,
  0x3d, 0xdb, 0x1a, 0xa9, 0xca, 0xc2, 0x3d, 0x2f, 0xd5, 0x73, 0xf5, 0x81,
  0xb3, 0x9a, 0x49, 0xc3, 0x99, 0x1f, 0x61, 0x57, 0x3b, 0x25, 0x3f, 0xc7,
  0xcd, 0x53, 0xb5, 0xd6, 0xd3, 0xe7, 0x2d, 0xb1, 0x5a, 0x2f, 0x1c, 0x98,
  0x04, 0x3d, 0x6a, 0x53, 0x29, 0x12, 0xcd, 0x32, 0x0b, 0xe0, 0x3d, 0x3c,
  0x4c, 0x19, 0x48, 0xe4, 0x66, 0x32, 0xeb, 0xb8, 0x73, 0xbe, 0x9e, 0x23,
  0x9c, 0x10, 0x9c, 0x26, 0x47, 0xbb, 0xc2, 0xf8, 0xf3, 0x00, 0xc7, 0xe5,
  0xd0, 0x02, 0xad, 0xe5, 0x1d, 0xd1, 0xee, 0x0f, 0x38, 0x0b, 0x06, 0x94,
  0x2b, 0x7f, 0x50, 0x0e, 0x15, 0x7d, 0xb5, 0x04, 0x47, 0x2b, 0xf7, 0x69,
  0xf5, 0xe9, 0xbd, 0xff, 0xfc, 0x00, 0x34, 0xa7, 0x2f, 0xcd, 0x00, 0x3a,
  0xaf, 0x43, 0xe5, 0x53, 0xc9, 0xfa, 0x35, 0xaf, 0x49, 0x33, 0xe2, 0xf6,
  0x53, 0xda, 0xbf, 0xff, 0xda, 0x36, 0x2a, 0xba, 0x06, 0xc3, 0x39, 0x0b,
  0xf3, 0xc9, 0x5c, 0xac, 0x25, 0x96, 0x3d, 0xa8, 0xfe, 0xba, 0x60, 0x3e,
  0x20, 0xa5, 0x3c, 0xa3, 0x54, 0x9d, 0x1f, 0x0a, 0xbb, 0x23, 0x1b, 0x2b,
  0x5a, 0xf0, 0x1e, 0x43, 0x6a, 0xd0, 0xf8, 0xe5, 0xf1, 0x1f, 0x2b, 0xdb,
  0xe4, 0x28, 0x1c, 0xff, 0xcb, 0x48, 0xe5, 0xc3, 0x0f, 0xea, 0xc1, 0xfe,
  0xf6, 0xeb, 0xdf, 0x4d, 0x33, 0xa6, 0x30, 0xdc, 0x17, 0xf6, 0x0f, 0x44,
  0xbd, 0xeb, 0xf7, 0xf1, 0x35, 0xd5, 0x0b, 0x27, 0xda, 0xf3, 0xa2, 0xda,
  0x4a, 0xcf, 0xa6, 0xfe, 0x5d, 0xdc, 0x46, 0x4c, 0xbb, 0x64, 0xcc, 0x36,
  0xbf, 0xaa, 0xf9, 0x0c, 0xe8, 0x34, 0xfc, 0x17, 0x4f, 0x3d, 0x86, 0x0f,
  0x0c, 0x22, 0xda, 0xb7, 0xb3, 0x29, 0xda, 0xd8, 0xbf, 0xc9, 0xce, 0xbd,
  0x4b, 0x51, 0xa8, 0xf6, 0x45, 0x0c, 0xbc, 0xf6, 0xe0, 0xb9, 0xe2, 0xbd,
  0x05, 0x18, 0xc6, 0x7f, 0xe6, 0x47, 0xf8, 0xf9, 0xd1, 0xc6, 0x1f, 0x21,
  0xeb, 0xff, 0x51, 0x2b, 0x00, 0xf4, 0x1f, 0xf5, 0xdc, 0xd9, 0xfb, 0x15,
  0x19, 0x24, 0xee, 0xf0, 0xfe, 0x04, 0xbf, 0x0c, 0xf4, 0xe1, 0x29, 0xf7,
  0x33, 0xc7, 0xff, 0x0c, 0xcf, 0xf0, 0x22, 0xe7, 0x08, 0xbc, 0xee, 0x1f,
  0x1b, 0xef, 0x0d, 0x36, 0x36, 0xd2, 0xb3, 0xf6, 0x52, 0x32, 0x1d, 0xb7,
  0x0b, 0x21, 0x32, 0xd9, 0xd4, 0xc1, 0x0d, 0xe9, 0xce, 0x09, 0x30, 0x24,
  0x0f, 0x34, 0x1f, 0x16, 0x3b, 0xf5, 0x44, 0xe9, 0xf1, 0x2f, 0x18, 0xb9,
  0xbe, 0x3d, 0x53, 0x1f, 0x81, 0x2a, 0xe7, 0x40, 0x15, 0x0d, 0xf4, 0xcc,
  0x1e, 0xfb, 0x3a, 0xb8, 0xe7, 0xf7, 0x4f, 0xe4, 0x12, 0x2d, 0x04, 0xc4,
  0x71, 0x29, 0xea, 0xcb, 0x64, 0x70, 0x34, 0x71, 0x5f, 0xc3, 0x7c, 0x9e,
  0x6c, 0x43, 0xbd, 0xae, 0x47, 0x2c, 0x6e, 0xb7, 0x9e, 0x86, 0xae, 0x37,
  0x71, 0x62, 0xec, 0x10, 0x21, 0x42, 0x1c, 0x8d, 0xe7, 0x22, 0x23, 0x2e,
  0xbd, 0xd8, 0xf5, 0xf2, 0xa6, 0xda, 0x75, 0x61, 0xcc, 0x4e, 0x76, 0x60,
  0x21, 0x89, 0xe1, 0x41, 0xf0, 0x6e, 0x55, 0x2f, 0xf1, 0x89, 0xd1, 0xc0,
  0x8c, 0x29, 0xa3, 0x8a, 0xca, 0xc8, 0x92, 0x16, 0x6e, 0x8e, 0x00, 0xc3,
  0xab, 0x58, 0x15, 0x1f, 0x0f, 0x2b, 0xac, 0x40, 0x52, 0x78, 0xb6, 0x2d,
  0x71, 0x56, 0x81, 0xfd, 0x71, 0xfb, 0xaf, 0xb2, 0x9a, 0x65, 0xc0, 0xe0,
  0xe1, 0x4c, 0x68, 0x07, 0xff, 0x04, 0x33, 0x2a, 0xca, 0xfd, 0x16, 0x2e,
  0x63, 0xc3, 0x50, 0x26, 0x7f, 0x4e, 0xef, 0x1a, 0x45, 0x27, 0x3a, 0xdc,
  0x32, 0x00, 0x6d, 0x2f, 0x4f, 0x5c, 0x49, 0xda, 0x6b, 0x11, 0x03, 0x53,
  0x4b, 0xae, 0x25, 0x58, 0xf8, 0xe2, 0x63, 0xe1, 0xf3, 0x40, 0xe0, 0x0d,
  0xdf, 0x31, 0xb5, 0xa1, 0xff, 0xc7, 0x11, 0xf6, 0x06, 0xbf, 0xb4, 0xda,
  0x54, 0x97, 0x5e, 0x0a, 0x06, 0x24, 0x2e, 0xfd, 0x08, 0xa1, 0xcd, 0xd6,
  0xff, 0x49, 0xd5, 0xbc, 0x5e, 0x36, 0x1d, 0xae, 0x39, 0xf4, 0xd4, 0x33,
  0x56, 0x5f, 0xc6, 0x28, 0xa8, 0x16, 0x0e, 0xda, 0xd4, 0x3a, 0x3b, 0x20,
  0x58, 0x2e, 0x5b, 0x6b, 0x03, 0xdd, 0xb7, 0xb1, 0x99, 0x7f, 0x13, 0x25,
  0x39, 0xae, 0x21, 0xe8, 0x5d, 0xf9, 0x24, 0x43, 0x1c, 0xbe, 0x48, 0xc1,
  0xde, 0x47, 0x0b, 0xe7, 0x59, 0x68, 0x35, 0x4d, 0x46, 0xcc, 0xdc, 0xe5,
  0xf5, 0x3d, 0xd1, 0xd6, 0xc2, 0xe2, 0x1d, 0xd2, 0x44, 0xdf, 0xd5, 0x50,
  0x56, 0x18, 0xdc, 0x09, 0x31, 0xbd, 0xc6, 0x79, 0x59, 0xcc, 0xe6, 0xa8,
  0x5c, 0x50, 0xfe, 0x01, 0xa0, 0x4d, 0x1a, 0xde, 0xf9, 0x3d, 0xd2, 0xa5,
  0xc5, 0x35, 0x09, 0xad, 0xb9, 0x0a, 0xac, 0xd3, 0x61, 0xd8, 0x0c, 0xbf,
  0xed, 0x3c, 0xf3, 0x14, 0xfb, 0xf8, 0x6a, 0x10, 0x9f, 0xdf, 0xe4, 0x9f,
  0x13, 0x58, 0xf6, 0xfc, 0xfd, 0xef, 0x22, 0xef, 0x03, 0x0d, 0x29, 0xd7,
  0x53, 0xe5, 0x4b, 0xd1, 0x96, 0xdc, 0x0a, 0x14, 0x16, 0x51, 0xa0, 0x3e,
  0x42, 0xb7, 0x3c, 0x2c, 0xe1, 0xdf, 0xa2, 0x9d, 0xfd, 0xc8, 0xf8, 0x13,
  0xa2, 0xb2, 0x20, 0x94, 0x66, 0x11, 0x09, 0x4c, 0xfa, 0x61, 0xad, 0xc1,
  0x81, 0x5c, 0x67, 0x0e, 0x9c, 0x3e, 0xaa, 0xac, 0x8c, 0x21, 0xe1, 0x66,
  0xec, 0x0f, 0xa8, 0x5e, 0x16, 0x4b, 0xa6, 0x04, 0x08, 0xf8, 0x38, 0x2b,
  0x52, 0x21, 0xf2, 0x47, 0x84, 0xd8, 0x16, 0x03, 0xae, 0xdf, 0x5f, 0xe9,
  0x19, 0x1b, 0x46, 0x63, 0xed, 0xfd, 0xda, 0xa1, 0x63, 0x00, 0xfc, 0x39,
  0x5c, 0x65, 0x36, 0x71, 0x02, 0xad, 0xd6, 0x04, 0xc3, 0xbf, 0xf7, 0x86,
  0x42, 0xaf, 0x48, 0xb4, 0xf7, 0xe1, 0x67, 0xb6, 0xbd, 0x30, 0xca, 0x6c,
  0xa3, 0xc6, 0xfb, 0x2a, 0x16, 0x34, 0xcb, 0xcf, 0x51, 0xc5, 0x5f, 0xec,
  0xac, 0x8d, 0x29, 0xae, 0xac, 0xec, 0x60, 0x4b, 0xa0, 0x37, 0x16, 0xf4,
  0x43, 0x46, 0x4f, 0x4d, 0x1f, 0xd5, 0x4e, 0xbf, 0xd1, 0xa0, 0xe4, 0x33,
  0xa2, 0x22, 0xd3, 0xea, 0xf2, 0xce, 0x63, 0xbc, 0x98, 0x43, 0x1b, 0x4a,
  0x39, 0x5f, 0xff, 0xa2, 0x27, 0xf4, 0x07, 0xf2, 0x81, 0x26, 0xb9, 0xe9,
  0x18, 0x45, 0xc1, 0x26, 0x87, 0x27, 0x51, 0x5d, 0x1a, 0x0b, 0x25, 0xaf,
  0xfa, 0xf2, 0xf5, 0xda, 0x02, 0x1d, 0x0e, 0x11, 0x12, 0x02, 0x1b, 0xf6,
  0xc7, 0xf5, 0x1f, 0x2a, 0x26, 0x2e, 0xe0, 0xf9, 0xf7, 0x17, 0xc5, 0x2a,
  0xf1, 0x37, 0xf7, 0xf1, 0xde, 0xf9, 0x22, 0x08, 0xfd, 0x0b, 0xd2, 0xe3,
  0x2f, 0x1c, 0x20, 0x32, 0xfa, 0xe3, 0xd9, 0xff, 0x0a, 0xdf, 0x1d, 0x5e,
  0x30, 0xea, 0xf2, 0x36, 0xf9, 0xf3, 0xc0, 0x33, 0x2f, 0xbb, 0x01, 0x17,
  0x41, 0xb8, 0x23, 0x0b, 0xe8, 0xd4, 0x05, 0xe3, 0xef, 0x20, 0xe1, 0xd3,
  0x10, 0xdb, 0x05, 0xf0, 0x7f, 0xd6, 0x1d, 0xdb, 0x03, 0xf6, 0x00, 0xf5,
  0xe4, 0x0c, 0xb6, 0x28, 0xbd, 0xdc, 0x21, 0x32, 0x2a, 0x0f, 0xb7, 0x1b,
  0xa5, 0xae, 0xf5, 0x1a, 0xd3, 0xbb, 0x3b, 0x35, 0x22, 0x13, 0xea, 0x97,
  0x19, 0x5f, 0x44, 0xe1, 0xbc, 0x55, 0xe5, 0x52, 0x10, 0xff, 0x00, 0xf3,
  0xdb, 0xe8, 0x97, 0xc5, 0xdb, 0xfa, 0x36, 0xf5, 0xe0, 0xac, 0x18, 0xc3,
  0x08, 0xee, 0x00, 0x93, 0x20, 0xec, 0xd6, 0x82, 0xa5, 0x43, 0xb2, 0x1a,
  0x29, 0x42, 0x0a, 0xac, 0x56, 0xea, 0xdf, 0x0a, 0x0a, 0xf4, 0x6c, 0x09,
  0x5b, 0xd2, 0xeb, 0x4c, 0x38, 0xbe, 0x21, 0xf4, 0x29, 0xc6, 0xf5, 0x59,
  0xb5, 0x07, 0x25, 0x4a, 0x7f, 0x28, 0x57, 0x8d, 0xbf, 0x07, 0xd5, 0xa5,
  0x0a, 0x52, 0xcf, 0xf6, 0x19, 0xc5, 0x3d, 0xef, 0x64, 0xdf, 0x8b, 0x51,
  0x69, 0xe3, 0xc9, 0xa7, 0xa5, 0x27, 0x25, 0xa0, 0x44, 0x9a, 0x24, 0x11,
  0x09, 0x3d, 0x3a, 0x8c, 0x32, 0xae, 0xb8, 0x9e, 0xf1, 0x1e, 0x32, 0xf8,
  0x76, 0xc9, 0xe4, 0xc3, 0x24, 0x27, 0x7a, 0x19, 0x94, 0xd4, 0x81, 0x35,
  0x17, 0x3c, 0x8e, 0x0b, 0x74, 0xac, 0x53, 0x45, 0xa8, 0x5f, 0xf7, 0x42,
  0x14, 0x21, 0xc7, 0x53, 0x1c, 0xad, 0x26, 0x36, 0xd3, 0xad, 0x4e, 0x4c,
  0xc7, 0x8d, 0x4a, 0x75, 0x9e, 0xe2, 0x54, 0x15, 0xf1, 0x02, 0x97, 0x24,
  0x43, 0x69, 0x98, 0xbe, 0x36, 0x8e, 0xab, 0x4b, 0x9c, 0x0f, 0x70, 0x58,
  0x02, 0x8c, 0x41, 0xc8, 0x23, 0x46, 0x18, 0x32, 0xe0, 0x91, 0xad, 0xb5,
  0xab, 0xf7, 0xea, 0x50, 0x05, 0x40, 0xe2, 0x9d, 0x16, 0x38, 0xf6, 0xf5,
  0x26, 0x7f, 0x1e, 0xea, 0xff, 0xea, 0xf4, 0xa1, 0x58, 0xdb, 0x28, 0xaf,
  0x1b, 0xfd, 0x56, 0xe4, 0x5c, 0xa9, 0x5f, 0x57, 0x97, 0xa7, 0x66, 0xc8,
  0x5e, 0x04, 0xd4, 0x3f, 0x92, 0x6f, 0x40, 0x1c, 0x5b, 0xc8, 0x6a, 0x21,
  0xcc, 0x6d, 0xfe, 0x1e, 0x4a, 0x2d, 0xf0, 0xea, 0xa7, 0xb4, 0x35, 0xfa,
  0x3e, 0x48, 0xba, 0x9f, 0xe5, 0x38, 0x1a, 0xa8, 0x04, 0x31, 0xab, 0x70,
  0x6c, 0xf7, 0x70, 0xff, 0x16, 0xeb, 0xcc, 0x9f, 0x34, 0x27, 0xfa, 0xd7,
  0xc6, 0xeb, 0xed, 0x5c, 0x59, 0xcd, 0xe6, 0xfe, 0x44, 0x5e, 0x41, 0x71,
  0x3d, 0x04, 0xb5, 0x13, 0xdc, 0x0f, 0xc2, 0xb5, 0xb1, 0x93, 0x48, 0xfb,
  0x13, 0x47, 0xdf, 0x91, 0x01, 0x42, 0x32, 0xf6, 0xbd, 0xad, 0x2b, 0xe7,
  0x3b, 0xce, 0xbc, 0xfd, 0xcf, 0x42, 0xf6, 0x22, 0x05, 0x95, 0x23, 0x12,
  0x92, 0x02, 0xc4, 0x25, 0xb7, 0x10, 0xa2, 0xeb, 0xcd, 0x0a, 0x61, 0xeb,
  0x05, 0x55, 0xbe, 0xb4, 0xd6, 0x63, 0x33, 0xd5, 0xde, 0xe6, 0x01, 0x13,
  0xdf, 0x27, 0xc6, 0x34, 0xf1, 0x33, 0x07, 0xcb, 0x41, 0xad, 0xe8, 0x45,
  0xa6, 0xc1, 0x2a, 0xfc, 0x1d, 0x45, 0x47, 0x9f, 0x01, 0xd0, 0xc0, 0xfb,
  0xca, 0xb3, 0xb2, 0xf5, 0xc0, 0x7f, 0x0c, 0x03, 0x1c, 0x64, 0xe0, 0xe7,
  0xfc, 0xe3, 0xdc, 0x42, 0xcb, 0x47, 0xb7, 0xf3, 0xcf, 0x34, 0xef, 0x15,
  0x50, 0xde, 0xcd, 0xe9, 0xd3, 0x25, 0xe9, 0x09, 0x26, 0xd2, 0x19, 0xfe,
  0x45, 0x32, 0x59, 0x36, 0xfe, 0xfd, 0x2b, 0x0a, 0xd7, 0x7f, 0xe8, 0x18,
  0x20, 0xe9, 0xfb, 0x28, 0x47, 0xce, 0xf3, 0xf0, 0xef, 0x04, 0x03, 0x45,
  0xec, 0xc9, 0xaa, 0x18, 0x0a, 0x10, 0xe4, 0x32, 0xe1, 0xf4, 0xc7, 0xef,
  0x06, 0xd2, 0x33, 0xda, 0xca, 0x03, 0x32, 0x25, 0x0e, 0xff, 0xf2, 0xfe,
  0x15, 0xdf, 0x37, 0xb6, 0xee, 0x22, 0xf3, 0xdd, 0xf4, 0xe5, 0x22, 0x1a,
  0x02, 0x3f, 0xe7, 0xcd, 0xef, 0x33, 0xd0, 0xba, 0x14, 0x20, 0x36, 0xfe,
  0xf1, 0xef, 0xc2, 0xe6, 0x1f, 0x8e, 0x51, 0xdc, 0x90, 0x1b, 0x2c, 0xd7,
  0xa6, 0x0f, 0xff, 0x15, 0xf5, 0x4c, 0x5e, 0x41, 0x32, 0xa5, 0x02, 0x09,
  0x98, 0x1e, 0x43, 0xdb, 0xd3, 0x1e, 0xdc, 0x20, 0x34, 0x81, 0x33, 0x4b,
  0xb7, 0x8f, 0xdf, 0xec, 0x28, 0xdc, 0xbc, 0xb1, 0xc0, 0xf9, 0x21, 0xfb,
  0xce, 0xd3, 0x55, 0xb0, 0xea, 0x40, 0x24, 0xac, 0xa0, 0x58, 0x3e, 0xb2,
  0xd2, 0x72, 0xd5, 0xf3, 0x14, 0xb7, 0xe4, 0xfb, 0x3b, 0xf4, 0x52, 0xb0,
  0xab, 0xb6, 0x21, 0xf0, 0xdc, 0xef, 0xfc, 0x8c, 0xc9, 0xfc, 0x69, 0xef,
  0xa4, 0x13, 0x2a, 0xdc, 0xf6, 0x0d, 0x03, 0xcd, 0xdd, 0xc6, 0x07, 0xac,
  0xef, 0x15, 0xd4, 0x49, 0x4f, 0xf0, 0xfb, 0x05, 0x10, 0x1e, 0x93, 0x69,
  0x5f, 0x26, 0x2c, 0x02, 0x25, 0x1e, 0x09, 0xc1, 0x56, 0xf8, 0xd6, 0xc6,
  0x1b, 0xea, 0x75, 0x17, 0xef, 0xd2, 0x28, 0x0f, 0xb8, 0x7f, 0x42, 0x14,
  0xbc, 0xbb, 0xf8, 0x22, 0x0c, 0x36, 0x16, 0xc7, 0x2d, 0xe2, 0x1c, 0x2c,
  0x35, 0xbf, 0xcc, 0x61, 0xa7, 0xd3, 0x05, 0xf6, 0xe8, 0xe2, 0xb7, 0xf8,
  0x92, 0xb9, 0x22, 0x21, 0x1f, 0xf2, 0xcf, 0x1c, 0x11, 0x2b, 0x0d, 0xce,
  0x50, 0x19, 0xff, 0xd9, 0xb4, 0xb7, 0x33, 0x19, 0x4f, 0xb1, 0xb1, 0x04,
  0xd4, 0xe1, 0xea, 0x3f, 0xdf, 0x10, 0x55, 0xfd, 0xb7, 0x19, 0x2f, 0x09,
  0x30, 0xcd, 0x06, 0xdc, 0xdb, 0xd8, 0x53, 0x06, 0xee, 0x1b, 0x67, 0x25,
  0xe5, 0xc7, 0x8a, 0x58, 0xf1, 0xb9, 0x3c, 0x05, 0x11, 0xd6, 0x09, 0xa8,
  0xf1, 0xbd, 0xa1, 0x2e, 0xd7, 0xb1, 0x5f, 0x26, 0x2e, 0x8f, 0x69, 0x01,
  0xfd, 0x5c, 0x2a, 0xcb, 0xcc, 0x07, 0x26, 0x81, 0xa8, 0xd9, 0xb2, 0x94,
  0xbd, 0x6e, 0x14, 0xdf, 0x40, 0xc4, 0xdb, 0x06, 0x58, 0xde, 0x23, 0x48,
  0x6f, 0x99, 0xbf, 0x41, 0x6e, 0x96, 0xbe, 0x51, 0x38, 0xe4, 0xa1, 0x42,
  0x5d, 0x2c, 0xd6, 0x3f, 0x63, 0x4c, 0xe7, 0xfc, 0x9a, 0x03, 0x8e, 0xba,
  0xc3, 0x0f, 0x33, 0x17, 0xc8, 0xfd, 0x74, 0x1e, 0x50, 0x1c, 0x94, 0x21,
  0xef, 0x41, 0xe8, 0x71, 0xcf, 0x53, 0x30, 0xd7, 0x5c, 0xca, 0xa4, 0xe8,
  0xbc, 0x29, 0x5a, 0x1e, 0x32, 0xd7, 0x99, 0x6e, 0x61, 0xf2, 0xef, 0xa7,
  0xc3, 0x6e, 0xfa, 0xce, 0x40, 0x56, 0x93, 0xf6, 0xbf, 0x69, 0x52, 0xf6,
  0xb2, 0xaa, 0x4f, 0xd7, 0xaa, 0x4a, 0x14, 0xf7, 0x2a, 0xfd, 0x0d, 0x6e,
  0x92, 0xa1, 0xae, 0x6a, 0x6b, 0xf0, 0x74, 0xe0, 0x57, 0xb0, 0x26, 0xa4,
  0x81, 0x4c, 0x6f, 0x0e, 0x61, 0x29, 0x1a, 0xbc, 0xc1, 0x56, 0xb5, 0x48,
  0x50, 0x29, 0x22, 0xa5, 0xbb, 0xa6, 0xaf, 0x6b, 0x8d, 0xc8, 0xcd, 0xb1,
  0xbb, 0xf4, 0xca, 0x44, 0xee, 0xd2, 0xd3, 0xa6, 0x5b, 0x24, 0xa5, 0x53,
  0xcc, 0xd1, 0x55, 0x44, 0xdf, 0xe2, 0xa5, 0x20, 0xc3, 0xf0, 0xb6, 0xdc,
  0x25, 0xba, 0xcc, 0xd2, 0xd2, 0xd2, 0x03, 0x55, 0x30, 0xf7, 0xed, 0xd1,
  0xf7, 0xb3, 0x7f, 0xc8, 0xec, 0xd7, 0x41, 0x17, 0x0c, 0x6e, 0x20, 0x31,
  0x2b, 0xe7, 0x04, 0x41, 0x16, 0xee, 0x03, 0xbf, 0x2e, 0xf7, 0xaf, 0x40,
  0xa3, 0xf8, 0x01, 0x4f, 0x32, 0x36, 0x0c, 0xf6, 0xb4, 0xae, 0xb0, 0x14,
  0xa4, 0x11, 0x42, 0xe5, 0x11, 0x05, 0x03, 0xf6, 0xdf, 0xda, 0xa5, 0xf0,
  0x4c, 0xf4, 0xce, 0x0c, 0xf7, 0xd6, 0x4b, 0xf1, 0xcd, 0xfa, 0x1b, 0xcc,
  0x0b, 0x50, 0x32, 0xe1, 0xf5, 0x1d, 0x01, 0xda, 0x49, 0xab, 0x71, 0x1e,
  0xeb, 0x9a, 0x6b, 0xc9, 0x55, 0xee, 0x4d, 0xb6, 0xbd, 0xde, 0x4b, 0x10,
  0x4f, 0x6f, 0x39, 0xa2, 0xce, 0x65, 0xe4, 0x1e, 0x55, 0xf3, 0xbb, 0x09,
  0x59, 0x9a, 0xb4, 0xee, 0xcf, 0x31, 0x43, 0x1f, 0xa8, 0x40, 0xec, 0xfb,
  0x23, 0x9d, 0xa9, 0xf1, 0x0d, 0xd9, 0x32, 0xef, 0xe5, 0xf3, 0xf2, 0x04,
  0x23, 0x6f, 0xe6, 0xc8, 0x32, 0xb1, 0xde, 0x81, 0x04, 0x2b, 0xb5, 0xbc,
  0x43, 0x4a, 0xa6, 0x09, 0xf2, 0x8c, 0x66, 0x22, 0xa8, 0xf9, 0x10, 0xa2,
  0x60, 0xa9, 0x91, 0x6d, 0x59, 0x21, 0x54, 0xf1, 0xe0, 0x62, 0x22, 0x33,
  0xfb, 0x99, 0x9c, 0xbb, 0xe1, 0x10, 0x2c, 0xc2, 0x95, 0x5b, 0xd1, 0x06,
  0xcb, 0xa7, 0xbf, 0x64, 0x9a, 0xe9, 0xaf, 0x91, 0x1c, 0x76, 0x4d, 0x3a,
  0xe2, 0x38, 0xa5, 0x9e, 0x27, 0x12, 0x43, 0xe3, 0x23, 0xb4, 0x34, 0x4f,
  0x5d, 0x4d, 0x32, 0x29, 0x73, 0x07, 0x25, 0xa5, 0x00, 0xc9, 0xfb, 0x6a,
  0xa4, 0x45, 0x9c, 0xa6, 0x98, 0xad, 0x5c, 0xf9, 0x08, 0x17, 0xa4, 0x75,
  0x74, 0x5f, 0xa4, 0xb6, 0x5b, 0xf5, 0xbe, 0x15, 0xa3, 0x7a, 0x37, 0x8b,
  0x1a, 0x4e, 0xa1, 0xe6, 0x1d, 0x7f, 0xae, 0xbd, 0x00, 0x38, 0xb4, 0xbe,
  0xb1, 0x5c, 0xd6, 0x16, 0x09, 0x34, 0x3a, 0x3c, 0x99, 0x41, 0x0c, 0xc7,
  0x28, 0xb6, 0xf1, 0x93, 0x69, 0x10, 0x34, 0xd5, 0x2e, 0x26, 0xfd, 0x00,
  0x5d, 0xff, 0x65, 0x74, 0xf1, 0x4f, 0x49, 0x1a, 0xf1, 0x16, 0x73, 0x5d,
  0x59, 0x89, 0xed, 0xa0, 0x17, 0x50, 0xbe, 0xc9, 0xae, 0xf1, 0x54, 0xac,
  0xce, 0x5a, 0xba, 0xdd, 0xa3, 0xd8, 0x14, 0x73, 0x13, 0x05, 0x82, 0x9a,
  0xf8, 0x49, 0xa6, 0x08, 0xc3, 0xaf, 0xbc, 0xb0, 0xbe, 0xab, 0x9c, 0x44,
  0xf1, 0x2c, 0x88, 0x36, 0x3b, 0x24, 0x6b, 0xed, 0xf4, 0xa0, 0x81, 0xdf,
  0xc9, 0xa8, 0x55, 0xe5, 0x05, 0x45, 0x3d, 0xc2, 0xad, 0x9c, 0xa7, 0x2c,
  0xda, 0x03, 0xe7, 0xa1, 0xc7, 0x5b, 0xe6, 0xe3, 0x3d, 0xf4, 0x9f, 0xe4,
  0xae, 0x78, 0x43, 0x04, 0x17, 0x0c, 0xf9, 0xa9, 0xe5, 0xf4, 0xcd, 0x54,
  0x1d, 0xda, 0x0b, 0x37, 0x57, 0xc4, 0xa0, 0x5a, 0xa9, 0x4e, 0x00, 0x39,
  0xed, 0xb8, 0x15, 0x28, 0x35, 0x7a, 0x12, 0x17, 0xed, 0x50, 0xae, 0xd0,
  0x0d, 0x38, 0x7a, 0x32, 0xf6, 0x0f, 0x0c, 0xb3, 0xe4, 0x81, 0xdb, 0x1c,
  0x48, 0x61, 0xf4, 0xcc, 0xd1, 0x54, 0x08, 0x9c, 0x4c, 0xba, 0x66, 0xea,
  0x04, 0x1b, 0xa2, 0xf7, 0xc1, 0xc4, 0xfa, 0x3b, 0x32, 0xd1, 0xe8, 0x9e,
  0xb4, 0xf4, 0xdb, 0xd5, 0xc7, 0x2f, 0xd1, 0x38, 0x17, 0x25, 0xf4, 0xfe,
  0x30, 0xae, 0xf5, 0xd6, 0x30, 0x30, 0x15, 0x38, 0x05, 0x68, 0x3b, 0xc1,
  0xfb, 0x44, 0xdc, 0xdd, 0x0b, 0xe5, 0x63, 0xf1, 0xe5, 0xc4, 0xa2, 0xd8,
  0xc3, 0x4d, 0x29, 0xdb, 0x59, 0xd0, 0xdb, 0xc7, 0x3b, 0xb8, 0x4e, 0x38,
  0x07, 0x84, 0xf1, 0x1f, 0xd1, 0x34, 0x1d, 0xf0, 0x26, 0x5e, 0x4b, 0x48,
  0x5f, 0x32, 0xf5, 0xd8, 0xe4, 0x3d, 0x2f, 0x49, 0xae, 0x06, 0xd8, 0xcb,
  0x77, 0xb2, 0xb4, 0xb1, 0x68, 0xd1, 0x68, 0x43, 0x17, 0xcc, 0xfc, 0xfd,
  0xb4, 0x19, 0x2b, 0x33, 0x51, 0xf0, 0x03, 0xc6, 0x25, 0xc8, 0xac, 0xad,
  0x12, 0x8c, 0x07, 0xba, 0xce, 0x93, 0x4e, 0x3f, 0x3e, 0x4b, 0x24, 0x11,
  0x01, 0xda, 0xc5, 0xf8, 0xaa, 0xe7, 0x02, 0x2b, 0xf5, 0xba, 0xf5, 0xc8,
  0x39, 0x24, 0xc3, 0x7f, 0x9c, 0x0a, 0x2b, 0xc5, 0xd7, 0xae, 0xfb, 0x62,
  0x69, 0x78, 0xca, 0xc1, 0x3d, 0xc9, 0x4b, 0x11, 0xb1, 0x40, 0xbf, 0xc8,
  0x51, 0xa6, 0x86, 0x3a, 0x16, 0x8a, 0x29, 0x73, 0xb8, 0x22, 0xe1, 0x10,
  0x51, 0xa7, 0x40, 0x90, 0xaa, 0xb3, 0x18, 0xb7, 0xb0, 0xce, 0xf4, 0xc0,
  0xa4, 0xd9, 0xa0, 0xc9, 0x1d, 0xa0, 0x8e, 0x0b, 0x92, 0xbb, 0x1c, 0xb6,
  0xef, 0x53, 0xd2, 0xe3, 0x5c, 0x69, 0x1b, 0x3d, 0x10, 0x3c, 0x8f, 0xc2,
  0xee, 0x28, 0x41, 0x20, 0x1b, 0x15, 0x17, 0x81, 0x7d, 0x65, 0x61, 0xaf,
  0x32, 0x17, 0x5a, 0x09, 0xae, 0x23, 0x1c, 0xab, 0x14, 0x8a, 0x98, 0xd9,
  0xa1, 0x7b, 0xf6, 0xde, 0x58, 0x8f, 0x51, 0x6f, 0x46, 0x50, 0x30, 0x74,
  0x08, 0xda, 0xbe, 0xf7, 0xbc, 0x1c, 0xf8, 0x96, 0xd5, 0x42, 0x33, 0xd1,
  0x0b, 0x6f, 0xd3, 0xc6, 0x30, 0xa8, 0xaa, 0xc1, 0xbe, 0x46, 0x1d, 0xc2,
  0x52, 0x3d, 0xbf, 0xcd, 0xe1, 0xce, 0xf1, 0x4b, 0xd6, 0xe1, 0x24, 0xb4,
  0x19, 0xbe, 0x69, 0x67, 0xc8, 0x30, 0x48, 0x5a, 0x11, 0x48, 0x4e, 0x11,
  0x33, 0x7f, 0x24, 0xc0, 0xde, 0x28, 0x5a, 0xc1, 0x0f, 0xb6, 0x5a, 0xe7,
  0x5e, 0xbb, 0x17, 0xe4, 0xe0, 0xcf, 0x0e, 0xe1, 0x3e, 0xf8, 0x3a, 0x29,
  0x08, 0x9e, 0x57, 0xf1, 0xd3, 0xf7, 0x00, 0x02, 0x3f, 0x48, 0x3b, 0x02,
  0x8c, 0x0b, 0x9c, 0x55, 0x25, 0xaf, 0x23, 0xad, 0x69, 0xa7, 0xed, 0xfd,
  0x06, 0x04, 0xf2, 0xd2, 0x55, 0x09, 0x1e, 0x43, 0x1c, 0xe0, 0x05, 0x23,
  0x67, 0x81, 0x45, 0x50, 0x17, 0xbe, 0x4a, 0xad, 0xcf, 0x4a, 0x2f, 0x4f,
  0x69, 0xe5, 0x55, 0xf0, 0x5b, 0x62, 0xf4, 0xf5, 0x63, 0xf2, 0xda, 0xa0,
  0xaa, 0xd6, 0xf2, 0xad, 0xcf, 0xc5, 0x66, 0x0a, 0x38, 0xad, 0x2d, 0x6b,
  0xd5, 0xc0, 0xb4, 0xfa, 0x00, 0xc9, 0x59, 0x46, 0x20, 0x14, 0x96, 0xae,
  0x52, 0x3c, 0x28, 0xcc, 0x4e, 0x31, 0x36, 0xa6, 0xf9, 0x56, 0x12, 0x0c,
  0x41, 0x50, 0xfd, 0xc4, 0xba, 0xf1, 0x5f, 0xc6, 0x26, 0xcc, 0xdc, 0x54,
  0x66, 0x36, 0x32, 0xb5, 0xa3, 0x10, 0xa6, 0xdf, 0x0e, 0xf5, 0x3c, 0x0f,
  0xbb, 0xf2, 0xb6, 0xeb, 0x1d, 0x1d, 0xfe, 0x9f, 0xec, 0x14, 0xba, 0x23,
  0xb0, 0x8f, 0x96, 0x49, 0x08, 0xdc, 0xac, 0x16, 0xca, 0xd9, 0x36, 0xd8,
  0x16, 0xe3, 0x66, 0xdf, 0xc3, 0x5a, 0x9c, 0x51, 0x44, 0x41, 0x15, 0x37,
  0xf7, 0xd9, 0xcc, 0xd2, 0xf7, 0x07, 0xb1, 0xef, 0x3c, 0x2e, 0xc0, 0xd6,
  0xc8, 0xe5, 0x93, 0x74, 0xca, 0x0d, 0x69, 0x17, 0xd6, 0x2c, 0xf0, 0x34,
  0xa5, 0xf3, 0xc8, 0x42, 0xdc, 0xe7, 0x3c, 0x44, 0xa4, 0x0d, 0xee, 0x94,
  0x55, 0x7f, 0x51, 0x21, 0x3a, 0x4e, 0x4e, 0x5b, 0xc3, 0x1f, 0xd3, 0xc0,
  0x5b, 0x22, 0xd7, 0xae, 0xe1, 0xb9, 0x23, 0xf6, 0x25, 0x95, 0xab, 0xb6,
  0x06, 0xcd, 0x3f, 0xc0, 0xfe, 0xc9, 0x2c, 0x2d, 0xf7, 0xc8, 0xa4, 0x13,
  0x52, 0xa0, 0xbc, 0xc6, 0x2d, 0xd6, 0x65, 0x60, 0xf3, 0xbe, 0xd5, 0xf7,
  0x49, 0xdf, 0x0c, 0xdc, 0x29, 0xec, 0x51, 0x9f, 0x4b, 0x75, 0x0c, 0x69,
  0xd7, 0x39, 0x5d, 0xcb, 0x1b, 0x06, 0x81, 0x38, 0x31, 0x3d, 0xf3, 0xbc,
  0xda, 0xcb, 0x0e, 0xcd, 0xbd, 0xca, 0xc2, 0x6c, 0xb5, 0x5d, 0x3a, 0xc1,
  0xb7, 0x29, 0xf4, 0x54, 0xa0, 0xa0, 0x0a, 0x66, 0xa0, 0xf8, 0x3e, 0xf7,
  0x11, 0x60, 0xb7, 0x70, 0xfd, 0x40, 0x1c, 0xbc, 0xa3, 0x59, 0xed, 0x64,
  0xd4, 0xde, 0x02, 0x36, 0x35, 0xe3, 0xe8, 0xd5, 0x9a, 0xef, 0xd0, 0xc6,
  0xea, 0xd2, 0xc6, 0xab, 0xb6, 0xfb, 0xe4, 0xeb, 0x1d, 0x95, 0x57, 0xd4,
  0xf0, 0xa5, 0x15, 0xc0, 0x68, 0x35, 0x49, 0xb8, 0x2c, 0xe5, 0x59, 0x59,
  0x21, 0x23, 0xf0, 0x25, 0x86, 0x43, 0xb9, 0xf3, 0xfd, 0x83, 0x76, 0xd3,
  0xbf, 0x2e, 0xda, 0x0b, 0xc6, 0xc8, 0x2c, 0x73, 0xcd, 0xe2, 0x67, 0x4d,
  0x70, 0x1e, 0xc5, 0xb9, 0x35, 0x35, 0xc1, 0xf1, 0x34, 0x7f, 0x50, 0x7d,
  0x1a, 0x75, 0xe5, 0xb1, 0xf4, 0xf6, 0x14, 0xad, 0xc7, 0xe8, 0x7e, 0x66,
  0x85, 0x9b, 0xb2, 0x37, 0x5c, 0xf4, 0xc9, 0xdf, 0x4d, 0x56, 0x22, 0x69,
  0x8f, 0x03, 0x29, 0x93, 0xcd, 0x29, 0x4b, 0x1f, 0x00, 0xdb, 0xc8, 0xee,
  0x2a, 0x1d, 0xdf, 0xb9, 0xed, 0xdf, 0xe4, 0x96, 0x9e, 0x26, 0x41, 0x05,
  0xfa, 0xb7, 0xb9, 0x18, 0x75, 0xce, 0xde, 0x06, 0xfb, 0x4c, 0xc2, 0x21,
  0x1d, 0x41, 0x40, 0xd3, 0x24, 0x6c, 0xe3, 0xb1, 0x5d, 0x2c, 0x03, 0xc6,
  0xb0, 0x2a, 0xf6, 0x7f, 0xc6, 0x01, 0x2b, 0x16, 0x72, 0xb3, 0xc6, 0x4d,
  0x44, 0x52, 0x5a, 0xea, 0x1f, 0xa6, 0x08, 0xae, 0x5d, 0x1e, 0x6b, 0xd8,
  0x2d, 0xca, 0x52, 0x18, 0x50, 0xf0, 0xc9, 0x4e, 0x1c, 0xfd, 0xc8, 0xe7,
  0x3b, 0x1c, 0xff, 0x20, 0xbc, 0x21, 0xe2, 0x45, 0x64, 0x17, 0xb9, 0xbe,
  0x55, 0xfd, 0xae, 0x9b, 0x0c, 0xa2, 0xc6, 0x30, 0x14, 0x36, 0xfd, 0x09,
  0x1d, 0xce, 0xe7, 0xa8, 0xe6, 0xec, 0x27, 0xc0, 0x2a, 0xcf, 0xc1, 0x06,
  0x13, 0x01, 0xe0, 0xca, 0xc8, 0xe4, 0x32, 0xd3, 0x30, 0xf1, 0xc2, 0xbe,
  0xfa, 0x2b, 0x19, 0xd4, 0x1b, 0xcc, 0xf1, 0x1e, 0x06, 0x81, 0x1d, 0x04,
  0xc6, 0x10, 0x45, 0xdf, 0xc7, 0xd3, 0x38, 0x19, 0x15, 0x1a, 0x18, 0x1b,
  0xf1, 0x2d, 0x28, 0xab, 0xec, 0x37, 0xc0, 0xc7, 0x08, 0x2f, 0x34, 0x20,
  0xe4, 0x42, 0xeb, 0x1b, 0x43, 0xd1, 0xde, 0x11, 0xd4, 0xdf, 0x13, 0xf2,
  0x32, 0x34, 0x04, 0x01, 0x09, 0xb6, 0x1d, 0xc8, 0xc4, 0x25, 0xe0, 0xd3,
  0xf4, 0xfe, 0xe5, 0x08, 0x1e, 0xdb, 0x0b, 0x1d, 0x04, 0xd6, 0x17, 0xde,
  0xc5, 0x0c, 0x53, 0x1c, 0x2b, 0xa6, 0xb9, 0xb7, 0xca, 0x51, 0x64, 0x81,
  0xf9, 0xd4, 0xf2, 0xb1, 0xdd, 0x01, 0xcd, 0xe7, 0x58, 0x65, 0x0a, 0xd1,
  0x31, 0xf9, 0x9b, 0xe7, 0x06, 0x06, 0x04, 0x57, 0xee, 0x87, 0x15, 0x69,
  0x9a, 0x3f, 0xdb, 0x1c, 0xb9, 0x3b, 0xbb, 0x84, 0xa5, 0xde, 0x37, 0x34,
  0x33, 0x65, 0x21, 0x04, 0x42, 0x6e, 0x76, 0xf6, 0x20, 0x20, 0x58, 0xa0,
  0x68, 0x41, 0x74, 0xc4, 0xd7, 0xc6, 0xce, 0x45, 0x17, 0xd4, 0xce, 0xc3,
  0xaf, 0x41, 0x35, 0x25, 0x0b, 0x34, 0x2a, 0xbd, 0xd4, 0x6f, 0xb6, 0x0d,
  0x01, 0x61, 0x15, 0x46, 0x5c, 0xd5, 0xca, 0x22, 0xd9, 0xf7, 0xe0, 0xec,
  0xd8, 0x37, 0xa2, 0x93, 0x23, 0xc1, 0x0b, 0x56, 0x4f, 0xff, 0x2e, 0x75,
  0xcc, 0x7a, 0x98, 0x7b, 0x2b, 0xa2, 0xa0, 0x74, 0x30, 0xf5, 0x9b, 0x99,
  0x6d, 0xff, 0x5b, 0x0f, 0xc6, 0xf6, 0xc6, 0x7c, 0x62, 0x9d, 0x13, 0xd6,
  0xed, 0xaf, 0xf9, 0x4f, 0xf8, 0x9a, 0x2c, 0x56, 0x0b, 0x77, 0xf6, 0xb3,
  0x58, 0xa9, 0x20, 0xde, 0x9d, 0x41, 0x91, 0x79, 0x13, 0xff, 0x21, 0xbb,
  0x1f, 0x1a, 0x52, 0x03, 0x29, 0x97, 0x04, 0x5d, 0x9b, 0x30, 0xa4, 0xff,
