unsigned char FFT_model_float16_quantized_tflite[] = {
  0x1c, 0x00, 0x00, 0x00, 0x54, 0x46, 0x4c, 0x33, 0x14, 0x00, 0x20, 0x00,
  0x1c, 0x00, 0x18, 0x00, 0x14, 0x00, 0x10, 0x00, 0x0c, 0x00, 0x00, 0x00,
  0x08, 0x00, 0x04, 0x00, 0x14, 0x00, 0x00, 0x00, 0x1c, 0x00, 0x00, 0x00,
  0x94, 0x00, 0x00, 0x00, 0x1c, 0x01, 0x00, 0x00, 0x84, 0x15, 0x00, 0x00,
  0x94, 0x15, 0x00, 0x00, 0x68, 0x1e, 0x00, 0x00, 0x03, 0x00, 0x00, 0x00,
  0x01, 0x00, 0x00, 0x00, 0x10, 0x00, 0x00, 0x00, 0x00, 0x00, 0x0a, 0x00,
  0x10, 0x00, 0x0c, 0x00, 0x08, 0x00, 0x04, 0x00, 0x0a, 0x00, 0x00, 0x00,
  0x0c, 0x00, 0x00, 0x00, 0x1c, 0x00, 0x00, 0x00, 0x38, 0x00, 0x00, 0x00,
  0x0f, 0x00, 0x00, 0x00, 0x73, 0x65, 0x72, 0x76, 0x69, 0x6e, 0x67, 0x5f,
  0x64, 0x65, 0x66, 0x61, 0x75, 0x6c, 0x74, 0x00, 0x01, 0x00, 0x00, 0x00,
  0x04, 0x00, 0x00, 0x00, 0x64, 0xff, 0xff, 0xff, 0x10, 0x00, 0x00, 0x00,
  0x04, 0x00, 0x00, 0x00, 0x07, 0x00, 0x00, 0x00, 0x64, 0x65, 0x6e, 0x73,
  0x65, 0x5f, 0x38, 0x00, 0x01, 0x00, 0x00, 0x00, 0x04, 0x00, 0x00, 0x00,
  0x56, 0xea, 0xff, 0xff, 0x04, 0x00, 0x00, 0x00, 0x0d, 0x00, 0x00, 0x00,
  0x64, 0x65, 0x6e, 0x73, 0x65, 0x5f, 0x36, 0x5f, 0x69, 0x6e, 0x70, 0x75,
  0x74, 0x00, 0x00, 0x00, 0x03, 0x00, 0x00, 0x00, 0x64, 0x00, 0x00, 0x00,
  0x2c, 0x00, 0x00, 0x00, 0x04, 0x00, 0x00, 0x00, 0xb0, 0xff, 0xff, 0xff,
  0x14, 0x00, 0x00, 0x00, 0x04, 0x00, 0x00, 0x00, 0x13, 0x00, 0x00, 0x00,
  0x43, 0x4f, 0x4e, 0x56, 0x45, 0x52, 0x53, 0x49, 0x4f, 0x4e, 0x5f, 0x4d,
  0x45, 0x54, 0x41, 0x44, 0x41, 0x54, 0x41, 0x00, 0xd4, 0xff, 0xff, 0xff,
  0x13, 0x00, 0x00, 0x00, 0x04, 0x00, 0x00, 0x00, 0x19, 0x00, 0x00, 0x00,
  0x72, 0x65, 0x64, 0x75, 0x63, 0x65, 0x64, 0x5f, 0x70, 0x72, 0x65, 0x63,
  0x69, 0x73, 0x69, 0x6f, 0x6e, 0x5f, 0x73, 0x75, 0x70, 0x70, 0x6f, 0x72,
  0x74, 0x00, 0x00, 0x00, 0x08, 0x00, 0x0c, 0x00, 0x08, 0x00, 0x04, 0x00,
  0x08, 0x00, 0x00, 0x00, 0x12, 0x00, 0x00, 0x00, 0x04, 0x00, 0x00, 0x00,
  0x13, 0x00, 0x00, 0x00, 0x6d, 0x69, 0x6e, 0x5f, 0x72, 0x75, 0x6e, 0x74,
  0x69, 0x6d, 0x65, 0x5f, 0x76, 0x65, 0x72, 0x73, 0x69, 0x6f, 0x6e, 0x00,
  0x15, 0x00, 0x00, 0x00, 0x64, 0x14, 0x00, 0x00, 0x5c, 0x14, 0x00, 0x00,
  0x48, 0x14, 0x00, 0x00, 0xb8, 0x13, 0x00, 0x00, 0x68, 0x13, 0x00, 0x00,
  0x18, 0x12, 0x00, 0x00, 0x08, 0x02, 0x00, 0x00, 0xf8, 0x00, 0x00, 0x00,
  0xf0, 0x00, 0x00, 0x00, 0xe8, 0x00, 0x00, 0x00, 0xe0, 0x00, 0x00, 0x00,
  0xd8, 0x00, 0x00, 0x00, 0xd0, 0x00, 0x00, 0x00, 0xc8, 0x00, 0x00, 0x00,
  0xc0, 0x00, 0x00, 0x00, 0xb8, 0x00, 0x00, 0x00, 0xb0, 0x00, 0x00, 0x00,
  0xa8, 0x00, 0x00, 0x00, 0x88, 0x00, 0x00, 0x00, 0x6c, 0x00, 0x00, 0x00,
  0x04, 0x00, 0x00, 0x00, 0x56, 0xeb, 0xff, 0xff, 0x04, 0x00, 0x00, 0x00,
  0x58, 0x00, 0x00, 0x00, 0x0c, 0x00, 0x00, 0x00, 0x08, 0x00, 0x0e, 0x00,
  0x08, 0x00, 0x04, 0x00, 0x08, 0x00, 0x00, 0x00, 0x10, 0x00, 0x00, 0x00,
  0x28, 0x00, 0x00, 0x00, 0x00, 0x00, 0x06, 0x00, 0x08, 0x00, 0x04, 0x00,
  0x06, 0x00, 0x00, 0x00, 0x04, 0x00, 0x00, 0x00, 0x01, 0x00, 0x00, 0x00,
  0xe9, 0x03, 0x00, 0x00, 0x00, 0x00, 0x0a, 0x00, 0x10, 0x00, 0x0c, 0x00,
  0x08, 0x00, 0x04, 0x00, 0x0a, 0x00, 0x00, 0x00, 0x02, 0x00, 0x00, 0x00,
  0x02, 0x00, 0x00, 0x00, 0x04, 0x00, 0x00, 0x00, 0x06, 0x00, 0x00, 0x00,
  0x32, 0x2e, 0x31, 0x33, 0x2e, 0x30, 0x00, 0x00, 0xba, 0xeb, 0xff, 0xff,
  0x04, 0x00, 0x00, 0x00, 0x0b, 0x00, 0x00, 0x00, 0x66, 0x70, 0x31, 0x36,
  0x61, 0x63, 0x63, 0x66, 0x70, 0x33, 0x32, 0x00, 0xd2, 0xeb, 0xff, 0xff,
  0x04, 0x00, 0x00, 0x00, 0x10, 0x00, 0x00, 0x00, 0x31, 0x2e, 0x31, 0x35,
  0x2e, 0x30, 0x00, 0x00, 0x00, 0x00, 0x00, 0x00, 0x00, 0x00, 0x00, 0x00,
  0xd0, 0xe3, 0xff, 0xff, 0xd4, 0xe3, 0xff, 0xff, 0xd8, 0xe3, 0xff, 0xff,
  0xdc, 0xe3, 0xff, 0xff, 0xe0, 0xe3, 0xff, 0xff, 0xe4, 0xe3, 0xff, 0xff,
  0xe8, 0xe3, 0xff, 0xff, 0xec, 0xe3, 0xff, 0xff, 0xf0, 0xe3, 0xff, 0xff,
  0xf4, 0xe3, 0xff, 0xff, 0x16, 0xec, 0xff, 0xff, 0x04, 0x00, 0x00, 0x00,
  0x00, 0x01, 0x00, 0x00, 0xf6, 0xb5, 0x1b, 0xb3, 0xde, 0xad, 0x80, 0xa9,
  0xfb, 0x38, 0x47, 0x36, 0x15, 0xa3, 0x13, 0xad, 0xc1, 0xb7, 0x0d, 0x30,
  0xca, 0x31, 0x09, 0xb0, 0xe9, 0xb0, 0xba, 0xb8, 0x42, 0x31, 0x76, 0x2f,
  0x82, 0x37, 0x4a, 0x2d, 0x38, 0x35, 0xd1, 0x35, 0xdd, 0x33, 0x0d, 0xb5,
  0x84, 0xae, 0xd5, 0x2d, 0x7d, 0x31, 0x39, 0x30, 0xe3, 0x31, 0x2c, 0x37,
  0xfc, 0x33, 0xf5, 0x20, 0x9a, 0x34, 0x3b, 0x2a, 0x00, 0x2a, 0xc5, 0xb4,
  0xaf, 0x31, 0xad, 0x37, 0xb8, 0xaa, 0xe7, 0x33, 0xfe, 0x34, 0x82, 0xaa,
  0xdc, 0x33, 0x26, 0x36, 0xc6, 0x36, 0xed, 0x29, 0x4f, 0xb5, 0xaa, 0xac,
  0xcd, 0xa8, 0x3f, 0x36, 0x01, 0xb5, 0xdd, 0xb3, 0xef, 0x34, 0x03, 0xb0,
  0x13, 0x33, 0x47, 0xb1, 0x77, 0x1e, 0x01, 0x37, 0x28, 0x31, 0xa2, 0xa9,
  0xbd, 0x37, 0x94, 0x37, 0x1e, 0xa4, 0x1b, 0x23, 0x07, 0x38, 0x21, 0x32,
  0x26, 0x34, 0xd5, 0x34, 0x26, 0x34, 0x47, 0x36, 0x70, 0xb4, 0x67, 0xb6,
  0x72, 0xb1, 0x0c, 0x33, 0x71, 0x2e, 0xd0, 0xb4, 0xc2, 0x29, 0x69, 0xb2,
  0x21, 0x33, 0xb2, 0x38, 0x97, 0xb7, 0x31, 0xad, 0xa5, 0xb1, 0x71, 0xb8,
  0x01, 0xb6, 0x43, 0xb0, 0x6c, 0xb1, 0x90, 0x34, 0xa2, 0xa5, 0x6d, 0x34,
  0x64, 0xb4, 0x87, 0xae, 0xac, 0x2b, 0x7b, 0xb8, 0x16, 0x1e, 0x77, 0x36,
  0x71, 0xb1, 0x15, 0xae, 0xb2, 0x30, 0x1f, 0x36, 0x24, 0x1c, 0x35, 0xb5,
  0xf5, 0x30, 0x38, 0xb8, 0xb3, 0xb6, 0xb1, 0x38, 0x2e, 0xac, 0xe3, 0xb6,
  0xc8, 0xb7, 0x80, 0xae, 0xc4, 0x30, 0xa5, 0xb0, 0x93, 0xb2, 0xdd, 0xb7,
  0xe2, 0x35, 0x45, 0x36, 0xde, 0xb4, 0x6a, 0xb0, 0x19, 0x34, 0xd6, 0x33,
  0xc7, 0x34, 0x9c, 0xb0, 0xb0, 0xb1, 0xee, 0x35, 0xad, 0xb4, 0xc9, 0xb5,
  0x16, 0x36, 0xa3, 0x31, 0xef, 0x28, 0xc7, 0x2e, 0x22, 0xed, 0xff, 0xff,
  0x04, 0x00, 0x00, 0x00, 0x00, 0x10, 0x00, 0x00, 0xb9, 0x25, 0xa3, 0x33,
  0x9d, 0xac, 0xdb, 0x33, 0x5a, 0xac, 0xe4, 0x31, 0x30, 0x34, 0x2a, 0x2c,
  0x17, 0xa8, 0x70, 0x34, 0x92, 0xaf, 0x64, 0x2b, 0x15, 0x1b, 0xdd, 0xaf,
  0xea, 0x22, 0x0c, 0x31, 0xfa, 0x34, 0x1f, 0xa3, 0x9d, 0xa8, 0x71, 0x29,
  0x00, 0xa9, 0xd0, 0x32, 0x34, 0x32, 0x07, 0x2d, 0x97, 0x2d, 0x8b, 0xae,
  0x76, 0x2c, 0x0a, 0xa8, 0xa8, 0xb5, 0x48, 0x2c, 0xd6, 0x28, 0x7e, 0x35,
  0x2b, 0x31, 0xc3, 0x2b, 0x37, 0xa2, 0x6c, 0x32, 0x2c, 0xb1, 0xe7, 0x2b,
  0x0b, 0x31, 0xb1, 0xac, 0xce, 0x34, 0xc2, 0x2e, 0x6d, 0x2a, 0xfb, 0xb2,
  0x3a, 0x32, 0x65, 0x29, 0x07, 0x30, 0x05, 0x25, 0xa9, 0x33, 0x5c, 0x33,
  0xbb, 0xb1, 0xa5, 0x31, 0x4b, 0x2a, 0x69, 0x2b, 0x04, 0x31, 0xd7, 0x2f,
  0x93, 0x2b, 0x07, 0xaf, 0x1f, 0xb4, 0xef, 0xae, 0x18, 0xb3, 0xdf, 0x2d,
  0xce, 0x9f, 0x6f, 0x35, 0xaf, 0xb0, 0x6a, 0xaf, 0xcc, 0xb1, 0x1e, 0xb1,
  0xa9, 0x32, 0x3d, 0x2c, 0x22, 0x36, 0x5b, 0x2d, 0x24, 0x36, 0x20, 0xa7,
  0xf5, 0xb1, 0x6d, 0xa0, 0x23, 0x31, 0xf2, 0x30, 0x84, 0xac, 0xee, 0x33,
  0x3d, 0xac, 0xdd, 0xae, 0xaa, 0xaf, 0xed, 0x34, 0x4d, 0xb4, 0xc8, 0x28,
  0x1f, 0xaf, 0x6a, 0xb2, 0xd4, 0xae, 0xe7, 0xae, 0x6b, 0x2e, 0x28, 0x2f,
  0x24, 0xb7, 0x3c, 0xab, 0xfd, 0x26, 0x3b, 0x30, 0xad, 0x32, 0x51, 0x2a,
  0x64, 0x9d, 0xc7, 0x28, 0x47, 0x31, 0x28, 0xae, 0x1f, 0x2f, 0xa4, 0xb0,
  0x91, 0xab, 0x5a, 0x32, 0x46, 0x19, 0xd4, 0x2d, 0x2f, 0x31, 0x26, 0x32,
  0x9e, 0xa3, 0xf1, 0x22, 0xfa, 0x34, 0x54, 0x2d, 0x93, 0xac, 0xd4, 0x32,
  0x3e, 0xb3, 0xd3, 0xad, 0x88, 0xaf, 0xbf, 0x27, 0x17, 0xb3, 0x7b, 0x95,
  0xec, 0xa9, 0x99, 0xaa, 0x4d, 0x25, 0x0f, 0xb1, 0x6a, 0xa5, 0xa1, 0x33,
  0x98, 0xb1, 0x5c, 0x30, 0xc2, 0xad, 0xec, 0xb2, 0xf4, 0xab, 0x35, 0x35,
  0xfb, 0xb5, 0x12, 0x8c, 0xcb, 0xb4, 0x57, 0x25, 0xfe, 0x2b, 0x6e, 0x32,
  0x32, 0xad, 0xb8, 0x33, 0x6c, 0xb1, 0x32, 0xa7, 0x76, 0xb5, 0x1b, 0x2f,
  0x86, 0xb0, 0xb2, 0x33, 0x4e, 0x35, 0xe2, 0x32, 0x24, 0xa9, 0x45, 0xaf,
  0xbf, 0x2d, 0xd1, 0xad, 0x38, 0x28, 0x50, 0xaf, 0xb3, 0x2e, 0xca, 0xb3,
  0x85, 0x2d, 0xa9, 0xb1, 0xca, 0x32, 0xcf, 0x2d, 0x8d, 0x32, 0xf1, 0xaf,
  0x48, 0xb4, 0xd5, 0x2c, 0x1c, 0xb4, 0x4b, 0xaf, 0xd8, 0x1f, 0xb9, 0xb2,
  0x3d, 0x33, 0xbb, 0xa1, 0x63, 0xb3, 0xcb, 0x2d, 0x95, 0x30, 0xdc, 0x31,
  0x11, 0x2f, 0xbd, 0xab, 0xc1, 0xb2, 0xb2, 0x33, 0x2b, 0x2c, 0x06, 0xb1,
  0x3e, 0x32, 0x6d, 0xa5, 0xc6, 0xb1, 0xf1, 0xb3, 0x4f, 0xb0, 0x4d, 0x2c,
  0xb2, 0x36, 0x3e, 0x9a, 0x9c, 0x30, 0x08, 0xad, 0x47, 0x26, 0x83, 0xaf,
  0x48, 0x2b, 0x22, 0x2f, 0x2d, 0x33, 0x9e, 0x1e, 0x1b, 0xb3, 0xc2, 0xad,
  0x09, 0xb2, 0xb5, 0xa8, 0xd6, 0xb0, 0xae, 0x2e, 0x0f, 0x30, 0x1a, 0xb1,
  0x44, 0x30, 0x1a, 0x31, 0xd8, 0xae, 0x96, 0xa9, 0x57, 0x2a, 0x34, 0xb0,
  0xc4, 0xb3, 0x8a, 0x32, 0xe2, 0x2d, 0xa1, 0x32, 0x2c, 0x32, 0x48, 0xaa,
  0x53, 0x33, 0xc1, 0x2e, 0xdf, 0x2b, 0x4c, 0x31, 0x82, 0xaf, 0xa8, 0xa7,
  0xe5, 0xb0, 0xbb, 0x33, 0xaa, 0xb2, 0x64, 0x1a, 0x85, 0x2a, 0x08, 0xb2,
  0xce, 0xa4, 0x6f, 0x32, 0xb5, 0xb1, 0x30, 0x33, 0x18, 0x2f, 0x9e, 0x33,
  0x6b, 0xb3, 0x72, 0x2c, 0x19, 0xa1, 0xf6, 0x32, 0x1d, 0x2c, 0xc5, 0x30,
  0xcc, 0xb0, 0x10, 0xaf, 0xf5, 0xb1, 0xcf, 0x2c, 0x03, 0xb0, 0x52, 0x2e,
  0x32, 0xac, 0xfe, 0xb1, 0xc6, 0xb1, 0x90, 0x31, 0xdf, 0x30, 0x03, 0xb2,
  0xd1, 0x29, 0xa6, 0xb2, 0xe6, 0xb3, 0x23, 0xb1, 0x8e, 0x33, 0xdb, 0x31,
  0x34, 0xab, 0x6c, 0xb4, 0x36, 0xa6, 0xa1, 0xb1, 0x14, 0x32, 0x80, 0x34,
  0x7e, 0x2d, 0xd2, 0x9e, 0x53, 0x2e, 0x2a, 0xa8, 0xaa, 0x23, 0xfc, 0x31,
  0xb9, 0xaa, 0xdc, 0x31, 0x81, 0xad, 0x18, 0x34, 0x12, 0xb0, 0xb1, 0x2c,
  0xce, 0x31, 0x8d, 0xa6, 0xc2, 0x26, 0x9f, 0x30, 0x4b, 0x30, 0x8e, 0xb0,
  0x7a, 0xb6, 0xed, 0x1d, 0x9c, 0x30, 0x63, 0x37, 0x0e, 0x2b, 0x70, 0x32,
  0xa1, 0xaf, 0x31, 0x2f, 0x88, 0x2c, 0xe2, 0x31, 0xd2, 0xae, 0x14, 0xb2,
  0x9f, 0x2c, 0x50, 0x30, 0x60, 0xac, 0x29, 0x2e, 0x0b, 0x30, 0x8c, 0x33,
  0xc4, 0xb3, 0x11, 0x2f, 0x48, 0xb5, 0xbb, 0xb1, 0xc8, 0xb1, 0xf7, 0xb1,
  0x38, 0x31, 0x7f, 0xae, 0x09, 0xa2, 0xce, 0xa9, 0xc0, 0xa2, 0xb9, 0xad,
  0x72, 0x30, 0x3a, 0x30, 0x5a, 0x32, 0xc7, 0xb3, 0xb8, 0x32, 0xcd, 0xb3,
  0x8a, 0xb3, 0xef, 0x26, 0x03, 0x2a, 0x2e, 0x30, 0x6d, 0x31, 0xc4, 0x29,
  0xfc, 0xb0, 0x58, 0xa6, 0x65, 0x32, 0xb0, 0xb1, 0xd8, 0xb3, 0xc8, 0x32,
  0x4c, 0xa9, 0xce, 0xb2, 0x3a, 0x30, 0x0b, 0xb1, 0x48, 0xa3, 0x55, 0x33,
  0xc4, 0x2a, 0x5e, 0x9e, 0x0e, 0xac, 0xe7, 0x32, 0xde, 0xb2, 0x03, 0xac,
  0x37, 0xb2, 0x5c, 0xa8, 0xab, 0xb2, 0xf4, 0xad, 0xf5, 0xb3, 0xde, 0x30,
  0xcc, 0x21, 0x20, 0xad, 0xf2, 0x2d, 0x2c, 0x2d, 0xc5, 0xa5, 0xf9, 0x9f,
  0xdc, 0xb3, 0x9c, 0xa5, 0x2e, 0x2d, 0x92, 0x30, 0x14, 0x2c, 0xaf, 0x30,
  0x88, 0xb1, 0xd2, 0x30, 0xd8, 0xb3, 0x36, 0xb3, 0xe0, 0xae, 0x05, 0xa8,
  0xf1, 0x28, 0xae, 0x30, 0xf3, 0x2b, 0x4f, 0xa9, 0xea, 0xb1, 0x91, 0xa7,
  0xcc, 0xad, 0x69, 0xad, 0x09, 0x30, 0xcf, 0x30, 0x15, 0xb1, 0xd0, 0x2e,
  0x82, 0xb1, 0xd1, 0x29, 0xb1, 0x2b, 0xb7, 0x29, 0xfd, 0x33, 0x99, 0x33,
  0x2c, 0xa7, 0xf4, 0x32, 0x36, 0xb3, 0xfa, 0x26, 0x0b, 0xad, 0xc4, 0x33,
  0x77, 0xb2, 0x28, 0x2a, 0x2b, 0x32, 0xd6, 0xb2, 0xbb, 0xb2, 0x0f, 0xb0,
  0x03, 0x23, 0x6d, 0x31, 0x6d, 0xaf, 0xde, 0xb0, 0x23, 0x2f, 0xc9, 0x31,
  0x34, 0x31, 0x7a, 0xa7, 0x4c, 0xac, 0x3d, 0xae, 0x99, 0xa9, 0x43, 0x2d,
  0xc0, 0xa8, 0x12, 0x31, 0xd7, 0x32, 0x9b, 0xb0, 0x72, 0xb2, 0x3f, 0xac,
  0x0c, 0xb3, 0x7b, 0x30, 0xbc, 0xb1, 0xba, 0xa8, 0x07, 0x26, 0xcb, 0xb0,
  0x12, 0x35, 0x4a, 0xb3, 0xd1, 0x2e, 0x83, 0x35, 0xa5, 0xae, 0x94, 0xb2,
  0x5a, 0xb1, 0x2c, 0xaa, 0x76, 0x33, 0xd3, 0x33, 0xb2, 0x33, 0x90, 0x9b,
  0x2e, 0x30, 0x79, 0x2d, 0x11, 0xb5, 0x79, 0xb0, 0x3a, 0x33, 0xff, 0x2c,
  0xdd, 0x2c, 0x1e, 0xa6, 0x75, 0x28, 0x39, 0x25, 0xb7, 0xac, 0x17, 0xa4,
  0x73, 0xa9, 0x27, 0x38, 0x52, 0x2a, 0xc0, 0xa2, 0x4a, 0xb1, 0x31, 0x2e,
  0x70, 0xb1, 0x93, 0x38, 0x96, 0xb3, 0xaf, 0x2d, 0x97, 0xb4, 0xce, 0xb4,
  0x9b, 0xb2, 0x29, 0x2d, 0x1b, 0xb0, 0x03, 0x22, 0x8b, 0x33, 0x23, 0xaa,
  0x52, 0xb3, 0x50, 0xad, 0x52, 0xad, 0x92, 0x2f, 0x8d, 0x37, 0xa0, 0x2e,
  0xef, 0xb3, 0x1c, 0x33, 0xf6, 0x2a, 0x61, 0x2e, 0xd3, 0x2c, 0x9f, 0x32,
  0x3e, 0x33, 0x00, 0xab, 0x86, 0x35, 0xfe, 0xb6, 0xdd, 0xb3, 0x22, 0xad,
  0xca, 0x33, 0xc0, 0xb2, 0x98, 0xb0, 0x27, 0xac, 0x35, 0x30, 0x32, 0x33,
  0xcc, 0xb1, 0x92, 0xa7, 0xd1, 0x31, 0xca, 0xb3, 0x63, 0xaf, 0x4f, 0x2c,
  0x10, 0xb1, 0x70, 0xa9, 0xb2, 0x2f, 0x46, 0xb0, 0xed, 0x22, 0x12, 0x2f,
  0x1f, 0xb2, 0xab, 0xad, 0xa4, 0xad, 0x59, 0xb2, 0xae, 0xa7, 0xb2, 0xaa,
  0x2f, 0xb3, 0x3a, 0xb0, 0x08, 0xb1, 0xc9, 0x29, 0x89, 0xb2, 0x7f, 0x32,
  0x95, 0x32, 0xe8, 0x24, 0x26, 0x2b, 0x0c, 0x32, 0x8f, 0xb2, 0x8f, 0x36,
  0x13, 0xb5, 0x83, 0x28, 0x75, 0x30, 0xf3, 0xb5, 0xdb, 0xa6, 0xbf, 0xad,
  0xf5, 0xb2, 0x19, 0x2d, 0x84, 0xab, 0x01, 0x31, 0xe5, 0xb0, 0x21, 0xad,
  0x8a, 0x22, 0xbe, 0xab, 0xdf, 0x2f, 0x25, 0xb0, 0xd6, 0xb0, 0xbb, 0x31,
  0xc0, 0xb0, 0x81, 0xae, 0x2b, 0x33, 0x8c, 0x33, 0x31, 0x2f, 0x07, 0x32,
  0xda, 0xa6, 0x6d, 0xb2, 0x1f, 0x2c, 0xb2, 0xac, 0x10, 0x1b, 0xe4, 0xaa,
  0x69, 0x2f, 0x60, 0x32, 0xc1, 0xb4, 0x0f, 0xa6, 0xa0, 0xa9, 0xd1, 0xb6,
  0xe1, 0x30, 0xf0, 0x30, 0xbb, 0xb0, 0xb5, 0x2e, 0xf1, 0xb2, 0x86, 0xb2,
  0x10, 0xb6, 0xfa, 0x32, 0x9a, 0x31, 0xd4, 0x33, 0x12, 0x36, 0xb7, 0x33,
  0x4e, 0xb0, 0xfd, 0x31, 0x38, 0xb0, 0xce, 0xb0, 0x30, 0x30, 0x0b, 0x23,
  0x49, 0x31, 0xca, 0x31, 0x83, 0xab, 0x74, 0xaa, 0x7b, 0x2f, 0x78, 0x2d,
  0x16, 0x33, 0xc6, 0x24, 0x9d, 0x2f, 0xcf, 0x35, 0x68, 0xb3, 0x99, 0xa0,
  0x4e, 0x2a, 0x0a, 0x9f, 0xb7, 0xb3, 0x64, 0xad, 0x5a, 0xb2, 0x2f, 0x34,
  0xa4, 0x31, 0xb3, 0x33, 0x93, 0xae, 0x37, 0x26, 0x6e, 0xb0, 0x11, 0x2f,
  0x3a, 0x35, 0x63, 0xa5, 0xa6, 0x33, 0xa8, 0x34, 0xdc, 0x33, 0xa7, 0xa4,
  0xdb, 0xac, 0xe0, 0x21, 0x4f, 0x37, 0x2a, 0xb1, 0x11, 0xb1, 0xa0, 0xb2,
  0xd8, 0x28, 0xba, 0xb1, 0xeb, 0x32, 0xa2, 0x2f, 0x2d, 0xb1, 0xfb, 0x34,
  0xe8, 0xb6, 0x53, 0xb3, 0x0f, 0x2c, 0xe9, 0xb6, 0x44, 0xb0, 0x31, 0x31,
  0x78, 0xab, 0x17, 0x2f, 0x35, 0xb1, 0xc6, 0x23, 0x21, 0xb5, 0x9e, 0xb3,
  0xa1, 0x31, 0x8c, 0x22, 0xa7, 0x36, 0xde, 0xae, 0x5f, 0x2a, 0x63, 0x32,
  0x36, 0xaf, 0xe4, 0xb0, 0xbe, 0x35, 0xd5, 0xb2, 0x64, 0x35, 0x3b, 0x32,
  0xb6, 0x28, 0x55, 0xb5, 0x69, 0x32, 0xe9, 0xa1, 0x88, 0xad, 0x8f, 0x32,
  0x89, 0x2d, 0x00, 0x9c, 0xfd, 0xb3, 0x4d, 0x31, 0x6e, 0xa9, 0xfc, 0xb0,
  0x8c, 0xb1, 0x74, 0x2b, 0xca, 0xb1, 0x8b, 0x11, 0x97, 0x2f, 0x81, 0xad,
  0x8e, 0x32, 0x99, 0x31, 0x11, 0xa8, 0x6f, 0x28, 0x01, 0xb0, 0xd7, 0xac,
  0x60, 0x31, 0x79, 0xac, 0x2c, 0x2c, 0xbb, 0x0e, 0x75, 0xa8, 0x98, 0xb3,
  0x24, 0x32, 0xd5, 0x2f, 0xf3, 0xb1, 0x31, 0x30, 0xd8, 0x2d, 0x5f, 0x31,
  0x14, 0xb3, 0x90, 0xa9, 0x21, 0xb1, 0xf5, 0x2e, 0x1c, 0x33, 0xef, 0xb1,
  0xb9, 0x34, 0x76, 0x34, 0xde, 0x31, 0x16, 0xb1, 0x8e, 0x30, 0x89, 0x2c,
  0x68, 0x30, 0x77, 0x28, 0xeb, 0x34, 0xac, 0x30, 0x6f, 0xb3, 0x78, 0x2b,
  0xa4, 0x30, 0xba, 0xad, 0x67, 0xb3, 0x93, 0x29, 0x0e, 0xb0, 0x37, 0x23,
  0x0c, 0xb1, 0x7a, 0x2d, 0xba, 0xb5, 0x9b, 0x2f, 0x1e, 0xb1, 0x23, 0x96,
  0x57, 0x2b, 0x02, 0xab, 0xf4, 0x2f, 0x48, 0x2a, 0xff, 0xb1, 0xf8, 0xa8,
  0x01, 0xa9, 0x1f, 0x33, 0x23, 0x1c, 0xa2, 0xb1, 0xa1, 0xa9, 0x35, 0x27,
  0x35, 0xb0, 0xa5, 0xb3, 0x6d, 0x30, 0xb4, 0x9b, 0x85, 0x27, 0xf0, 0x32,
  0x9c, 0xaf, 0x23, 0xb1, 0xe1, 0xad, 0x73, 0xb3, 0x5a, 0xb0, 0xbb, 0x31,
  0xca, 0xb1, 0x45, 0x24, 0x66, 0xaf, 0x19, 0x26, 0x8a, 0xb3, 0xe4, 0x30,
  0x9f, 0xb0, 0x56, 0x31, 0x18, 0x28, 0x39, 0xae, 0x8b, 0xaf, 0xdf, 0x33,
  0x44, 0x29, 0x54, 0xaf, 0xe7, 0xb0, 0x96, 0x32, 0xd8, 0xaa, 0x53, 0xb0,
  0x6c, 0xa8, 0xfd, 0xb2, 0x45, 0x21, 0x06, 0x9f, 0x79, 0xa7, 0xbf, 0x9e,
  0xf0, 0xaf, 0x25, 0x2f, 0x5e, 0x30, 0x4a, 0xb2, 0xee, 0x2c, 0x04, 0xae,
  0x94, 0x2d, 0xf7, 0x31, 0xb4, 0x33, 0x07, 0x29, 0x63, 0x22, 0x67, 0x31,
  0x3d, 0xac, 0x0d, 0x33, 0xe3, 0x31, 0x00, 0xa2, 0x12, 0xaf, 0xdd, 0xaf,
  0xba, 0x31, 0x3b, 0x32, 0x31, 0x31, 0x84, 0xaa, 0x52, 0xad, 0x85, 0xb0,
  0x5a, 0x30, 0x1c, 0x2a, 0x8f, 0x30, 0xd2, 0x2e, 0x35, 0x30, 0x00, 0x34,
  0x61, 0xa8, 0x25, 0xaa, 0xff, 0xb0, 0x58, 0x30, 0xe1, 0x2e, 0x46, 0x2a,
  0x35, 0x2f, 0x62, 0x2d, 0x9d, 0xae, 0x8e, 0x30, 0x61, 0x33, 0x9a, 0xb0,
  0x31, 0xa9, 0xbb, 0x2f, 0x7a, 0x2d, 0xa0, 0xb2, 0x93, 0x2d, 0xac, 0xb2,
  0xe8, 0x31, 0x9d, 0xb1, 0x59, 0x98, 0xd5, 0xa7, 0x54, 0x30, 0xb1, 0xb1,
  0x9f, 0xb0, 0x45, 0xae, 0xda, 0xad, 0xb4, 0x29, 0x6d, 0x03, 0x3f, 0xab,
  0x2d, 0xaf, 0x35, 0xa8, 0x60, 0xb1, 0x61, 0xb1, 0x47, 0x2a, 0xc2, 0x2b,
  0x79, 0xb1, 0xb9, 0x2a, 0xe4, 0xaf, 0x50, 0x2f, 0xec, 0x31, 0x4d, 0xaf,
  0x7f, 0xa9, 0xb6, 0xaa, 0x42, 0xb1, 0x81, 0xae, 0x61, 0x8c, 0x53, 0xb2,
  0x6d, 0x25, 0x60, 0x2a, 0x5e, 0xae, 0x85, 0x31, 0x16, 0x2c, 0x47, 0x2a,
  0xb3, 0x32, 0xb4, 0xa0, 0x58, 0x26, 0x8f, 0x2e, 0x63, 0xa5, 0xd3, 0xa0,
  0xbc, 0xaa, 0x0d, 0x29, 0x08, 0xaf, 0xba, 0xb1, 0xa9, 0xb2, 0x0d, 0x33,
  0xce, 0xaa, 0x17, 0x2f, 0x8d, 0xb2, 0x3b, 0x2c, 0x03, 0xb3, 0x94, 0xb1,
  0x73, 0xab, 0xd8, 0xad, 0x9b, 0xae, 0xe2, 0x2d, 0xaa, 0x32, 0x08, 0xae,
  0xfa, 0xa9, 0x7f, 0x28, 0x43, 0x27, 0x10, 0x30, 0x6b, 0xb0, 0x2d, 0x32,
  0x05, 0xac, 0xa7, 0x33, 0x70, 0xb3, 0xf8, 0x34, 0x29, 0x29, 0x79, 0x30,
  0x8f, 0xa8, 0xe9, 0xb5, 0x99, 0x2d, 0x81, 0x30, 0xe1, 0x2f, 0x44, 0xa4,
  0xdc, 0x30, 0x4b, 0xad, 0x7a, 0x2e, 0x48, 0x33, 0xcf, 0xb0, 0x4f, 0x2f,
  0x1a, 0x36, 0xdb, 0x31, 0x72, 0xb1, 0x7d, 0xa8, 0xa6, 0xa7, 0x96, 0x23,
  0x98, 0xac, 0xb6, 0xb3, 0x1e, 0x38, 0x3a, 0x32, 0x9f, 0xa1, 0xa9, 0xb6,
  0xf1, 0x32, 0x34, 0xb1, 0xcf, 0xb1, 0x48, 0xaa, 0x0b, 0x33, 0x05, 0xb3,
  0xe9, 0xa8, 0x81, 0xa4, 0x20, 0xaf, 0x80, 0xa0, 0xd9, 0xa7, 0x9d, 0xaf,
  0x37, 0xa5, 0x52, 0xb2, 0xdb, 0x2a, 0x01, 0x31, 0x2a, 0xa5, 0x36, 0x32,
  0xac, 0x2a, 0xc3, 0xb2, 0x1f, 0x32, 0xd9, 0xb0, 0xd4, 0x31, 0xe4, 0xb0,
  0x0e, 0x13, 0x31, 0x32, 0xef, 0xb2, 0x95, 0x2e, 0x19, 0x2d, 0x54, 0x21,
  0x49, 0xb3, 0xfe, 0xb0, 0xb7, 0xa5, 0x20, 0x2b, 0xc3, 0xb1, 0x49, 0xa8,
  0xed, 0x2e, 0xe3, 0x2d, 0x2b, 0x2a, 0x8b, 0xb0, 0x35, 0x35, 0x48, 0x34,
  0x72, 0xae, 0x85, 0x31, 0x0e, 0xb2, 0x8e, 0xaf, 0xeb, 0x30, 0x4c, 0xb0,
  0x0f, 0x32, 0x57, 0xa5, 0x96, 0xb0, 0xe9, 0x31, 0x01, 0xb3, 0x2f, 0xb1,
  0x2c, 0xb0, 0x2f, 0xaf, 0x47, 0xb1, 0x51, 0x2d, 0x9d, 0xa1, 0x63, 0x2a,
  0xa3, 0xb1, 0x89, 0xb2, 0xb7, 0x22, 0x6d, 0x37, 0x80, 0xaf, 0x94, 0xa2,
  0xe0, 0x30, 0x66, 0x2c, 0xdd, 0x30, 0xec, 0x31, 0x53, 0xb6, 0x70, 0xb0,
  0x62, 0x25, 0x22, 0xb5, 0x26, 0xb3, 0xcd, 0x2f, 0x36, 0xae, 0x88, 0x35,
  0x9b, 0xa6, 0xc5, 0x2a, 0x85, 0xb0, 0xf5, 0x30, 0xc0, 0x31, 0x15, 0xb2,
  0xff, 0x36, 0x52, 0x2c, 0x9a, 0x1f, 0xb2, 0x2c, 0x57, 0xaf, 0xbd, 0xb2,
  0x63, 0x36, 0x34, 0x33, 0xe5, 0x38, 0x90, 0xaa, 0x44, 0xa3, 0xf8, 0xb2,
  0x97, 0x30, 0x3b, 0x32, 0xd1, 0xb1, 0xd5, 0x2e, 0xb6, 0xb1, 0xae, 0xb3,
  0xe6, 0x31, 0x03, 0x30, 0x06, 0xb1, 0x6a, 0x33, 0xd1, 0xaf, 0x71, 0x30,
  0xbc, 0xaf, 0x42, 0xaa, 0x18, 0xa8, 0xf1, 0xb0, 0x72, 0xb3, 0xd3, 0x30,
  0x89, 0xaa, 0xc6, 0xb3, 0x3e, 0xb3, 0x89, 0xb2, 0x25, 0x30, 0x1e, 0x30,
  0x19, 0xab, 0xe0, 0x32, 0x75, 0xb1, 0x7d, 0x31, 0x50, 0xb0, 0x7f, 0xac,
  0x29, 0xb0, 0xc9, 0x25, 0x5e, 0x33, 0xb5, 0x98, 0x1f, 0xb0, 0x20, 0xb3,
  0x56, 0xb1, 0xf8, 0xb0, 0x78, 0x29, 0xee, 0x32, 0x6c, 0x32, 0x50, 0x27,
  0x98, 0x2f, 0xec, 0x25, 0xf4, 0xa9, 0x8a, 0x30, 0x79, 0xaf, 0x11, 0xb0,
  0x5c, 0x34, 0x1a, 0x9c, 0x3d, 0xa8, 0x22, 0x33, 0xdb, 0x1f, 0xcd, 0xb2,
  0x4a, 0xaf, 0xca, 0xb1, 0x24, 0x26, 0xce, 0xb2, 0x21, 0x30, 0xb2, 0x32,
  0xbc, 0x28, 0xe0, 0xb2, 0x54, 0x31, 0x82, 0x34, 0x0c, 0xb2, 0xf6, 0x2d,
  0x45, 0xae, 0xff, 0x2a, 0xa3, 0x32, 0x21, 0xb3, 0x20, 0x35, 0x81, 0xb2,
  0x5f, 0x2d, 0xa1, 0x32, 0x38, 0xb0, 0x31, 0x28, 0x38, 0xaf, 0x02, 0x31,
  0xdc, 0xb2, 0xbb, 0x22, 0x41, 0x32, 0xd7, 0xa5, 0x27, 0xb0, 0xf8, 0x98,
  0x52, 0xb1, 0xf7, 0x24, 0x9d, 0x29, 0x56, 0x2f, 0x47, 0x24, 0x63, 0xae,
  0x35, 0xae, 0x67, 0x1b, 0x90, 0xad, 0x7b, 0xac, 0xa7, 0x32, 0xe0, 0x2f,
  0xd2, 0xa4, 0x21, 0xb2, 0x62, 0x32, 0x92, 0x33, 0xea, 0x1e, 0xc4, 0xb0,
  0x09, 0xb3, 0x86, 0x33, 0x9f, 0x31, 0x83, 0xb3, 0x43, 0x2c, 0x90, 0x2e,
  0x81, 0x2f, 0x08, 0xb1, 0x9b, 0x24, 0xab, 0xb2, 0x54, 0x33, 0xa4, 0x30,
  0xdc, 0x2c, 0x0c, 0xb3, 0x9e, 0xb3, 0xa5, 0xb0, 0x22, 0x27, 0x64, 0xad,
  0x00, 0xa7, 0x24, 0xb1, 0x23, 0x2b, 0xfa, 0x2c, 0xf2, 0x22, 0xbf, 0x33,
  0xef, 0xad, 0xaf, 0xb3, 0xae, 0x2e, 0x1e, 0xb0, 0x93, 0x2e, 0x3f, 0xa9,
  0xa3, 0xaf, 0xb2, 0x28, 0xc9, 0xb4, 0x68, 0x31, 0x59, 0xa8, 0x50, 0xb3,
  0x2f, 0xb2, 0xed, 0x23, 0xcb, 0xa0, 0xf7, 0xa9, 0x93, 0xa6, 0x58, 0x32,
  0x21, 0xa6, 0xbb, 0x26, 0xee, 0xb1, 0x27, 0x29, 0xfd, 0x33, 0x6c, 0xad,
  0x01, 0xb0, 0x8d, 0x33, 0x5d, 0xa4, 0x6e, 0x23, 0xd6, 0x2e, 0x78, 0xac,
  0x2c, 0x37, 0x2d, 0xaa, 0x3a, 0x2c, 0xe7, 0xb1, 0x1d, 0xaf, 0x06, 0xae,
  0x46, 0x90, 0xd0, 0x2c, 0x1f, 0x34, 0x7c, 0xae, 0xae, 0xac, 0x7e, 0xac,
  0x4f, 0x31, 0xcb, 0x33, 0x62, 0xae, 0x92, 0xb2, 0x1d, 0x31, 0xc9, 0x26,
  0xcc, 0x2a, 0x3b, 0x33, 0xbf, 0x34, 0x3c, 0xb2, 0x4e, 0x2f, 0xce, 0x2e,
  0xda, 0x27, 0x1b, 0x2c, 0x36, 0xb0, 0x08, 0x31, 0x93, 0x32, 0x98, 0x2c,
  0x3c, 0xb2, 0x20, 0xb1, 0x49, 0x26, 0x87, 0xb1, 0x1d, 0x27, 0xe8, 0xa7,
  0x9e, 0x30, 0x09, 0x32, 0xeb, 0x2e, 0x47, 0xae, 0x23, 0xab, 0x3f, 0x33,
  0xc1, 0xb0, 0x03, 0x32, 0x35, 0xb4, 0x6f, 0xb4, 0xf5, 0x2a, 0x43, 0x32,
  0xae, 0x30, 0x39, 0x34, 0x2c, 0xb1, 0x09, 0xae, 0xea, 0xa5, 0x26, 0x33,
  0x63, 0xa8, 0xa0, 0x2e, 0xc7, 0x31, 0x78, 0x26, 0x0a, 0x15, 0x30, 0x30,
  0x64, 0x33, 0x37, 0x2c, 0x9d, 0x2b, 0xcf, 0x33, 0x75, 0x31, 0xee, 0xb2,
  0x1f, 0x32, 0xef, 0xab, 0x8b, 0x30, 0x4b, 0x32, 0x01, 0xa7, 0x77, 0x1e,
  0x37, 0xb2, 0x5c, 0x9d, 0xdd, 0xb2, 0xa3, 0xa7, 0x2f, 0xb0, 0x40, 0xb5,
  0xf4, 0x28, 0xbb, 0xa6, 0xb4, 0x33, 0xa1, 0x34, 0x99, 0xa9, 0x4c, 0xaf,
  0x3a, 0xae, 0xa6, 0xb3, 0xb2, 0xa6, 0x1a, 0x2f, 0x9b, 0x34, 0x69, 0xb3,
  0x32, 0xb0, 0xc8, 0xab, 0x19, 0xb2, 0xb4, 0xa9, 0x4d, 0x32, 0x7a, 0x19,
  0x2b, 0x35, 0xba, 0xb0, 0xd4, 0x33, 0x55, 0xa9, 0xe6, 0xb1, 0x46, 0x33,
  0xe6, 0x31, 0xca, 0xb0, 0xb8, 0x32, 0x3c, 0xb4, 0x46, 0x2f, 0x03, 0x28,
  0x1c, 0x2f, 0xd6, 0x33, 0x50, 0x2f, 0xce, 0xae, 0xb4, 0xb2, 0x39, 0xaf,
  0x72, 0xb2, 0x2a, 0x25, 0xd6, 0x37, 0x00, 0xb4, 0x65, 0x2c, 0xcf, 0x35,
  0xef, 0x1e, 0x81, 0x2f, 0x95, 0x31, 0xb0, 0x29, 0x46, 0x9d, 0x13, 0xb2,
  0x05, 0xaf, 0x73, 0x30, 0xf0, 0xb8, 0x01, 0x32, 0x32, 0x31, 0x0b, 0x38,
  0x67, 0xad, 0xda, 0xb3, 0x06, 0x0f, 0xdc, 0xb0, 0x22, 0x31, 0x94, 0x2b,
  0x68, 0xab, 0xc9, 0xb1, 0xed, 0xaf, 0x3c, 0x2d, 0xbf, 0xb3, 0x72, 0xa6,
  0xce, 0x33, 0x62, 0x33, 0x3e, 0x33, 0xb9, 0xb3, 0x3d, 0x31, 0x3b, 0xab,
  0x60, 0x31, 0x5e, 0xae, 0xc0, 0x34, 0x4e, 0xb0, 0x47, 0x30, 0x0e, 0x2c,
  0xf4, 0x33, 0x21, 0xac, 0x2f, 0x29, 0x67, 0x31, 0xac, 0xa8, 0x79, 0x33,
  0x79, 0x34, 0x5f, 0xa4, 0x1d, 0xb3, 0x53, 0x29, 0xea, 0x32, 0xba, 0x31,
  0x1b, 0xb3, 0xa2, 0x31, 0x92, 0xb4, 0x1a, 0x32, 0x49, 0xac, 0xab, 0xb3,
  0xc5, 0x33, 0x2e, 0x2e, 0x12, 0x31, 0x59, 0xaa, 0xb6, 0x27, 0x4c, 0x2e,
  0xeb, 0xb0, 0x19, 0xa7, 0x83, 0x32, 0x1e, 0x34, 0x95, 0x34, 0xee, 0x2a,
  0xdd, 0x2f, 0xce, 0x32, 0xfc, 0xb1, 0xbb, 0xb2, 0x5e, 0xb0, 0x42, 0xad,
  0x86, 0x37, 0xaf, 0xb2, 0x7e, 0x30, 0x4b, 0xb5, 0x2c, 0xb1, 0xec, 0x2f,
  0xc5, 0xad, 0xda, 0x32, 0x0d, 0xa9, 0xcd, 0x32, 0x87, 0xb1, 0x19, 0x32,
  0x19, 0xb4, 0x9b, 0xb1, 0x65, 0x30, 0x31, 0x2f, 0x5f, 0x33, 0xae, 0x2e,
  0x79, 0xb3, 0x73, 0x32, 0x17, 0xb4, 0xda, 0xab, 0xb8, 0x31, 0xa2, 0x30,
  0xeb, 0x21, 0xf0, 0x2b, 0xbe, 0x32, 0x41, 0x2b, 0x27, 0xb1, 0xbb, 0xb1,
  0xc0, 0x32, 0x78, 0x30, 0xe7, 0x36, 0x1a, 0x32, 0x8b, 0x34, 0x0f, 0xae,
  0x37, 0x26, 0x33, 0xb1, 0xa8, 0xaf, 0x5f, 0x30, 0x0c, 0xb4, 0x1b, 0xac,
  0x3e, 0xb4, 0xdf, 0xb1, 0xdf, 0x30, 0x12, 0x30, 0x82, 0xb2, 0x58, 0xb2,
  0xb9, 0x32, 0xd8, 0x2d, 0x24, 0x1b, 0xd5, 0x30, 0x89, 0xaf, 0x89, 0x26,
  0xd1, 0xb0, 0xff, 0xa2, 0x2c, 0xb4, 0xce, 0xb2, 0x20, 0xb0, 0xdc, 0xb0,
  0xbf, 0x2c, 0x4a, 0x2f, 0x39, 0xae, 0xc7, 0x2e, 0x62, 0x33, 0xc4, 0xac,
  0x50, 0x25, 0xe2, 0xb2, 0x1b, 0xa9, 0xae, 0xb0, 0x3a, 0xb0, 0x7b, 0x31,
  0x07, 0xb0, 0x63, 0xb3, 0x5b, 0x35, 0x06, 0xaa, 0x52, 0xae, 0xa6, 0x34,
  0x10, 0xb1, 0x4a, 0xaf, 0x93, 0x33, 0x22, 0x34, 0x27, 0xb3, 0xc3, 0x2f,
  0x95, 0x27, 0xc2, 0xb0, 0xd1, 0xb3, 0x9d, 0x32, 0xa5, 0xb1, 0x1f, 0x2b,
  0x6a, 0xaf, 0x8e, 0xb1, 0x8d, 0x2f, 0xc6, 0x33, 0xf5, 0x32, 0xea, 0xa2,
  0x1b, 0xb8, 0xae, 0xae, 0x41, 0x34, 0x44, 0x2a, 0xb0, 0x33, 0x41, 0x9e,
  0x7c, 0x2c, 0x35, 0x2d, 0xa1, 0x26, 0x8b, 0xae, 0x08, 0x25, 0xbb, 0xb2,
  0x67, 0xb0, 0x87, 0xb3, 0xb7, 0x2f, 0x3d, 0xac, 0x1c, 0x2c, 0x8d, 0xb1,
  0x64, 0x32, 0xdb, 0xb3, 0x1b, 0xb3, 0xe2, 0xad, 0xca, 0x32, 0x6e, 0xb3,
  0x46, 0xb1, 0x8d, 0x31, 0x5e, 0x30, 0x92, 0x33, 0x6c, 0xb1, 0xe5, 0x30,
  0x6d, 0x30, 0xdb, 0x2f, 0xc4, 0xb1, 0x85, 0xaf, 0xa7, 0x31, 0xa8, 0xb0,
  0x84, 0x2d, 0x55, 0xb1, 0xb9, 0x2a, 0x4f, 0xa6, 0xee, 0x33, 0xd9, 0xae,
  0x6f, 0x27, 0xdc, 0xb1, 0x46, 0xb0, 0x5c, 0xa8, 0xf7, 0xb3, 0x9e, 0xb3,
  0xd3, 0xaa, 0x5a, 0xb0, 0xfc, 0xa9, 0x91, 0xb3, 0x49, 0xb0, 0xe5, 0xb2,
  0x76, 0x33, 0xa6, 0x2d, 0xaa, 0xa3, 0xcf, 0x32, 0xdf, 0xa3, 0xda, 0x32,
  0x66, 0xb3, 0x5b, 0xad, 0xd0, 0xb1, 0x22, 0xb0, 0x47, 0xb2, 0x2b, 0x2e,
  0x6e, 0xad, 0xb9, 0x26, 0x38, 0x30, 0xa2, 0xb1, 0x1d, 0xa7, 0x21, 0xa0,
  0x3a, 0xa5, 0x8c, 0x33, 0xa1, 0xb5, 0xb6, 0xb2, 0x11, 0xb5, 0x8a, 0x20,
  0x83, 0x2e, 0xc9, 0x33, 0x59, 0x2e, 0x15, 0xa8, 0x10, 0xa4, 0x49, 0xb1,
  0xb2, 0x2b, 0x6f, 0xb3, 0xd9, 0xb1, 0x80, 0x1f, 0x9e, 0x34, 0x4a, 0x1e,
  0x4f, 0xb0, 0x32, 0x31, 0x72, 0xb1, 0xe5, 0x32, 0xd2, 0x2c, 0xfd, 0xb0,
  0xc1, 0x31, 0xc7, 0xae, 0x78, 0x34, 0xf3, 0x28, 0x9c, 0x24, 0x19, 0x33,
  0x40, 0xb2, 0xd7, 0xa9, 0xf6, 0xb1, 0x04, 0xac, 0xb3, 0x30, 0x73, 0xb1,
  0x7c, 0x32, 0xc7, 0x31, 0x5a, 0xaa, 0xe9, 0x2e, 0x72, 0xb1, 0x58, 0xa8,
  0x0f, 0x2c, 0x2e, 0x28, 0x90, 0x34, 0x13, 0xb1, 0xbb, 0x2a, 0xea, 0x32,
  0x3c, 0xb2, 0x44, 0xa4, 0x04, 0xb2, 0xc7, 0x30, 0x76, 0x33, 0x1e, 0xae,
  0xda, 0xb0, 0xc4, 0x28, 0xb2, 0xb3, 0x4b, 0xb1, 0xa4, 0x2f, 0x1f, 0x34,
  0xf5, 0xaf, 0xd7, 0xa4, 0x28, 0x32, 0xa0, 0x2f, 0x4b, 0xad, 0x53, 0xb4,
  0xd3, 0x32, 0xe2, 0x2d, 0x19, 0x27, 0x1e, 0x30, 0xc2, 0x20, 0xd3, 0x33,
  0xb2, 0x2e, 0xf7, 0x33, 0x32, 0x2e, 0x87, 0xab, 0x35, 0x35, 0x10, 0xae,
  0x0b, 0x2d, 0x4f, 0x31, 0xc3, 0xb2, 0xf1, 0x29, 0x35, 0x33, 0x98, 0x30,
  0x26, 0x22, 0xe6, 0xb2, 0x49, 0x30, 0x83, 0x22, 0x49, 0xb4, 0x1d, 0x30,
  0x15, 0xb0, 0x54, 0x32, 0x2c, 0xb2, 0xeb, 0x33, 0xbc, 0x32, 0x41, 0x1d,
  0x66, 0x1b, 0x69, 0x30, 0x0d, 0xa6, 0x64, 0xb0, 0x85, 0xb1, 0x01, 0xb2,
  0x33, 0xb3, 0xe6, 0x32, 0x23, 0xb3, 0x98, 0x2e, 0x03, 0xae, 0x07, 0xb0,
  0x40, 0xb2, 0x17, 0x1e, 0x2d, 0x1e, 0x05, 0xb2, 0xa8, 0x35, 0x2c, 0x25,
  0xff, 0xa9, 0x5c, 0x2f, 0xe4, 0xa9, 0x81, 0xac, 0xd3, 0x34, 0xf6, 0x17,
  0xb7, 0x37, 0x68, 0x31, 0xc5, 0x34, 0x5e, 0xb2, 0x90, 0xb3, 0xc6, 0xa5,
  0x3c, 0xa6, 0x26, 0x31, 0x92, 0xb0, 0x84, 0xb0, 0xc0, 0x2f, 0x9c, 0xab,
  0x27, 0x2d, 0x07, 0x31, 0x98, 0x30, 0x6e, 0x32, 0xb4, 0x2d, 0xdf, 0xb0,
  0xc9, 0x2d, 0x20, 0xae, 0x55, 0x31, 0x6e, 0xae, 0x19, 0xb0, 0xb3, 0xb1,
  0xef, 0x1e, 0xe9, 0xaf, 0xac, 0x2c, 0xe6, 0x33, 0x8d, 0xb1, 0xe1, 0x26,
  0x0c, 0xad, 0x11, 0x2b, 0x01, 0x28, 0x6e, 0xa5, 0xd3, 0x33, 0xd4, 0xb2,
  0xc4, 0xb1, 0x15, 0x2f, 0x28, 0xb3, 0xaf, 0x20, 0xa6, 0xb3, 0xe9, 0xb1,
  0x3b, 0xb2, 0x93, 0x2a, 0xff, 0x2a, 0x8b, 0xb2, 0xdc, 0x2f, 0x68, 0x31,
  0xab, 0x2e, 0xc2, 0x2c, 0x62, 0x27, 0xee, 0xb3, 0x1b, 0x30, 0x13, 0xb1,
  0x07, 0x30, 0x7b, 0x33, 0x65, 0xa9, 0x6a, 0x20, 0x99, 0x32, 0xd7, 0xad,
  0xa4, 0x31, 0x77, 0x31, 0xcd, 0x2c, 0x73, 0xab, 0x02, 0xae, 0x0e, 0xa5,
  0xde, 0xb3, 0x75, 0xb2, 0xa7, 0xad, 0x1e, 0x2a, 0xbc, 0x32, 0xd7, 0xb0,
  0xfd, 0xae, 0x61, 0x32, 0xd9, 0x31, 0xe4, 0x2b, 0x25, 0xaf, 0x98, 0x2a,
  0xf5, 0x22, 0x1b, 0x29, 0x48, 0xb1, 0xeb, 0x29, 0x73, 0xb1, 0xc8, 0x2c,
  0x1c, 0x28, 0x1e, 0xa4, 0x3b, 0x25, 0x7a, 0xab, 0x23, 0xac, 0x9a, 0x27,
  0x97, 0x30, 0x6f, 0xb3, 0x24, 0xa8, 0x07, 0xb2, 0x8d, 0xb0, 0x8d, 0x2a,
  0xdc, 0x2e, 0xb0, 0x32, 0x52, 0x32, 0x45, 0xa6, 0x76, 0xac, 0x61, 0x22,
  0xa6, 0xac, 0x44, 0xb2, 0xa9, 0xad, 0x86, 0xb0, 0x74, 0x31, 0x51, 0xa8,
  0x9f, 0x36, 0x93, 0x35, 0x70, 0xa4, 0xf5, 0xb3, 0xb2, 0x32, 0x2c, 0x32,
  0x1f, 0xb0, 0xc9, 0x25, 0x37, 0x2d, 0x7a, 0xb3, 0xce, 0xb1, 0x29, 0x34,
  0xac, 0xaf, 0xe2, 0xb1, 0xa3, 0xaa, 0x2a, 0x2a, 0xa5, 0x28, 0xd0, 0x32,
  0x79, 0xa4, 0xb2, 0xa9, 0xb6, 0xb5, 0xbb, 0xb3, 0x7b, 0xb2, 0x35, 0x31,
  0x97, 0xac, 0x59, 0xb1, 0xda, 0x31, 0x60, 0xad, 0xdf, 0xb1, 0xbf, 0x36,
  0x7c, 0x18, 0x07, 0xb3, 0x10, 0xaa, 0x69, 0xae, 0xda, 0xb0, 0x11, 0x31,
  0x70, 0xb0, 0x6a, 0xa6, 0x0e, 0xb0, 0x53, 0x33, 0x64, 0xb0, 0x1d, 0x2d,
  0xd5, 0xb3, 0xbc, 0xb1, 0x03, 0x35, 0x7d, 0x31, 0x3a, 0xb0, 0xd4, 0x34,
  0x9f, 0x32, 0x8f, 0xb3, 0x65, 0x31, 0x93, 0xa6, 0xbb, 0x35, 0xf7, 0x2f,
  0x20, 0x35, 0xa3, 0xab, 0xf1, 0x2e, 0xc5, 0xb2, 0x61, 0x33, 0x7b, 0x31,
  0xcd, 0xb2, 0x26, 0xb1, 0x9c, 0x29, 0xb2, 0x2d, 0x5f, 0x2d, 0x60, 0xa4,
  0x0e, 0xaa, 0xf3, 0xae, 0x8a, 0x33, 0xbc, 0x30, 0x98, 0x28, 0x6e, 0x29,
  0x43, 0x2c, 0xa2, 0xae, 0x98, 0xad, 0x16, 0x2a, 0x5f, 0x32, 0x3a, 0xb1,
  0x1b, 0x20, 0x21, 0xb4, 0x38, 0x2d, 0xa6, 0xad, 0x0f, 0xb4, 0xd3, 0x2f,
  0x91, 0x29, 0xe3, 0x31, 0x64, 0xb0, 0x98, 0xb0, 0x03, 0x2d, 0x50, 0x9d,
  0xc5, 0xb1, 0x33, 0xb2, 0xc6, 0xab, 0x02, 0xb4, 0x67, 0x28, 0xd2, 0x32,
  0xa6, 0x34, 0x32, 0x2e, 0x4e, 0xaf, 0x45, 0x19, 0xe8, 0xb0, 0x6b, 0xad,
  0x27, 0x32, 0x70, 0x28, 0x26, 0x35, 0xf5, 0xac, 0x9e, 0xae, 0x94, 0xa4,
  0x68, 0xa7, 0x4e, 0xaf, 0x86, 0x2f, 0x9f, 0x27, 0x24, 0x2c, 0x94, 0xa1,
  0xab, 0x33, 0x4f, 0x2d, 0xa5, 0xb5, 0xeb, 0x30, 0x09, 0x34, 0x67, 0x35,
  0x50, 0xb0, 0x21, 0x30, 0x08, 0x30, 0x94, 0xb0, 0xc6, 0x2c, 0x07, 0x34,
  0x4e, 0xac, 0xb9, 0x28, 0x69, 0xa9, 0xdb, 0xb5, 0x0e, 0xa7, 0x10, 0xaf,
  0x77, 0xad, 0x01, 0x30, 0xd4, 0x25, 0x0f, 0x32, 0xe5, 0xae, 0xf7, 0x31,
  0x85, 0xb2, 0x5f, 0x31, 0xfa, 0xac, 0x91, 0xaf, 0xb1, 0x2a, 0x65, 0x31,
  0xda, 0xa6, 0x61, 0x25, 0x25, 0x31, 0x00, 0x2a, 0x39, 0x2b, 0x34, 0x33,
  0x0b, 0x31, 0xd6, 0xb6, 0x99, 0x2f, 0xa8, 0xb2, 0x9b, 0xa3, 0x6d, 0x2b,
  0x36, 0x32, 0x54, 0x2f, 0x8c, 0xb5, 0x7e, 0x30, 0x21, 0xad, 0x12, 0xad,
  0x33, 0x32, 0x98, 0xb0, 0xd9, 0xb3, 0xbe, 0x33, 0x02, 0x9e, 0xed, 0xa3,
  0x9c, 0xab, 0x8d, 0x2c, 0xb2, 0xb0, 0xcb, 0xb2, 0x99, 0x32, 0x85, 0xb3,
  0xdb, 0x30, 0x3a, 0x2f, 0x78, 0x31, 0x0c, 0xad, 0xd5, 0x34, 0x3f, 0x30,
  0xd4, 0x31, 0xf1, 0x33, 0x83, 0x26, 0x32, 0xae, 0x27, 0xa5, 0xa4, 0xb1,
  0x6c, 0xb0, 0xd2, 0x28, 0x75, 0x32, 0x56, 0x9f, 0x66, 0x35, 0x2f, 0x30,
  0x17, 0x2c, 0xea, 0x32, 0x05, 0xb2, 0xa7, 0xa6, 0x44, 0x2f, 0xb4, 0xaa,
  0x4c, 0xb0, 0x16, 0x32, 0x32, 0x32, 0xc5, 0x31, 0x52, 0x28, 0x68, 0x24,
  0x3e, 0xa3, 0x3f, 0x33, 0xa1, 0x32, 0xd4, 0x31, 0x9e, 0x31, 0xbd, 0xb3,
  0x69, 0x32, 0x89, 0x30, 0x40, 0xb5, 0x84, 0x29, 0xca, 0xaa, 0x62, 0x35,
  0x41, 0x33, 0xe2, 0x28, 0xe6, 0x2e, 0xf5, 0xb2, 0x40, 0x32, 0x3b, 0xb0,
  0x59, 0xb0, 0xaf, 0x32, 0x92, 0xad, 0x86, 0xb3, 0x8d, 0x2f, 0xe5, 0xaa,
  0x72, 0x33, 0x1c, 0x25, 0x0f, 0xad, 0xfe, 0x33, 0x85, 0x1c, 0xb2, 0x31,
  0x07, 0xb0, 0x42, 0x2c, 0xff, 0xaa, 0x6a, 0xb2, 0x38, 0xb2, 0x69, 0x32,
  0x86, 0xb0, 0x8a, 0x33, 0x64, 0xb1, 0xae, 0x2d, 0x53, 0xb0, 0x17, 0xac,
  0x12, 0x31, 0x56, 0x33, 0x99, 0x2f, 0xec, 0xa0, 0x41, 0x30, 0x7c, 0xa4,
  0x2b, 0x2c, 0x53, 0x35, 0xd8, 0xb3, 0x0c, 0x27, 0x95, 0xa6, 0x3e, 0xac,
  0x04, 0xb2, 0xe7, 0xb0, 0x47, 0xae, 0x63, 0x33, 0x08, 0xb3, 0x4e, 0x30,
  0xad, 0xb3, 0x9e, 0x32, 0x7a, 0xb1, 0xa4, 0xac, 0xdf, 0x35, 0x9d, 0xac,
  0x05, 0xb3, 0x43, 0x23, 0xf2, 0x2f, 0xee, 0xb1, 0x61, 0x35, 0x3e, 0xb0,
  0x20, 0x34, 0xc9, 0xb3, 0x87, 0x25, 0x76, 0xb7, 0xb1, 0xa4, 0xbc, 0x1e,
  0x0f, 0xa9, 0x39, 0x30, 0x8c, 0xae, 0x9a, 0xb3, 0xcb, 0x2c, 0xa0, 0x1d,
  0x3d, 0xb1, 0xde, 0x2c, 0x65, 0x2c, 0x53, 0xb0, 0xab, 0xa8, 0x25, 0x2e,
  0x4b, 0x29, 0xd0, 0xb2, 0x49, 0x30, 0x13, 0xac, 0x3d, 0x2a, 0x81, 0x2f,
  0x68, 0xb1, 0x17, 0xa8, 0xe1, 0xad, 0xf1, 0xa4, 0x80, 0xaf, 0x7d, 0x31,
  0x2a, 0xb0, 0xf8, 0x30, 0xaa, 0x2e, 0x86, 0xae, 0x12, 0xb2, 0x62, 0x29,
  0x2e, 0xfd, 0xff, 0xff, 0x04, 0x00, 0x00, 0x00, 0x40, 0x01, 0x00, 0x00,
  0x2e, 0xb3, 0xcb, 0xb5, 0xd6, 0x2f, 0xde, 0xaf, 0xba, 0xa8, 0x34, 0xb6,
  0x81, 0xb4, 0xfe, 0x14, 0xf3, 0xb5, 0x66, 0x30, 0x69, 0x2d, 0x48, 0xb6,
  0x1b, 0x35, 0xc2, 0x30, 0x2a, 0x30, 0x2f, 0xb6, 0x5a, 0xac, 0x05, 0x2c,
  0x88, 0xab, 0x76, 0xb0, 0x5d, 0x28, 0x78, 0x26, 0xb1, 0xb5, 0x8e, 0xa4,
  0x7a, 0x2a, 0xfa, 0xb1, 0x6e, 0x34, 0xd9, 0x31, 0x1a, 0x39, 0xad, 0x38,
  0x4a, 0x33, 0x9a, 0x26, 0x73, 0xb1, 0x14, 0xb2, 0xd8, 0x31, 0x97, 0xb3,
  0x90, 0xa2, 0xeb, 0x30, 0x11, 0x34, 0xfc, 0xac, 0x34, 0x38, 0x0b, 0x2f,
  0x24, 0xb4, 0x57, 0xa8, 0x72, 0xb0, 0x23, 0x38, 0xbc, 0xb3, 0x6a, 0x2c,
  0x7e, 0xb7, 0xdc, 0xb8, 0x8b, 0xb3, 0xd8, 0xb5, 0xfe, 0xb2, 0xa4, 0xb4,
  0xe4, 0x31, 0x1c, 0xaf, 0x6a, 0xb3, 0x3d, 0x34, 0x02, 0xb3, 0x51, 0xaf,
  0x7b, 0xb4, 0x8e, 0xb4, 0x46, 0xaf, 0x6d, 0x35, 0x1d, 0x36, 0x56, 0x2c,
  0x4e, 0x2d, 0xd6, 0x35, 0x08, 0x36, 0x88, 0xb1, 0x11, 0xb3, 0xd7, 0x86,
  0x4e, 0x34, 0x66, 0x31, 0x91, 0xb0, 0x5e, 0x28, 0xe6, 0xb2, 0x75, 0x31,
  0xfa, 0xb5, 0xfc, 0x35, 0x5e, 0x35, 0xb1, 0x31, 0x35, 0xb3, 0xd5, 0xb8,
  0xe3, 0xb6, 0x47, 0xb5, 0x31, 0xac, 0x74, 0x34, 0x58, 0x26, 0x7b, 0x34,
  0xea, 0xa7, 0x20, 0xa9, 0x9f, 0x30, 0x92, 0xb5, 0x30, 0x36, 0x20, 0x34,
  0x71, 0x35, 0x77, 0x2b, 0x48, 0x16, 0x00, 0x38, 0x46, 0xb0, 0x2e, 0x32,
  0x2f, 0x37, 0x44, 0x34, 0x88, 0x32, 0x3d, 0xab, 0x52, 0xb6, 0x2f, 0x31,
  0x8f, 0xb1, 0x4b, 0xa5, 0xc6, 0xab, 0x82, 0xad, 0x18, 0xae, 0x44, 0xac,
  0x2d, 0xb3, 0xfd, 0xa9, 0x93, 0x37, 0x00, 0x2c, 0xfa, 0x31, 0x51, 0xaf,
  0x39, 0xaf, 0x63, 0xa9, 0x5a, 0x2f, 0xc9, 0xb3, 0xf4, 0x32, 0xf7, 0xae,
  0x5b, 0xb5, 0x00, 0xb5, 0xf5, 0x29, 0xbf, 0x26, 0xe1, 0xae, 0x98, 0x35,
  0xfc, 0x37, 0x17, 0xab, 0x89, 0x36, 0x1d, 0xb1, 0x8d, 0x9b, 0x1d, 0xb0,
  0xc8, 0xaa, 0x19, 0xb5, 0xaf, 0xb3, 0x15, 0x37, 0x30, 0xb2, 0xa3, 0x38,
  0x62, 0x37, 0xfa, 0xb0, 0xf2, 0xb0, 0x7a, 0xb4, 0x00, 0x36, 0x26, 0x33,
  0x0a, 0xa5, 0x85, 0x34, 0x15, 0x32, 0xfa, 0x10, 0x5b, 0x37, 0xa4, 0x34,
  0x82, 0xa4, 0x1c, 0xb3, 0x7d, 0xb5, 0xfb, 0xb8, 0x7a, 0xfe, 0xff, 0xff,
  0x04, 0x00, 0x00, 0x00, 0x40, 0x00, 0x00, 0x00, 0x00, 0x00, 0x00, 0x00,
  0x19, 0xa1, 0x00, 0x00, 0x0c, 0xa6, 0xd6, 0x31, 0x3f, 0x14, 0x00, 0x00,
  0xf8, 0xa4, 0x92, 0xa0, 0x00, 0x00, 0x00, 0x00, 0x00, 0x00, 0xc5, 0x30,
  0x00, 0x00, 0x00, 0x00, 0xea, 0x12, 0x00, 0x00, 0x00, 0x00, 0x22, 0x32,
  0xef, 0x30, 0x00, 0x00, 0x00, 0x00, 0x88, 0x32, 0x00, 0x00, 0x00, 0x00,
  0x3a, 0x31, 0x00, 0x00, 0x4e, 0x30, 0x00, 0x00, 0xe4, 0x30, 0x5a, 0x22,
  0xc6, 0xfe, 0xff, 0xff, 0x04, 0x00, 0x00, 0x00, 0x80, 0x00, 0x00, 0x00,
  0xaf, 0xa3, 0x88, 0xa9, 0x4e, 0x24, 0x0d, 0xa8, 0x5c, 0x31, 0x5e, 0x2e,
  0x00, 0x00, 0x75, 0xa2, 0x5f, 0x28, 0xd4, 0x2e, 0x00, 0x00, 0xaf, 0xa4,
  0xfa, 0xa6, 0x86, 0x2b, 0x94, 0x32, 0x00, 0x00, 0x4b, 0x30, 0x77, 0x31,
  0x7c, 0x2e, 0xfb, 0x31, 0x00, 0x00, 0x1e, 0x1a, 0x00, 0x00, 0x5d, 0xa5,
  0x11, 0x2e, 0x00, 0x00, 0x43, 0x83, 0x52, 0x31, 0x00, 0x00, 0x42, 0x29,
  0x64, 0x32, 0x00, 0x00, 0xa6, 0xac, 0xe5, 0x1f, 0x00, 0x00, 0x56, 0x2f,
  0x43, 0xa8, 0x30, 0x2f, 0x1b, 0x2f, 0x8a, 0x2a, 0x3a, 0x2e, 0xa7, 0x2f,
  0x30, 0x30, 0x71, 0xa4, 0xbd, 0x20, 0x00, 0x00, 0x00, 0x00, 0x01, 0x2f,
  0xf0, 0xa2, 0x60, 0xa0, 0x0c, 0x31, 0x94, 0x2c, 0x00, 0x00, 0x86, 0xa4,
  0xfc, 0x26, 0x34, 0x2f, 0xe9, 0xa5, 0x28, 0xa2, 0x4a, 0x2f, 0x32, 0x2f,
  0x7a, 0xa7, 0x11, 0xa4, 0xae, 0x30, 0x7b, 0xa8, 0x52, 0xff, 0xff, 0xff,
  0x04, 0x00, 0x00, 0x00, 0x04, 0x00, 0x00, 0x00, 0xfd, 0x2d, 0xfd, 0xad,
  0x44, 0xf7, 0xff, 0xff, 0x48, 0xf7, 0xff, 0xff, 0x0f, 0x00, 0x00, 0x00,
  0x4d, 0x4c, 0x49, 0x52, 0x20, 0x43, 0x6f, 0x6e, 0x76, 0x65, 0x72, 0x74,
  0x65, 0x64, 0x2e, 0x00, 0x01, 0x00, 0x00, 0x00, 0x14, 0x00, 0x00, 0x00,
  0x00, 0x00, 0x0e, 0x00, 0x18, 0x00, 0x14, 0x00, 0x10, 0x00, 0x0c, 0x00,
  0x08, 0x00, 0x04, 0x00, 0x0e, 0x00, 0x00, 0x00, 0x14, 0x00, 0x00, 0x00,
  0x1c, 0x00, 0x00, 0x00, 0xec, 0x01, 0x00, 0x00, 0xf0, 0x01, 0x00, 0x00,
  0xf4, 0x01, 0x00, 0x00, 0x04, 0x00, 0x00, 0x00, 0x6d, 0x61, 0x69, 0x6e,
  0x00, 0x00, 0x00, 0x00, 0x0a, 0x00, 0x00, 0x00, 0xb4, 0x01, 0x00, 0x00,
  0x88, 0x01, 0x00, 0x00, 0x68, 0x01, 0x00, 0x00, 0x48, 0x01, 0x00, 0x00,
  0x28, 0x01, 0x00, 0x00, 0x08, 0x01, 0x00, 0x00, 0xc4, 0x00, 0x00, 0x00,
  0x78, 0x00, 0x00, 0x00, 0x40, 0x00, 0x00, 0x00, 0x04, 0x00, 0x00, 0x00,
  0x5a, 0xff, 0xff, 0xff, 0x1c, 0x00, 0x00, 0x00, 0x00, 0x00, 0x00, 0x09,
  0x1c, 0x00, 0x00, 0x00, 0x20, 0x00, 0x00, 0x00, 0x02, 0x00, 0x00, 0x00,
  0x00, 0x00, 0x06, 0x00, 0x08, 0x00, 0x04, 0x00, 0x06, 0x00, 0x00, 0x00,
  0x00, 0x00, 0x80, 0x3f, 0x01, 0x00, 0x00, 0x00, 0x10, 0x00, 0x00, 0x00,
  0x01, 0x00, 0x00, 0x00, 0x0f, 0x00, 0x00, 0x00, 0x92, 0xff, 0xff, 0xff,
  0x14, 0x00, 0x00, 0x00, 0x00, 0x00, 0x00, 0x08, 0x10, 0x00, 0x00, 0x00,
  0x14, 0x00, 0x00, 0x00, 0x01, 0x00, 0x00, 0x00, 0x18, 0xf8, 0xff, 0xff,
  0x01, 0x00, 0x00, 0x00, 0x0f, 0x00, 0x00, 0x00, 0x03, 0x00, 0x00, 0x00,
  0x0e, 0x00, 0x00, 0x00, 0x0c, 0x00, 0x00, 0x00, 0x07, 0x00, 0x00, 0x00,
  0xc6, 0xff, 0xff, 0xff, 0x14, 0x00, 0x00, 0x00, 0x00, 0x00, 0x00, 0x08,
  0x14, 0x00, 0x00, 0x00, 0x18, 0x00, 0x00, 0x00, 0x01, 0x00, 0x00, 0x00,
  0xb6, 0xff, 0xff, 0xff, 0x00, 0x00, 0x00, 0x01, 0x01, 0x00, 0x00, 0x00,
  0x0e, 0x00, 0x00, 0x00, 0x03, 0x00, 0x00, 0x00, 0x0d, 0x00, 0x00, 0x00,
  0x0b, 0x00, 0x00, 0x00, 0x08, 0x00, 0x00, 0x00, 0x00, 0x00, 0x0e, 0x00,
  0x1a, 0x00, 0x14, 0x00, 0x10, 0x00, 0x0c, 0x00, 0x0b, 0x00, 0x04, 0x00,
  0x0e, 0x00, 0x00, 0x00, 0x1c, 0x00, 0x00, 0x00, 0x00, 0x00, 0x00, 0x08,
  0x1c, 0x00, 0x00, 0x00, 0x20, 0x00, 0x00, 0x00, 0x01, 0x00, 0x00, 0x00,
  0x00, 0x00, 0x06, 0x00, 0x08, 0x00, 0x07, 0x00, 0x06, 0x00, 0x00, 0x00,
  0x00, 0x00, 0x00, 0x01, 0x01, 0x00, 0x00, 0x00, 0x0d, 0x00, 0x00, 0x00,
  0x03, 0x00, 0x00, 0x00, 0x00, 0x00, 0x00, 0x00, 0x0a, 0x00, 0x00, 0x00,
  0x09, 0x00, 0x00, 0x00, 0x72, 0xff, 0xff, 0xff, 0x08, 0x00, 0x00, 0x00,
  0x0c, 0x00, 0x00, 0x00, 0x01, 0x00, 0x00, 0x00, 0x0c, 0x00, 0x00, 0x00,
  0x01, 0x00, 0x00, 0x00, 0x06, 0x00, 0x00, 0x00, 0x8e, 0xff, 0xff, 0xff,
  0x08, 0x00, 0x00, 0x00, 0x0c, 0x00, 0x00, 0x00, 0x01, 0x00, 0x00, 0x00,
  0x0b, 0x00, 0x00, 0x00, 0x01, 0x00, 0x00, 0x00, 0x05, 0x00, 0x00, 0x00,
  0xaa, 0xff, 0xff, 0xff, 0x08, 0x00, 0x00, 0x00, 0x0c, 0x00, 0x00, 0x00,
  0x01, 0x00, 0x00, 0x00, 0x0a, 0x00, 0x00, 0x00, 0x01, 0x00, 0x00, 0x00,
  0x04, 0x00, 0x00, 0x00, 0xc6, 0xff, 0xff, 0xff, 0x08, 0x00, 0x00, 0x00,
  0x0c, 0x00, 0x00, 0x00, 0x01, 0x00, 0x00, 0x00, 0x09, 0x00, 0x00, 0x00,
  0x01, 0x00, 0x00, 0x00, 0x03, 0x00, 0x00, 0x00, 0xe2, 0xff, 0xff, 0xff,
  0x08, 0x00, 0x00, 0x00, 0x0c, 0x00, 0x00, 0x00, 0x01, 0x00, 0x00, 0x00,
  0x08, 0x00, 0x00, 0x00, 0x01, 0x00, 0x00, 0x00, 0x02, 0x00, 0x00, 0x00,
  0x00, 0x00, 0x0a, 0x00, 0x0c, 0x00, 0x00, 0x00, 0x08, 0x00, 0x04, 0x00,
  0x0a, 0x00, 0x00, 0x00, 0x08, 0x00, 0x00, 0x00, 0x0c, 0x00, 0x00, 0x00,
  0x01, 0x00, 0x00, 0x00, 0x07, 0x00, 0x00, 0x00, 0x01, 0x00, 0x00, 0x00,
  0x01, 0x00, 0x00, 0x00, 0x01, 0x00, 0x00, 0x00, 0x10, 0x00, 0x00, 0x00,
  0x01, 0x00, 0x00, 0x00, 0x00, 0x00, 0x00, 0x00, 0x11, 0x00, 0x00, 0x00,
  0x54, 0x06, 0x00, 0x00, 0xe0, 0x05, 0x00, 0x00, 0x6c, 0x05, 0x00, 0x00,
  0x10, 0x05, 0x00, 0x00, 0xc0, 0x04, 0x00, 0x00, 0x70, 0x04, 0x00, 0x00,
  0x20, 0x04, 0x00, 0x00, 0xc4, 0x03, 0x00, 0x00, 0x50, 0x03, 0x00, 0x00,
  0xf4, 0x02, 0x00, 0x00, 0xa4, 0x02, 0x00, 0x00, 0x54, 0x02, 0x00, 0x00,
  0x04, 0x02, 0x00, 0x00, 0x70, 0x01, 0x00, 0x00, 0xdc, 0x00, 0x00, 0x00,
  0x60, 0x00, 0x00, 0x00, 0x04, 0x00, 0x00, 0x00, 0x06, 0xfa, 0xff, 0xff,
  0x00, 0x00, 0x00, 0x01, 0x14, 0x00, 0x00, 0x00, 0x1c, 0x00, 0x00, 0x00,
  0x1c, 0x00, 0x00, 0x00, 0x11, 0x00, 0x00, 0x00, 0x34, 0x00, 0x00, 0x00,
  0x02, 0x00, 0x00, 0x00, 0xff, 0xff, 0xff, 0xff, 0x02, 0x00, 0x00, 0x00,
  0xf0, 0xf9, 0xff, 0xff, 0x19, 0x00, 0x00, 0x00, 0x53, 0x74, 0x61, 0x74,
  0x65, 0x66, 0x75, 0x6c, 0x50, 0x61, 0x72, 0x74, 0x69, 0x74, 0x69, 0x6f,
  0x6e, 0x65, 0x64, 0x43, 0x61, 0x6c, 0x6c, 0x3a, 0x30, 0x00, 0x00, 0x00,
  0x02, 0x00, 0x00, 0x00, 0x01, 0x00, 0x00, 0x00, 0x02, 0x00, 0x00, 0x00,
  0x5e, 0xfa, 0xff, 0xff, 0x00, 0x00, 0x00, 0x01, 0x14, 0x00, 0x00, 0x00,
  0x1c, 0x00, 0x00, 0x00, 0x1c, 0x00, 0x00, 0x00, 0x10, 0x00, 0x00, 0x00,
  0x54, 0x00, 0x00, 0x00, 0x02, 0x00, 0x00, 0x00, 0xff, 0xff, 0xff, 0xff,
  0x02, 0x00, 0x00, 0x00, 0x48, 0xfa, 0xff, 0xff, 0x38, 0x00, 0x00, 0x00,
  0x73, 0x65, 0x71, 0x75, 0x65, 0x6e, 0x74, 0x69, 0x61, 0x6c, 0x5f, 0x32,
  0x2f, 0x64, 0x65, 0x6e, 0x73, 0x65, 0x5f, 0x38, 0x2f, 0x4d, 0x61, 0x74,
  0x4d, 0x75, 0x6c, 0x3b, 0x73, 0x65, 0x71, 0x75, 0x65, 0x6e, 0x74, 0x69,
  0x61, 0x6c, 0x5f, 0x32, 0x2f, 0x64, 0x65, 0x6e, 0x73, 0x65, 0x5f, 0x38,
  0x2f, 0x42, 0x69, 0x61, 0x73, 0x41, 0x64, 0x64, 0x00, 0x00, 0x00, 0x00,
  0x02, 0x00, 0x00, 0x00, 0x01, 0x00, 0x00, 0x00, 0x02, 0x00, 0x00, 0x00,
  0xd6, 0xfa, 0xff, 0xff, 0x00, 0x00, 0x00, 0x01, 0x14, 0x00, 0x00, 0x00,
  0x1c, 0x00, 0x00, 0x00, 0x1c, 0x00, 0x00, 0x00, 0x0f, 0x00, 0x00, 0x00,
  0x6c, 0x00, 0x00, 0x00, 0x02, 0x00, 0x00, 0x00, 0xff, 0xff, 0xff, 0xff,
  0x40, 0x00, 0x00, 0x00, 0xc0, 0xfa, 0xff, 0xff, 0x52, 0x00, 0x00, 0x00,
  0x73, 0x65, 0x71, 0x75, 0x65, 0x6e, 0x74, 0x69, 0x61, 0x6c, 0x5f, 0x32,
  0x2f, 0x64, 0x65, 0x6e, 0x73, 0x65, 0x5f, 0x37, 0x2f, 0x4d, 0x61, 0x74,
  0x4d, 0x75, 0x6c, 0x3b, 0x73, 0x65, 0x71, 0x75, 0x65, 0x6e, 0x74, 0x69,
  0x61, 0x6c, 0x5f, 0x32, 0x2f, 0x64, 0x65, 0x6e, 0x73, 0x65, 0x5f, 0x37,
  0x2f, 0x52, 0x65, 0x6c, 0x75, 0x3b, 0x73, 0x65, 0x71, 0x75, 0x65, 0x6e,
  0x74, 0x69, 0x61, 0x6c, 0x5f, 0x32, 0x2f, 0x64, 0x65, 0x6e, 0x73, 0x65,
  0x5f, 0x37, 0x2f, 0x42, 0x69, 0x61, 0x73, 0x41, 0x64, 0x64, 0x00, 0x00,
  0x02, 0x00, 0x00, 0x00, 0x01, 0x00, 0x00, 0x00, 0x40, 0x00, 0x00, 0x00,
  0x66, 0xfb, 0xff, 0xff, 0x00, 0x00, 0x00, 0x01, 0x14, 0x00, 0x00, 0x00,
  0x1c, 0x00, 0x00, 0x00, 0x1c, 0x00, 0x00, 0x00, 0x0e, 0x00, 0x00, 0x00,
  0x6c, 0x00, 0x00, 0x00, 0x02, 0x00, 0x00, 0x00, 0xff, 0xff, 0xff, 0xff,
  0x20, 0x00, 0x00, 0x00, 0x50, 0xfb, 0xff, 0xff, 0x52, 0x00, 0x00, 0x00,
  0x73, 0x65, 0x71, 0x75, 0x65, 0x6e, 0x74, 0x69, 0x61, 0x6c, 0x5f, 0x32,
  0x2f, 0x64, 0x65, 0x6e, 0x73, 0x65, 0x5f, 0x36, 0x2f, 0x4d, 0x61, 0x74,
  0x4d, 0x75, 0x6c, 0x3b, 0x73, 0x65, 0x71, 0x75, 0x65, 0x6e, 0x74, 0x69,
  0x61, 0x6c, 0x5f, 0x32, 0x2f, 0x64, 0x65, 0x6e, 0x73, 0x65, 0x5f, 0x36,
  0x2f, 0x52, 0x65, 0x6c, 0x75, 0x3b, 0x73, 0x65, 0x71, 0x75, 0x65, 0x6e,
  0x74, 0x69, 0x61, 0x6c, 0x5f, 0x32, 0x2f, 0x64, 0x65, 0x6e, 0x73, 0x65,
  0x5f, 0x36, 0x2f, 0x42, 0x69, 0x61, 0x73, 0x41, 0x64, 0x64, 0x00, 0x00,
  0x02, 0x00, 0x00, 0x00, 0x01, 0x00, 0x00, 0x00, 0x20, 0x00, 0x00, 0x00,
  0x6a, 0xfe, 0xff, 0xff, 0x00, 0x00, 0x00, 0x01, 0x10, 0x00, 0x00, 0x00,
  0x10, 0x00, 0x00, 0x00, 0x0d, 0x00, 0x00, 0x00, 0x2c, 0x00, 0x00, 0x00,
  0xd0, 0xfb, 0xff, 0xff, 0x1c, 0x00, 0x00, 0x00, 0x73, 0x65, 0x71, 0x75,
  0x65, 0x6e, 0x74, 0x69, 0x61, 0x6c, 0x5f, 0x32, 0x2f, 0x64, 0x65, 0x6e,
  0x73, 0x65, 0x5f, 0x38, 0x2f, 0x4d, 0x61, 0x74, 0x4d, 0x75, 0x6c, 0x31,
  0x00, 0x00, 0x00, 0x00, 0x02, 0x00, 0x00, 0x00, 0x02, 0x00, 0x00, 0x00,
  0x40, 0x00, 0x00, 0x00, 0xb6, 0xfe, 0xff, 0xff, 0x00, 0x00, 0x00, 0x01,
  0x10, 0x00, 0x00, 0x00, 0x10, 0x00, 0x00, 0x00, 0x0c, 0x00, 0x00, 0x00,
  0x2c, 0x00, 0x00, 0x00, 0x1c, 0xfc, 0xff, 0xff, 0x1c, 0x00, 0x00, 0x00,
  0x73, 0x65, 0x71, 0x75, 0x65, 0x6e, 0x74, 0x69, 0x61, 0x6c, 0x5f, 0x32,
  0x2f, 0x64, 0x65, 0x6e, 0x73, 0x65, 0x5f, 0x37, 0x2f, 0x4d, 0x61, 0x74,
  0x4d, 0x75, 0x6c, 0x31, 0x00, 0x00, 0x00, 0x00, 0x02, 0x00, 0x00, 0x00,
  0x40, 0x00, 0x00, 0x00, 0x20, 0x00, 0x00, 0x00, 0x02, 0xff, 0xff, 0xff,
  0x00, 0x00, 0x00, 0x01, 0x10, 0x00, 0x00, 0x00, 0x10, 0x00, 0x00, 0x00,
  0x0b, 0x00, 0x00, 0x00, 0x2c, 0x00, 0x00, 0x00, 0x68, 0xfc, 0xff, 0xff,
  0x1c, 0x00, 0x00, 0x00, 0x73, 0x65, 0x71, 0x75, 0x65, 0x6e, 0x74, 0x69,
  0x61, 0x6c, 0x5f, 0x32, 0x2f, 0x64, 0x65, 0x6e, 0x73, 0x65, 0x5f, 0x36,
  0x2f, 0x4d, 0x61, 0x74, 0x4d, 0x75, 0x6c, 0x31, 0x00, 0x00, 0x00, 0x00,
  0x02, 0x00, 0x00, 0x00, 0x20, 0x00, 0x00, 0x00, 0x05, 0x00, 0x00, 0x00,
  0x4e, 0xff, 0xff, 0xff, 0x00, 0x00, 0x00, 0x01, 0x10, 0x00, 0x00, 0x00,
  0x10, 0x00, 0x00, 0x00, 0x0a, 0x00, 0x00, 0x00, 0x3c, 0x00, 0x00, 0x00,
  0xb4, 0xfc, 0xff, 0xff, 0x2c, 0x00, 0x00, 0x00, 0x73, 0x65, 0x71, 0x75,
  0x65, 0x6e, 0x74, 0x69, 0x61, 0x6c, 0x5f, 0x32, 0x2f, 0x64, 0x65, 0x6e,
  0x73, 0x65, 0x5f, 0x36, 0x2f, 0x42, 0x69, 0x61, 0x73, 0x41, 0x64, 0x64,
  0x2f, 0x52, 0x65, 0x61, 0x64, 0x56, 0x61, 0x72, 0x69, 0x61, 0x62, 0x6c,
  0x65, 0x4f, 0x70, 0x31, 0x00, 0x00, 0x00, 0x00, 0x01, 0x00, 0x00, 0x00,
  0x20, 0x00, 0x00, 0x00, 0xa6, 0xff, 0xff, 0xff, 0x00, 0x00, 0x00, 0x01,
  0x10, 0x00, 0x00, 0x00, 0x10, 0x00, 0x00, 0x00, 0x09, 0x00, 0x00, 0x00,
  0x3c, 0x00, 0x00, 0x00, 0x0c, 0xfd, 0xff, 0xff, 0x2c, 0x00, 0x00, 0x00,
  0x73, 0x65, 0x71, 0x75, 0x65, 0x6e, 0x74, 0x69, 0x61, 0x6c, 0x5f, 0x32,
  0x2f, 0x64, 0x65, 0x6e, 0x73, 0x65, 0x5f, 0x37, 0x2f, 0x42, 0x69, 0x61,
  0x73, 0x41, 0x64, 0x64, 0x2f, 0x52, 0x65, 0x61, 0x64, 0x56, 0x61, 0x72,
  0x69, 0x61, 0x62, 0x6c, 0x65, 0x4f, 0x70, 0x31, 0x00, 0x00, 0x00, 0x00,
  0x01, 0x00, 0x00, 0x00, 0x40, 0x00, 0x00, 0x00, 0x00, 0x00, 0x16, 0x00,
  0x18, 0x00, 0x14, 0x00, 0x00, 0x00, 0x10, 0x00, 0x0c, 0x00, 0x08, 0x00,
  0x00, 0x00, 0x00, 0x00, 0x00, 0x00, 0x07, 0x00, 0x16, 0x00, 0x00, 0x00,
  0x00, 0x00, 0x00, 0x01, 0x10, 0x00, 0x00, 0x00, 0x10, 0x00, 0x00, 0x00,
  0x08, 0x00, 0x00, 0x00, 0x3c, 0x00, 0x00, 0x00, 0x7c, 0xfd, 0xff, 0xff,
  0x2c, 0x00, 0x00, 0x00, 0x73, 0x65, 0x71, 0x75, 0x65, 0x6e, 0x74, 0x69,
  0x61, 0x6c, 0x5f, 0x32, 0x2f, 0x64, 0x65, 0x6e, 0x73, 0x65, 0x5f, 0x38,
  0x2f, 0x42, 0x69, 0x61, 0x73, 0x41, 0x64, 0x64, 0x2f, 0x52, 0x65, 0x61,
  0x64, 0x56, 0x61, 0x72, 0x69, 0x61, 0x62, 0x6c, 0x65, 0x4f, 0x70, 0x31,
  0x00, 0x00, 0x00, 0x00, 0x01, 0x00, 0x00, 0x00, 0x02, 0x00, 0x00, 0x00,
  0x6a, 0xfe, 0xff, 0xff, 0x00, 0x00, 0x00, 0x01, 0x14, 0x00, 0x00, 0x00,
  0x14, 0x00, 0x00, 0x00, 0x07, 0x00, 0x00, 0x00, 0x00, 0x00, 0x00, 0x01,
  0x28, 0x00, 0x00, 0x00, 0xd8, 0xfd, 0xff, 0xff, 0x1b, 0x00, 0x00, 0x00,
  0x73, 0x65, 0x71, 0x75, 0x65, 0x6e, 0x74, 0x69, 0x61, 0x6c, 0x5f, 0x32,
  0x2f, 0x64, 0x65, 0x6e, 0x73, 0x65, 0x5f, 0x38, 0x2f, 0x4d, 0x61, 0x74,
  0x4d, 0x75, 0x6c, 0x00, 0x02, 0x00, 0x00, 0x00, 0x02, 0x00, 0x00, 0x00,
  0x40, 0x00, 0x00, 0x00, 0xb6, 0xfe, 0xff, 0xff, 0x00, 0x00, 0x00, 0x01,
  0x14, 0x00, 0x00, 0x00, 0x14, 0x00, 0x00, 0x00, 0x06, 0x00, 0x00, 0x00,
  0x00, 0x00, 0x00, 0x01, 0x28, 0x00, 0x00, 0x00, 0x24, 0xfe, 0xff, 0xff,
  0x1b, 0x00, 0x00, 0x00, 0x73, 0x65, 0x71, 0x75, 0x65, 0x6e, 0x74, 0x69,
  0x61, 0x6c, 0x5f, 0x32, 0x2f, 0x64, 0x65, 0x6e, 0x73, 0x65, 0x5f, 0x37,
  0x2f, 0x4d, 0x61, 0x74, 0x4d, 0x75, 0x6c, 0x00, 0x02, 0x00, 0x00, 0x00,
  0x40, 0x00, 0x00, 0x00, 0x20, 0x00, 0x00, 0x00, 0x02, 0xff, 0xff, 0xff,
  0x00, 0x00, 0x00, 0x01, 0x14, 0x00, 0x00, 0x00, 0x14, 0x00, 0x00, 0x00,
  0x05, 0x00, 0x00, 0x00, 0x00, 0x00, 0x00, 0x01, 0x28, 0x00, 0x00, 0x00,
  0x70, 0xfe, 0xff, 0xff, 0x1b, 0x00, 0x00, 0x00, 0x73, 0x65, 0x71, 0x75,
  0x65, 0x6e, 0x74, 0x69, 0x61, 0x6c, 0x5f, 0x32, 0x2f, 0x64, 0x65, 0x6e,
  0x73, 0x65, 0x5f, 0x36, 0x2f, 0x4d, 0x61, 0x74, 0x4d, 0x75, 0x6c, 0x00,
  0x02, 0x00, 0x00, 0x00, 0x20, 0x00, 0x00, 0x00, 0x05, 0x00, 0x00, 0x00,
  0x4e, 0xff, 0xff, 0xff, 0x00, 0x00, 0x00, 0x01, 0x14, 0x00, 0x00, 0x00,
  0x14, 0x00, 0x00, 0x00, 0x04, 0x00, 0x00, 0x00, 0x00, 0x00, 0x00, 0x01,
  0x38, 0x00, 0x00, 0x00, 0xbc, 0xfe, 0xff, 0xff, 0x2b, 0x00, 0x00, 0x00,
  0x73, 0x65, 0x71, 0x75, 0x65, 0x6e, 0x74, 0x69, 0x61, 0x6c, 0x5f, 0x32,
  0x2f, 0x64, 0x65, 0x6e, 0x73, 0x65, 0x5f, 0x36, 0x2f, 0x42, 0x69, 0x61,
  0x73, 0x41, 0x64, 0x64, 0x2f, 0x52, 0x65, 0x61, 0x64, 0x56, 0x61, 0x72,
  0x69, 0x61, 0x62, 0x6c, 0x65, 0x4f, 0x70, 0x00, 0x01, 0x00, 0x00, 0x00,
  0x20, 0x00, 0x00, 0x00, 0xa6, 0xff, 0xff, 0xff, 0x00, 0x00, 0x00, 0x01,
  0x14, 0x00, 0x00, 0x00, 0x14, 0x00, 0x00, 0x00, 0x03, 0x00, 0x00, 0x00,
  0x00, 0x00, 0x00, 0x01, 0x38, 0x00, 0x00, 0x00, 0x14, 0xff, 0xff, 0xff,
  0x2b, 0x00, 0x00, 0x00, 0x73, 0x65, 0x71, 0x75, 0x65, 0x6e, 0x74, 0x69,
  0x61, 0x6c, 0x5f, 0x32, 0x2f, 0x64, 0x65, 0x6e, 0x73, 0x65, 0x5f, 0x37,
  0x2f, 0x42, 0x69, 0x61, 0x73, 0x41, 0x64, 0x64, 0x2f, 0x52, 0x65, 0x61,
  0x64, 0x56, 0x61, 0x72, 0x69, 0x61, 0x62, 0x6c, 0x65, 0x4f, 0x70, 0x00,
  0x01, 0x00, 0x00, 0x00, 0x40, 0x00, 0x00, 0x00, 0x00, 0x00, 0x16, 0x00,
  0x1c, 0x00, 0x18, 0x00, 0x17, 0x00, 0x10, 0x00, 0x0c, 0x00, 0x08, 0x00,
  0x00, 0x00, 0x00, 0x00, 0x00, 0x00, 0x07, 0x00, 0x16, 0x00, 0x00, 0x00,
  0x00, 0x00, 0x00, 0x01, 0x14, 0x00, 0x00, 0x00, 0x14, 0x00, 0x00, 0x00,
  0x02, 0x00, 0x00, 0x00, 0x00, 0x00, 0x00, 0x01, 0x38, 0x00, 0x00, 0x00,
  0x84, 0xff, 0xff, 0xff, 0x2b, 0x00, 0x00, 0x00, 0x73, 0x65, 0x71, 0x75,
  0x65, 0x6e, 0x74, 0x69, 0x61, 0x6c, 0x5f, 0x32, 0x2f, 0x64, 0x65, 0x6e,
  0x73, 0x65, 0x5f, 0x38, 0x2f, 0x42, 0x69, 0x61, 0x73, 0x41, 0x64, 0x64,
  0x2f, 0x52, 0x65, 0x61, 0x64, 0x56, 0x61, 0x72, 0x69, 0x61, 0x62, 0x6c,
  0x65, 0x4f, 0x70, 0x00, 0x01, 0x00, 0x00, 0x00, 0x02, 0x00, 0x00, 0x00,
  0x00, 0x00, 0x16, 0x00, 0x1c, 0x00, 0x18, 0x00, 0x00, 0x00, 0x14, 0x00,
  0x10, 0x00, 0x0c, 0x00, 0x00, 0x00, 0x00, 0x00, 0x08, 0x00, 0x07, 0x00,
  0x16, 0x00, 0x00, 0x00, 0x00, 0x00, 0x00, 0x01, 0x14, 0x00, 0x00, 0x00,
  0x20, 0x00, 0x00, 0x00, 0x20, 0x00, 0x00, 0x00, 0x01, 0x00, 0x00, 0x00,
  0x3c, 0x00, 0x00, 0x00, 0x02, 0x00, 0x00, 0x00, 0xff, 0xff, 0xff, 0xff,
  0x05, 0x00, 0x00, 0x00, 0x04, 0x00, 0x04, 0x00, 0x04, 0x00, 0x00, 0x00,
  0x1f, 0x00, 0x00, 0x00, 0x73, 0x65, 0x72, 0x76, 0x69, 0x6e, 0x67, 0x5f,
  0x64, 0x65, 0x66, 0x61, 0x75, 0x6c, 0x74, 0x5f, 0x64, 0x65, 0x6e, 0x73,
  0x65, 0x5f, 0x36, 0x5f, 0x69, 0x6e, 0x70, 0x75, 0x74, 0x3a, 0x30, 0x00,
  0x02, 0x00, 0x00, 0x00, 0x01, 0x00, 0x00, 0x00, 0x05, 0x00, 0x00, 0x00,
  0x03, 0x00, 0x00, 0x00, 0x3c, 0x00, 0x00, 0x00, 0x20, 0x00, 0x00, 0x00,
  0x04, 0x00, 0x00, 0x00, 0xf4, 0xff, 0xff, 0xff, 0x19, 0x00, 0x00, 0x00,
  0x00, 0x00, 0x00, 0x19, 0x0c, 0x00, 0x0c, 0x00, 0x0b, 0x00, 0x00, 0x00,
  0x00, 0x00, 0x04, 0x00, 0x0c, 0x00, 0x00, 0x00, 0x09, 0x00, 0x00, 0x00,
  0x00, 0x00, 0x00, 0x09, 0x0c, 0x00, 0x10, 0x00, 0x0f, 0x00, 0x00, 0x00,
  0x08, 0x00, 0x04, 0x00, 0x0c, 0x00, 0x00, 0x00, 0x06, 0x00, 0x00, 0x00,
  0x03, 0x00, 0x00, 0x00, 0x00, 0x00, 0x00, 0x06
};
unsigned int FFT_model_float16_quantized_tflite_len = 7916;
