unsigned char FFT_model_fullint_quantized_tflite[] = {
  0x20, 0x00, 0x00, 0x00, 0x54, 0x46, 0x4c, 0x33, 0x00, 0x00, 0x00, 0x00,
  0x14, 0x00, 0x20, 0x00, 0x1c, 0x00, 0x18, 0x00, 0x14, 0x00, 0x10, 0x00,
  0x0c, 0x00, 0x00, 0x00, 0x08, 0x00, 0x04, 0x00, 0x14, 0x00, 0x00, 0x00,
  0x1c, 0x00, 0x00, 0x00, 0x88, 0x00, 0x00, 0x00, 0xe0, 0x00, 0x00, 0x00,
  0xb0, 0x0c, 0x00, 0x00, 0xc0, 0x0c, 0x00, 0x00, 0x30, 0x15, 0x00, 0x00,
  0x03, 0x00, 0x00, 0x00, 0x01, 0x00, 0x00, 0x00, 0x04, 0x00, 0x00, 0x00,
  0xfa, 0xf2, 0xff, 0xff, 0x0c, 0x00, 0x00, 0x00, 0x1c, 0x00, 0x00, 0x00,
  0x38, 0x00, 0x00, 0x00, 0x0f, 0x00, 0x00, 0x00, 0x73, 0x65, 0x72, 0x76,
  0x69, 0x6e, 0x67, 0x5f, 0x64, 0x65, 0x66, 0x61, 0x75, 0x6c, 0x74, 0x00,
  0x01, 0x00, 0x00, 0x00, 0x04, 0x00, 0x00, 0x00, 0x94, 0xff, 0xff, 0xff,
  0x0c, 0x00, 0x00, 0x00, 0x04, 0x00, 0x00, 0x00, 0x07, 0x00, 0x00, 0x00,
  0x64, 0x65, 0x6e, 0x73, 0x65, 0x5f, 0x38, 0x00, 0x01, 0x00, 0x00, 0x00,
  0x04, 0x00, 0x00, 0x00, 0x02, 0xf3, 0xff, 0xff, 0x04, 0x00, 0x00, 0x00,
  0x0d, 0x00, 0x00, 0x00, 0x64, 0x65, 0x6e, 0x73, 0x65, 0x5f, 0x36, 0x5f,
  0x69, 0x6e, 0x70, 0x75, 0x74, 0x00, 0x00, 0x00, 0x02, 0x00, 0x00, 0x00,
  0x34, 0x00, 0x00, 0x00, 0x04, 0x00, 0x00, 0x00, 0xdc, 0xff, 0xff, 0xff,
  0x0f, 0x00, 0x00, 0x00, 0x04, 0x00, 0x00, 0x00, 0x13, 0x00, 0x00, 0x00,
  0x43, 0x4f, 0x4e, 0x56, 0x45, 0x52, 0x53, 0x49, 0x4f, 0x4e, 0x5f, 0x4d,
  0x45, 0x54, 0x41, 0x44, 0x41, 0x54, 0x41, 0x00, 0x08, 0x00, 0x0c, 0x00,
  0x08, 0x00, 0x04, 0x00, 0x08, 0x00, 0x00, 0x00, 0x0e, 0x00, 0x00, 0x00,
  0x04, 0x00, 0x00, 0x00, 0x13, 0x00, 0x00, 0x00, 0x6d, 0x69, 0x6e, 0x5f,
  0x72, 0x75, 0x6e, 0x74, 0x69, 0x6d, 0x65, 0x5f, 0x76, 0x65, 0x72, 0x73,
  0x69, 0x6f, 0x6e, 0x00, 0x10, 0x00, 0x00, 0x00, 0xcc, 0x0b, 0x00, 0x00,
  0xc4, 0x0b, 0x00, 0x00, 0xac, 0x0b, 0x00, 0x00, 0x1c, 0x0b, 0x00, 0x00,
  0x0c, 0x0a, 0x00, 0x00, 0xfc, 0x01, 0x00, 0x00, 0x6c, 0x01, 0x00, 0x00,
  0xbc, 0x00, 0x00, 0x00, 0xb4, 0x00, 0x00, 0x00, 0xac, 0x00, 0x00, 0x00,
  0xa4, 0x00, 0x00, 0x00, 0x9c, 0x00, 0x00, 0x00, 0x94, 0x00, 0x00, 0x00,
  0x8c, 0x00, 0x00, 0x00, 0x6c, 0x00, 0x00, 0x00, 0x04, 0x00, 0x00, 0x00,
  0xbe, 0xf3, 0xff, 0xff, 0x04, 0x00, 0x00, 0x00, 0x58, 0x00, 0x00, 0x00,
  0x0c, 0x00, 0x00, 0x00, 0x08, 0x00, 0x0e, 0x00, 0x08, 0x00, 0x04, 0x00,
  0x08, 0x00, 0x00, 0x00, 0x10, 0x00, 0x00, 0x00, 0x28, 0x00, 0x00, 0x00,
  0x00, 0x00, 0x06, 0x00, 0x08, 0x00, 0x04, 0x00, 0x06, 0x00, 0x00, 0x00,
  0x04, 0x00, 0x00, 0x00, 0x01, 0x00, 0x00, 0x00, 0xeb, 0x03, 0x00, 0x00,
  0x00, 0x00, 0x0a, 0x00, 0x10, 0x00, 0x0c, 0x00, 0x08, 0x00, 0x04, 0x00,
  0x0a, 0x00, 0x00, 0x00, 0x02, 0x00, 0x00, 0x00, 0x02, 0x00, 0x00, 0x00,
  0x04, 0x00, 0x00, 0x00, 0x06, 0x00, 0x00, 0x00, 0x32, 0x2e, 0x31, 0x33,
  0x2e, 0x30, 0x00, 0x00, 0x22, 0xf4, 0xff, 0xff, 0x04, 0x00, 0x00, 0x00,
  0x10, 0x00, 0x00, 0x00, 0x31, 0x2e, 0x31, 0x34, 0x2e, 0x30, 0x00, 0x00,
  0x00, 0x00, 0x00, 0x00, 0x00, 0x00, 0x00, 0x00, 0xa0, 0xec, 0xff, 0xff,
  0xa4, 0xec, 0xff, 0xff, 0xa8, 0xec, 0xff, 0xff, 0xac, 0xec, 0xff, 0xff,
  0xb0, 0xec, 0xff, 0xff, 0xb4, 0xec, 0xff, 0xff, 0x56, 0xf4, 0xff, 0xff,
  0x04, 0x00, 0x00, 0x00, 0xa0, 0x00, 0x00, 0x00, 0xd3, 0xb8, 0x18, 0xe8,
  0xf9, 0xb3, 0xc8, 0x00, 0xb6, 0x1b, 0x11, 0xb2, 0x40, 0x1e, 0x1a, 0xb3,
  0xf2, 0x0d, 0xf4, 0xe4, 0x07, 0x05, 0xb9, 0xfc, 0x0a, 0xdb, 0x37, 0x24,
  0x7f, 0x74, 0x2d, 0x05, 0xde, 0xda, 0x24, 0xd1, 0xfd, 0x1f, 0x33, 0xf0,
  0x69, 0x16, 0xcc, 0xf9, 0xe4, 0x67, 0xd0, 0x0e, 0xa3, 0x87, 0xd1, 0xb7,
  0xd4, 0xc6, 0x25, 0xea, 0xd2, 0x35, 0xd4, 0xe9, 0xc8, 0xc7, 0xe9, 0x44,
  0x4c, 0x0d, 0x11, 0x49, 0x4b, 0xde, 0xd4, 0x00, 0x36, 0x22, 0xe4, 0x07,
  0xd5, 0x22, 0xb6, 0x4a, 0x43, 0x23, 0xd3, 0x88, 0xaa, 0xbe, 0xf3, 0x37,
  0x05, 0x38, 0xfa, 0xf8, 0x1d, 0xbb, 0x4d, 0x33, 0x44, 0x0c, 0x00, 0x64,
  0xe5, 0x26, 0x59, 0x35, 0x29, 0xf5, 0xb1, 0x20, 0xdd, 0xfc, 0xf4, 0xef,
  0xed, 0xf3, 0xd3, 0xf7, 0x5e, 0x0c, 0x25, 0xe9, 0xea, 0xf8, 0x17, 0xd0,
  0x2b, 0xea, 0xbd, 0xc2, 0x09, 0x05, 0xeb, 0x46, 0x63, 0xf5, 0x51, 0xe0,
  0xff, 0xe6, 0xf5, 0xc1, 0xd0, 0x58, 0xda, 0x73, 0x5c, 0xe1, 0xe1, 0xc8,
  0x4b, 0x2c, 0xfc, 0x38, 0x26, 0x00, 0x5c, 0x3a, 0xfc, 0xd4, 0xbc, 0x84,
  0x02, 0xf5, 0xff, 0xff, 0x04, 0x00, 0x00, 0x00, 0x80, 0x00, 0x00, 0x00,
  0x00, 0x00, 0x00, 0x00, 0x00, 0x00, 0x00, 0x00, 0xff, 0xff, 0xff, 0xff,
  0x00, 0x00, 0x00, 0x00, 0xfd, 0xff, 0xff, 0xff, 0x19, 0x00, 0x00, 0x00,
  0x00, 0x00, 0x00, 0x00, 0x00, 0x00, 0x00, 0x00, 0xfd, 0xff, 0xff, 0xff,
  0xff, 0xff, 0xff, 0xff, 0x00, 0x00, 0x00, 0x00, 0x00, 0x00, 0x00, 0x00,
  0x00, 0x00, 0x00, 0x00, 0x15, 0x00, 0x00, 0x00, 0x00, 0x00, 0x00, 0x00,
  0x00, 0x00, 0x00, 0x00, 0x00, 0x00, 0x00, 0x00, 0x00, 0x00, 0x00, 0x00,
  0x00, 0x00, 0x00, 0x00, 0x1a, 0x00, 0x00, 0x00, 0x15, 0x00, 0x00, 0x00,
  0x00, 0x00, 0x00, 0x00, 0x00, 0x00, 0x00, 0x00, 0x1c, 0x00, 0x00, 0x00,
  0x00, 0x00, 0x00, 0x00, 0x00, 0x00, 0x00, 0x00, 0x16, 0x00, 0x00, 0x00,
  0x00, 0x00, 0x00, 0x00, 0x13, 0x00, 0x00, 0x00, 0x00, 0x00, 0x00, 0x00,
  0x15, 0x00, 0x00, 0x00, 0x02, 0x00, 0x00, 0x00, 0x8e, 0xf5, 0xff, 0xff,
  0x04, 0x00, 0x00, 0x00, 0x00, 0x08, 0x00, 0x00, 0x05, 0x31, 0xf1, 0x32,
  0xf2, 0x26, 0x36, 0x0d, 0xf9, 0x39, 0xe8, 0x0c, 0x01, 0xe7, 0x03, 0x20,
  0x40, 0xfd, 0xf9, 0x09, 0xf8, 0x2c, 0x28, 0x10, 0x12, 0xeb, 0x0e, 0xfa,
  0xb7, 0x0e, 0x08, 0x47, 0x21, 0x0c, 0xfe, 0x29, 0xdf, 0x0d, 0x20, 0xf1,
  0x3e, 0x16, 0x0a, 0xd3, 0x28, 0x09, 0x1a, 0x04, 0x31, 0x2f, 0xdb, 0x24,
  0x0a, 0x0c, 0x20, 0x19, 0x0c, 0xe9, 0xcb, 0xea, 0xd2, 0x13, 0xfe, 0x46,
  0xe2, 0xe8, 0xdb, 0xdf, 0x2b, 0x0e, 0x4f, 0x11, 0x4f, 0xfa, 0xda, 0xfe,
  0x21, 0x20, 0xf1, 0x33, 0xf2, 0xea, 0xe7, 0x3f, 0xc9, 0x08, 0xe9, 0xd7,
  0xea, 0xea, 0x15, 0x17, 0xa4, 0xf4, 0x06, 0x1b, 0x2b, 0x0a, 0xff, 0x08,
  0x22, 0xec, 0x17, 0xe2, 0xf4, 0x29, 0x01, 0x13, 0x21, 0x28, 0xfd, 0x03,
  0x40, 0x11, 0xf1, 0x2c, 0xd1, 0xed, 0xe8, 0x06, 0xd2, 0x00, 0xf6, 0xf5,
  0x04, 0xdf, 0xfc, 0x31, 0xdc, 0x1c, 0xed, 0xd4, 0xf3, 0x43, 0xb3, 0x00,
  0xc2, 0x04, 0x0d, 0x29, 0xef, 0x32, 0xdd, 0xfa, 0xba, 0x17, 0xe3, 0x31,
  0x44, 0x2c, 0xf8, 0xe9, 0x12, 0xed, 0x07, 0xe8, 0x16, 0xce, 0x12, 0xdc,
  0x2c, 0x13, 0x2a, 0xe6, 0xc9, 0x10, 0xcb, 0xe9, 0x02, 0xd5, 0x2f, 0xfe,
  0xd1, 0x13, 0x1d, 0x26, 0x17, 0xf4, 0xd5, 0x31, 0x0d, 0xe0, 0x28, 0xfc,
  0xdb, 0xcd, 0xe4, 0x0e, 0x56, 0xff, 0x1e, 0xf0, 0x05, 0xe8, 0x0c, 0x17,
  0x2e, 0x01, 0xd2, 0xed, 0xd9, 0xf8, 0xe1, 0x15, 0x1a, 0xdf, 0x1b, 0x21,
  0xea, 0xf7, 0x0a, 0xe5, 0xce, 0x2a, 0x13, 0x2b, 0x28, 0xf6, 0x2f, 0x16,
  0x0d, 0x22, 0xe8, 0xfa, 0xe1, 0x32, 0xd5, 0x01, 0x0a, 0xd9, 0xfc, 0x29,
  0xdb, 0x2e, 0x17, 0x31, 0xd0, 0x0e, 0xfe, 0x2d, 0x0d, 0x1f, 0xe1, 0xe9,
  0xda, 0x0f, 0xe6, 0x14, 0xf3, 0xd9, 0xdb, 0x24, 0x1f, 0xd9, 0x09, 0xd5,
  0xcd, 0xdf, 0x31, 0x26, 0xf4, 0xc7, 0xfb, 0xdc, 0x27, 0x3a, 0x12, 0xff,
  0x14, 0xf9, 0x03, 0x26, 0xf5, 0x26, 0xee, 0x35, 0xe6, 0x0f, 0x25, 0xfb,
  0x05, 0x1e, 0x1c, 0xe3, 0xad, 0x01, 0x1e, 0x5f, 0x0b, 0x29, 0xe7, 0x17,
  0x0f, 0x26, 0xea, 0xd9, 0x0f, 0x1c, 0xf2, 0x14, 0x1a, 0x31, 0xce, 0x17,
  0xbc, 0xdb, 0xdb, 0xda, 0x22, 0xeb, 0xfe, 0xf7, 0xfd, 0xee, 0x1d, 0x1b,
  0x29, 0xce, 0x2b, 0xce, 0xd0, 0x06, 0x0a, 0x1b, 0x23, 0x09, 0xe0, 0xfb,
  0x29, 0xdb, 0xce, 0x2c, 0xf7, 0xd4, 0x1b, 0xe0, 0xfd, 0x2f, 0x0b, 0xff,
  0xf3, 0x2c, 0xd4, 0xf3, 0xd8, 0xf9, 0xd5, 0xed, 0xcd, 0x1f, 0x02, 0xf0,
  0x13, 0x11, 0xfb, 0xfe, 0xcd, 0xfb, 0x11, 0x1d, 0x0d, 0x1e, 0xdc, 0x1f,
  0xce, 0xd2, 0xea, 0xfa, 0x08, 0x1e, 0x0d, 0xf7, 0xda, 0xfa, 0xed, 0xef,
  0x1a, 0x1f, 0xdf, 0x16, 0xdd, 0x09, 0x0c, 0x09, 0x33, 0x31, 0xfa, 0x2d,
  0xd2, 0x06, 0xf0, 0x32, 0xd6, 0x0a, 0x28, 0xd4, 0xd5, 0xe6, 0x03, 0x23,
  0xe8, 0xe1, 0x17, 0x25, 0x21, 0xfa, 0xf2, 0xec, 0xf7, 0x11, 0xf8, 0x21,
  0x2c, 0xe2, 0xd7, 0xf2, 0xd3, 0x1d, 0xdb, 0xf8, 0x05, 0xe1, 0x41, 0xd1,
  0x16, 0x47, 0xeb, 0xd6, 0xde, 0xf6, 0x30, 0x32, 0x31, 0xff, 0x1b, 0x12,
  0xbf, 0xe3, 0x2e, 0x10, 0x10, 0xfb, 0x07, 0x04, 0xf1, 0xfd, 0xf7, 0x6b,
  0x0a, 0xfd, 0xde, 0x14, 0xdd, 0x76, 0xcf, 0x12, 0xc5, 0xc2, 0xd6, 0x11,
  0xe6, 0x02, 0x30, 0xf6, 0xd1, 0xef, 0xef, 0x18, 0x61, 0x15, 0xcd, 0x2e,
  0x0b, 0x15, 0x10, 0x2b, 0x2f, 0xf5, 0x47, 0xa6, 0xcd, 0xf0, 0x32, 0xd5,
  0xe2, 0xf3, 0x1b, 0x2e, 0xdb, 0xfa, 0x25, 0xce, 0xe8, 0x0e, 0xdf, 0xf7,
  0x19, 0xe5, 0x03, 0x17, 0xd9, 0xee, 0xee, 0xd7, 0xfa, 0xf5, 0xd2, 0xe5,
  0xe0, 0x09, 0xd6, 0x2a, 0x2a, 0x04, 0x0b, 0x27, 0xd6, 0x54, 0xbf, 0x07,
  0x1d, 0xb4, 0xfa, 0xee, 0xd3, 0x10, 0xf4, 0x20, 0xe1, 0xf0, 0x03, 0xf4,
  0x19, 0xe5, 0xe1, 0x25, 0xe1, 0xeb, 0x2e, 0x31, 0x17, 0x27, 0xfa, 0xd7,
  0x0d, 0xf1, 0x01, 0xf5, 0x18, 0x29, 0xc3, 0xfb, 0xf7, 0xa8, 0x1f, 0x20,
  0xe2, 0x16, 0xd3, 0xd6, 0xb2, 0x2d, 0x24, 0x32, 0x4e, 0x32, 0xe4, 0x26,
  0xe5, 0xe1, 0x1b, 0x03, 0x22, 0x25, 0xf4, 0xf6, 0x18, 0x12, 0x2e, 0x04,
  0x18, 0x4b, 0xd0, 0xfe, 0x0a, 0xff, 0xce, 0xef, 0xd7, 0x36, 0x24, 0x31,
  0xeb, 0x05, 0xe4, 0x17, 0x43, 0xfc, 0x31, 0x3c, 0x33, 0xfc, 0xf0, 0x02,
  0x5e, 0xdf, 0xdf, 0xd5, 0x08, 0xdb, 0x2c, 0x19, 0xdf, 0x40, 0xa7, 0xd1,
  0x0d, 0xa7, 0xe5, 0x21, 0xf4, 0x17, 0xdf, 0x03, 0xbe, 0xcf, 0x24, 0x03,
  0x56, 0xea, 0x0a, 0x29, 0xe9, 0xe1, 0x4a, 0xd4, 0x45, 0x28, 0x08, 0xbb,
  0x29, 0xfe, 0xee, 0x2a, 0x12, 0xff, 0xcd, 0x22, 0xf7, 0xe0, 0xdc, 0x0c,
  0xdb, 0x00, 0x18, 0xee, 0x2a, 0x24, 0xf9, 0x07, 0xe6, 0xf0, 0x23, 0xf2,
  0x0d, 0x00, 0xf9, 0xcf, 0x27, 0x19, 0xda, 0x1b, 0x13, 0x23, 0xd2, 0xf7,
  0xdf, 0x16, 0x2e, 0xda, 0x3d, 0x39, 0x26, 0xdf, 0x1d, 0x0f, 0x1c, 0x07,
  0x3f, 0x1e, 0xd0, 0x0c, 0x1e, 0xee, 0xd0, 0x09, 0xe6, 0x03, 0xe0, 0x12,
  0xb6, 0x18, 0xdf, 0x00, 0x0c, 0xf5, 0x1a, 0x0a, 0xd9, 0xf8, 0xf8, 0x2e,
  0x01, 0xdc, 0xf7, 0x06, 0xe5, 0xcf, 0x1c, 0xff, 0x06, 0x2d, 0xe8, 0xdf,
  0xed, 0xd0, 0xe4, 0x25, 0xdb, 0x03, 0xe8, 0x05, 0xd0, 0x1f, 0xe2, 0x22,
  0x07, 0xec, 0xe8, 0x33, 0x08, 0xe8, 0xe0, 0x2a, 0xf5, 0xe4, 0xf9, 0xd3,
  0x02, 0xff, 0xfa, 0xff, 0xe6, 0x17, 0x1c, 0xd8, 0x10, 0xed, 0x12, 0x26,
  0x32, 0x08, 0x03, 0x23, 0xf2, 0x2d, 0x26, 0xfe, 0xe9, 0xe7, 0x25, 0x28,
  0x21, 0xf6, 0xef, 0xe3, 0x1c, 0x0a, 0x1d, 0x16, 0x1b, 0x33, 0xf9, 0xf6,
  0xe0, 0x1c, 0x16, 0x0a, 0x17, 0x11, 0xeb, 0x1d, 0x2f, 0xe2, 0xf8, 0x19,
  0x12, 0xd5, 0x12, 0xd5, 0x26, 0xdc, 0x00, 0xfa, 0x1c, 0xdb, 0xe2, 0xec,
  0xed, 0x09, 0x00, 0xf4, 0xe9, 0xf9, 0xdd, 0xdd, 0x0a, 0x0c, 0xdd, 0x0b,
  0xe7, 0x17, 0x26, 0xe9, 0xf7, 0xf5, 0xde, 0xeb, 0x00, 0xd7, 0x04, 0x0a,
  0xec, 0x23, 0x0d, 0x0a, 0x2b, 0xfe, 0x05, 0x15, 0xfc, 0xfe, 0xf5, 0x08,
  0xe9, 0xdb, 0xd5, 0x2d, 0xf5, 0x17, 0xd6, 0x0e, 0xd3, 0xdc, 0xf4, 0xed,
  0xeb, 0x13, 0x2b, 0xed, 0xf6, 0x07, 0x06, 0x1a, 0xe4, 0x28, 0xf3, 0x31,
  0xd0, 0x40, 0x08, 0x1d, 0xf9, 0xb4, 0x12, 0x1d, 0x19, 0xfd, 0x1f, 0xef,
  0x15, 0x2f, 0xe1, 0x17, 0x4e, 0x26, 0xdd, 0xf9, 0xfa, 0x03, 0xf1, 0xce,
  0x6a, 0x28, 0xfe, 0xaa, 0x2d, 0xdf, 0xdb, 0xf6, 0x2d, 0xd3, 0xf8, 0xfc,
  0xe9, 0xfe, 0xfa, 0xe8, 0xfc, 0xd7, 0x0b, 0x20, 0xfc, 0x28, 0x0b, 0xd5,
  0x27, 0xe1, 0x25, 0xe1, 0x00, 0x28, 0xd3, 0x15, 0x10, 0x02, 0xd1, 0xe0,
  0xfb, 0x0b, 0xdb, 0xf9, 0x16, 0x13, 0x0a, 0xe3, 0x43, 0x37, 0xeb, 0x23,
  0xd9, 0xe8, 0x20, 0xe4, 0x27, 0xfc, 0xe3, 0x26, 0xd3, 0xdf, 0xe5, 0xe9,
  0xde, 0x11, 0xfe, 0x0a, 0xdc, 0xd6, 0x03, 0x5f, 0xe8, 0xfd, 0x1f, 0x0e,
  0x1f, 0x26, 0xaf, 0xe3, 0x04, 0xbe, 0xd2, 0x19, 0xec, 0x47, 0xfb, 0x0b,
  0xe3, 0x20, 0x25, 0xd9, 0x5a, 0x0e, 0x02, 0x0f, 0xe8, 0xd5, 0x52, 0x2e,
  0x7e, 0xf5, 0xfd, 0xd3, 0x1d, 0x28, 0xdb, 0x16, 0xdb, 0xcf, 0x26, 0x1a,
  0xe0, 0x30, 0xe7, 0x1d, 0xe7, 0xf6, 0xf9, 0xe0, 0xd0, 0x1f, 0xf6, 0xce,
  0xd1, 0xd6, 0x1b, 0x1a, 0xf5, 0x2c, 0xdd, 0x23, 0xe4, 0xf2, 0xe5, 0x05,
  0x2f, 0x00, 0xe6, 0xd2, 0xde, 0xe0, 0x09, 0x2d, 0x29, 0x06, 0x18, 0x05,
  0xf6, 0x1d, 0xe8, 0xe6, 0x38, 0xff, 0xf9, 0x2e, 0x02, 0xd4, 0xe9, 0xdb,
  0x05, 0xd4, 0x1b, 0x2b, 0x08, 0xd4, 0x22, 0x3a, 0xd9, 0x13, 0xec, 0x0b,
  0x2b, 0xd2, 0x42, 0xd6, 0x11, 0x2b, 0xe5, 0x07, 0xe9, 0x20, 0xd4, 0x03,
  0x28, 0xfb, 0xe5, 0x00, 0xde, 0x04, 0x09, 0x18, 0x03, 0xeb, 0xec, 0x01,
  0xee, 0xf2, 0x2b, 0x19, 0xfc, 0xd9, 0x29, 0x31, 0x01, 0xe1, 0xd3, 0x30,
  0x24, 0xd0, 0x0e, 0x15, 0x18, 0xe0, 0x04, 0xd5, 0x2f, 0x1e, 0x10, 0xd3,
  0xcf, 0xe2, 0x06, 0xef, 0xfa, 0xdf, 0x0b, 0x10, 0x03, 0x32, 0xed, 0xcf,
  0x15, 0xe6, 0x15, 0xf8, 0xe7, 0x08, 0xc2, 0x23, 0xf9, 0xd1, 0xd8, 0x03,
  0xfe, 0xf6, 0xfb, 0x29, 0xfb, 0x05, 0xda, 0x08, 0x33, 0xef, 0xe6, 0x31,
  0xfc, 0x03, 0x16, 0xf2, 0x5c, 0xf6, 0x0e, 0xda, 0xe9, 0xed, 0x00, 0x0f,
  0x35, 0xeb, 0xf1, 0xf2, 0x22, 0x32, 0xeb, 0xd6, 0x21, 0x05, 0x0b, 0x2e,
  0x3d, 0xd8, 0x17, 0x16, 0x06, 0x0d, 0xe5, 0x20, 0x2a, 0x0f, 0xd8, 0xdf,
  0x05, 0xdc, 0x06, 0xfa, 0x1e, 0x27, 0x16, 0xec, 0xf5, 0x2f, 0xe1, 0x27,
  0xca, 0xc7, 0x0b, 0x28, 0x1e, 0x36, 0xdf, 0xed, 0xfb, 0x2e, 0xf9, 0x15,
  0x25, 0x05, 0x00, 0x1b, 0x2f, 0x0e, 0x0c, 0x32, 0x23, 0xd3, 0x27, 0xf3,
  0x1d, 0x28, 0xfa, 0x01, 0xd8, 0xff, 0xd4, 0xfa, 0xe5, 0xbd, 0x08, 0xfb,
  0x32, 0x3c, 0xf7, 0xe9, 0xec, 0xcf, 0xfb, 0x17, 0x3b, 0xd0, 0xe5, 0xf3,
  0xd9, 0xf7, 0x28, 0x01, 0x42, 0xe2, 0x32, 0xf7, 0xda, 0x2f, 0x26, 0xe1,
  0x2b, 0xca, 0x17, 0x06, 0x17, 0x32, 0x18, 0xea, 0xd5, 0xe9, 0xd7, 0x04,
  0x65, 0xcd, 0x0e, 0x4b, 0x01, 0x18, 0x24, 0x09, 0xff, 0xd9, 0xe9, 0x1d,
  0x81, 0x27, 0x21, 0x68, 0xef, 0xce, 0x00, 0xe1, 0x21, 0x0c, 0xf4, 0xdb,
  0xe7, 0x11, 0xce, 0xfb, 0x32, 0x2f, 0x2f, 0xce, 0x22, 0xf4, 0x23, 0xec,
  0x3d, 0xe4, 0x1b, 0x0d, 0x33, 0xf3, 0x08, 0x23, 0xf8, 0x30, 0x39, 0xfc,
  0xd2, 0x09, 0x2c, 0x25, 0xd2, 0x24, 0xc5, 0x27, 0xf2, 0xcf, 0x32, 0x14,
  0x21, 0xf6, 0x06, 0x14, 0xe0, 0xfa, 0x2a, 0x35, 0x3b, 0x0b, 0x19, 0x2c,
  0xda, 0xd5, 0xe4, 0xef, 0x61, 0xd5, 0x1d, 0xbc, 0xdf, 0x19, 0xed, 0x2c,
  0xf8, 0x2c, 0xdc, 0x27, 0xcb, 0xdc, 0x1c, 0x17, 0x2f, 0x15, 0xd0, 0x29,
  0xcb, 0xf3, 0x25, 0x1e, 0x02, 0x0d, 0x2b, 0x0c, 0xdf, 0xdb, 0x2b, 0x1d,
  0x59, 0x27, 0x3a, 0xed, 0x05, 0xdf, 0xe7, 0x1c, 0xcc, 0xf3, 0xc9, 0xda,
  0x1f, 0x1a, 0xd6, 0xd7, 0x2b, 0x13, 0x01, 0x1f, 0xe8, 0x05, 0xe1, 0xfd,
  0xca, 0xd4, 0xe5, 0xe1, 0x0f, 0x17, 0xec, 0x16, 0x2f, 0xf1, 0x04, 0xd4,
  0xf8, 0xe2, 0xe5, 0x23, 0xe6, 0xd1, 0x45, 0xf6, 0xec, 0x3c, 0xdf, 0xe9,
  0x31, 0x35, 0xd2, 0x19, 0x06, 0xe1, 0xce, 0x2b, 0xdc, 0x0b, 0xe8, 0xdc,
  0x18, 0x32, 0x2d, 0xfd, 0x96, 0xeb, 0x37, 0x0a, 0x31, 0xff, 0x0e, 0x11,
  0x05, 0xeb, 0x04, 0xd5, 0xe4, 0xd0, 0x19, 0xf2, 0x0d, 0xdc, 0x29, 0xce,
  0xd2, 0xed, 0x2c, 0xd0, 0xde, 0x24, 0x1c, 0x31, 0xdd, 0x1f, 0x1c, 0x19,
  0xdb, 0xe8, 0x24, 0xe2, 0x12, 0xde, 0x0b, 0xfb, 0x33, 0xea, 0x06, 0xda,
  0xe5, 0xf9, 0xcd, 0xcf, 0xf5, 0xe4, 0xf6, 0xcf, 0xe4, 0xd4, 0x30, 0x12,
  0xfd, 0x2c, 0xfd, 0x2c, 0xd0, 0xef, 0xdb, 0xe5, 0xd8, 0x14, 0xef, 0x05,
  0x1b, 0xdc, 0xfa, 0xfe, 0xfc, 0x31, 0xb8, 0xd5, 0xbf, 0x02, 0x15, 0x32,
  0x14, 0xf9, 0xfd, 0xde, 0x0c, 0xd0, 0xda, 0x02, 0x3b, 0x01, 0xe4, 0x21,
  0xdd, 0x2c, 0x0f, 0xe0, 0x25, 0xea, 0x39, 0x08, 0x04, 0x2e, 0xd8, 0xf7,
  0xda, 0xf3, 0x1e, 0xdd, 0x2a, 0x25, 0xf6, 0x16, 0xdd, 0xf9, 0x0d, 0x07,
  0x3b, 0xdf, 0x0b, 0x2c, 0xd8, 0xfd, 0xd9, 0x1f, 0x30, 0xec, 0xe1, 0x08,
  0xcf, 0xde, 0x19, 0x35, 0xe6, 0xfc, 0x28, 0x19, 0xef, 0xc8, 0x2c, 0x13,
  0x06, 0x1a, 0x02, 0x32, 0x16, 0x33, 0x14, 0xf4, 0x43, 0xed, 0x10, 0x22,
  0xd5, 0x0a, 0x2e, 0x1e, 0x02, 0xd4, 0x1c, 0x03, 0xc9, 0x1a, 0xe6, 0x29,
  0xd8, 0x33, 0x2b, 0x01, 0x01, 0x1c, 0xfb, 0xe4, 0xdd, 0xd9, 0xd2, 0x2c,
  0xd2, 0x15, 0xed, 0xe6, 0xd8, 0x01, 0x01, 0xd9, 0x49, 0x04, 0xf6, 0x18,
  0xf7, 0xf2, 0x3e, 0x00, 0x63, 0x23, 0x3d, 0xd7, 0xcf, 0xfb, 0xfb, 0x21,
  0xe3, 0xe3, 0x19, 0xf4, 0x11, 0x20, 0x1e, 0x29, 0x12, 0xe1, 0x13, 0xec,
  0x22, 0xeb, 0xe6, 0xdb, 0x01, 0xe7, 0x0f, 0x33, 0xdc, 0x06, 0xf0, 0x0b,
  0x06, 0xfc, 0x32, 0xd4, 0xdb, 0x17, 0xd2, 0x02, 0xcf, 0xda, 0xd8, 0x0b,
  0x0b, 0xd6, 0x19, 0x23, 0x15, 0x0f, 0x06, 0xcd, 0x1a, 0xdf, 0x1a, 0x30,
  0xf7, 0x02, 0x2a, 0xed, 0x24, 0x23, 0x0f, 0xf4, 0xed, 0xfc, 0xcd, 0xd6,
  0xee, 0x0a, 0x2b, 0xe1, 0xea, 0x29, 0x26, 0x0d, 0xe9, 0x0b, 0x03, 0x08,
  0xde, 0x0a, 0xdd, 0x0f, 0x07, 0xfd, 0x04, 0xf4, 0xf3, 0x06, 0x1d, 0xd0,
  0xf9, 0xd9, 0xe3, 0x0b, 0x16, 0x2b, 0x29, 0xfb, 0xf2, 0x03, 0xf1, 0xd8,
  0xee, 0xe3, 0x23, 0xf9, 0x55, 0x48, 0xfc, 0xcd, 0x2b, 0x28, 0xe6, 0x05,
  0x11, 0xd0, 0xdb, 0x35, 0xe7, 0xda, 0xf5, 0x0a, 0x07, 0x2c, 0xfc, 0xf7,
  0xb7, 0xce, 0xd6, 0x21, 0xf1, 0xde, 0x26, 0xef, 0xda, 0x57, 0x00, 0xd3,
  0xf6, 0xeb, 0xe1, 0x21, 0xe3, 0xfb, 0xe6, 0x2f, 0xe4, 0x10, 0xce, 0xdb,
  0x40, 0x23, 0xe5, 0x3e, 0x2b, 0xcf, 0x23, 0xfb, 0x4a, 0x1a, 0x42, 0xf4,
  0x16, 0xd4, 0x2f, 0x23, 0xd4, 0xdf, 0x09, 0x12, 0x11, 0xfc, 0xf6, 0xea,
  0x30, 0x1e, 0x07, 0x09, 0x0e, 0xeb, 0xee, 0x0a, 0x29, 0xde, 0x02, 0xcb,
  0x11, 0xee, 0xcc, 0x19, 0x09, 0x26, 0xe4, 0xe2, 0x10, 0xff, 0xdb, 0xd8,
  0xf4, 0xcd, 0x07, 0x2c, 0x3c, 0x14, 0xe9, 0x01, 0xe0, 0xef, 0x28, 0x07,
  0x42, 0xf0, 0xeb, 0xfc, 0xfa, 0xe9, 0x18, 0x06, 0x0d, 0xfe, 0x31, 0x11,
  0xb7, 0x20, 0x34, 0x45, 0xe4, 0x1b, 0x1a, 0xe3, 0x0f, 0x34, 0xf2, 0x08,
  0xf7, 0xb5, 0xfa, 0xe9, 0xee, 0x1a, 0x05, 0x27, 0xea, 0x26, 0xd6, 0x23,
  0xf0, 0xe8, 0x0b, 0x23, 0xfa, 0x04, 0x21, 0x0a, 0x0c, 0x2e, 0x20, 0xa8,
  0x18, 0xd5, 0xfd, 0x0c, 0x28, 0x18, 0xb9, 0x1d, 0xf0, 0xf0, 0x28, 0xe2,
  0xce, 0x32, 0xff, 0xfd, 0xf4, 0x0f, 0xe2, 0xd4, 0x2a, 0xd0, 0x1f, 0x17,
  0x23, 0xf0, 0x3e, 0x1b, 0x25, 0x33, 0x05, 0xec, 0xfc, 0xdc, 0xe4, 0x08,
  0x2a, 0xff, 0x45, 0x1b, 0x0d, 0x2c, 0xd9, 0xfb, 0x17, 0xf5, 0xe4, 0x27,
  0x28, 0x25, 0x07, 0x04, 0xfd, 0x2f, 0x2b, 0x25, 0x24, 0xce, 0x29, 0x1d,
  0xbd, 0x09, 0xf5, 0x45, 0x2f, 0x08, 0x16, 0xd3, 0x28, 0xe5, 0xe4, 0x2b,
  0xee, 0xd0, 0x18, 0xf5, 0x30, 0x04, 0xf0, 0x33, 0x01, 0x25, 0xe6, 0x0e,
  0xf5, 0xd7, 0xd8, 0x29, 0xe3, 0x30, 0xdd, 0x12, 0xe4, 0xf3, 0x21, 0x2f,
  0x18, 0xfe, 0x1b, 0xfc, 0x0d, 0x44, 0xce, 0x06, 0xfb, 0xf2, 0xd9, 0xe0,
  0xec, 0x2f, 0xd3, 0x1c, 0xcf, 0x2b, 0xdd, 0xf1, 0x4b, 0xf1, 0xd3, 0x03,
  0x1a, 0xda, 0x45, 0xe5, 0x35, 0xce, 0x04, 0xa0, 0xfc, 0x01, 0xf8, 0x1b,
  0xeb, 0xcf, 0x0f, 0x01, 0xde, 0x10, 0x0e, 0xe4, 0xf8, 0x14, 0x09, 0xd4,
  0x1c, 0xf3, 0x0a, 0x18, 0xdd, 0xf9, 0xed, 0xfc, 0xe8, 0x23, 0xe5, 0x20,
  0x15, 0xeb, 0xd9, 0x09, 0x9a, 0xfd, 0xff, 0xff, 0x04, 0x00, 0x00, 0x00,
  0x00, 0x01, 0x00, 0x00, 0xfc, 0xff, 0xff, 0xff, 0xf4, 0xff, 0xff, 0xff,
  0x05, 0x00, 0x00, 0x00, 0xf7, 0xff, 0xff, 0xff, 0x2d, 0x00, 0x00, 0x00,
  0x1b, 0x00, 0x00, 0x00, 0x00, 0x00, 0x00, 0x00, 0xfd, 0xff, 0xff, 0xff,
  0x09, 0x00, 0x00, 0x00, 0x1d, 0x00, 0x00, 0x00, 0x00, 0x00, 0x00, 0x00,
  0xfb, 0xff, 0xff, 0xff, 0xf9, 0xff, 0xff, 0xff, 0x10, 0x00, 0x00, 0x00,
  0x38, 0x00, 0x00, 0x00, 0x00, 0x00, 0x00, 0x00, 0x24, 0x00, 0x00, 0x00,
  0x2e, 0x00, 0x00, 0x00, 0x1b, 0x00, 0x00, 0x00, 0x33, 0x00, 0x00, 0x00,
  0x00, 0x00, 0x00, 0x00, 0x01, 0x00, 0x00, 0x00, 0x00, 0x00, 0x00, 0x00,
  0xfa, 0xff, 0xff, 0xff, 0x1a, 0x00, 0x00, 0x00, 0x00, 0x00, 0x00, 0x00,
  0x00, 0x00, 0x00, 0x00, 0x2d, 0x00, 0x00, 0x00, 0x00, 0x00, 0x00, 0x00,
  0x0b, 0x00, 0x00, 0x00, 0x36, 0x00, 0x00, 0x00, 0x00, 0x00, 0x00, 0x00,
  0xec, 0xff, 0xff, 0xff, 0x02, 0x00, 0x00, 0x00, 0x00, 0x00, 0x00, 0x00,
  0x1f, 0x00, 0x00, 0x00, 0xf7, 0xff, 0xff, 0xff, 0x1e, 0x00, 0x00, 0x00,
  0x1e, 0x00, 0x00, 0x00, 0x0e, 0x00, 0x00, 0x00, 0x1a, 0x00, 0x00, 0x00,
  0x20, 0x00, 0x00, 0x00, 0x23, 0x00, 0x00, 0x00, 0xfb, 0xff, 0xff, 0xff,
  0x03, 0x00, 0x00, 0x00, 0x00, 0x00, 0x00, 0x00, 0x00, 0x00, 0x00, 0x00,
  0x1e, 0x00, 0x00, 0x00, 0xfc, 0xff, 0xff, 0xff, 0xfe, 0xff, 0xff, 0xff,
  0x2b, 0x00, 0x00, 0x00, 0x13, 0x00, 0x00, 0x00, 0x00, 0x00, 0x00, 0x00,
  0xfb, 0xff, 0xff, 0xff, 0x07, 0x00, 0x00, 0x00, 0x1e, 0x00, 0x00, 0x00,
  0xfa, 0xff, 0xff, 0xff, 0xfd, 0xff, 0xff, 0xff, 0x1f, 0x00, 0x00, 0x00,
  0x1e, 0x00, 0x00, 0x00, 0xf8, 0xff, 0xff, 0xff, 0xfc, 0xff, 0xff, 0xff,
  0x28, 0x00, 0x00, 0x00, 0xf7, 0xff, 0xff, 0xff, 0xa6, 0xfe, 0xff, 0xff,
  0x04, 0x00, 0x00, 0x00, 0x80, 0x00, 0x00, 0x00, 0xb4, 0xd3, 0xed, 0xf7,
  0x7f, 0x50, 0xfd, 0xf0, 0x9d, 0x1a, 0x25, 0xe6, 0xe1, 0x87, 0x22, 0x18,
  0x60, 0x11, 0x43, 0x4a, 0x32, 0xc0, 0xeb, 0x13, 0x23, 0x1b, 0x26, 0x5b,
  0x33, 0x02, 0x3b, 0x0a, 0x0a, 0xc3, 0x24, 0x62, 0xf5, 0x32, 0x40, 0xf6,
  0x32, 0x4e, 0x56, 0x09, 0xbc, 0xf1, 0xf8, 0x50, 0xc0, 0xce, 0x3f, 0xe6,
  0x2d, 0xde, 0x01, 0x59, 0x21, 0xf7, 0x63, 0x61, 0xfd, 0x03, 0x67, 0x27,
  0x35, 0x3e, 0x35, 0x50, 0xc7, 0xae, 0xdd, 0x2d, 0x15, 0xc3, 0x09, 0xd7,
  0x2d, 0x78, 0x9f, 0xef, 0xdc, 0x8f, 0xb3, 0xe5, 0xdd, 0x3a, 0xfc, 0x38,
  0xc8, 0xeb, 0x0c, 0x8e, 0x01, 0x52, 0xdd, 0xed, 0x1e, 0x4e, 0x01, 0xbe,
  0x20, 0x94, 0xab, 0x78, 0xf3, 0xa8, 0x9d, 0xeb, 0x1e, 0xe2, 0xd6, 0x9c,
  0x4b, 0x50, 0xc2, 0xe4, 0x34, 0x32, 0x3d, 0xe3, 0xdc, 0x4c, 0xc4, 0xb6,
  0x4e, 0x24, 0x08, 0x16, 0x32, 0xff, 0xff, 0xff, 0x04, 0x00, 0x00, 0x00,
  0x08, 0x00, 0x00, 0x00, 0x15, 0x00, 0x00, 0x00, 0xeb, 0xff, 0xff, 0xff,
  0xa8, 0xf7, 0xff, 0xff, 0xac, 0xf7, 0xff, 0xff, 0x0f, 0x00, 0x00, 0x00,
  0x4d, 0x4c, 0x49, 0x52, 0x20, 0x43, 0x6f, 0x6e, 0x76, 0x65, 0x72, 0x74,
  0x65, 0x64, 0x2e, 0x00, 0x01, 0x00, 0x00, 0x00, 0x14, 0x00, 0x00, 0x00,
  0x00, 0x00, 0x0e, 0x00, 0x18, 0x00, 0x14, 0x00, 0x10, 0x00, 0x0c, 0x00,
  0x08, 0x00, 0x04, 0x00, 0x0e, 0x00, 0x00, 0x00, 0x14, 0x00, 0x00, 0x00,
  0x1c, 0x00, 0x00, 0x00, 0x7c, 0x01, 0x00, 0x00, 0x80, 0x01, 0x00, 0x00,
  0x84, 0x01, 0x00, 0x00, 0x04, 0x00, 0x00, 0x00, 0x6d, 0x61, 0x69, 0x6e,
  0x00, 0x00, 0x00, 0x00, 0x06, 0x00, 0x00, 0x00, 0x44, 0x01, 0x00, 0x00,
  0xf4, 0x00, 0x00, 0x00, 0xa8, 0x00, 0x00, 0x00, 0x70, 0x00, 0x00, 0x00,
  0x34, 0x00, 0x00, 0x00, 0x10, 0x00, 0x00, 0x00, 0x00, 0x00, 0x0a, 0x00,
  0x10, 0x00, 0x0c, 0x00, 0x08, 0x00, 0x04, 0x00, 0x0a, 0x00, 0x00, 0x00,
  0x0c, 0x00, 0x00, 0x00, 0x10, 0x00, 0x00, 0x00, 0x03, 0x00, 0x00, 0x00,
  0x01, 0x00, 0x00, 0x00, 0x0c, 0x00, 0x00, 0x00, 0x01, 0x00, 0x00, 0x00,
  0x0b, 0x00, 0x00, 0x00, 0x5a, 0xff, 0xff, 0xff, 0x1c, 0x00, 0x00, 0x00,
  0x00, 0x00, 0x00, 0x09, 0x1c, 0x00, 0x00, 0x00, 0x20, 0x00, 0x00, 0x00,
  0x02, 0x00, 0x00, 0x00, 0x00, 0x00, 0x06, 0x00, 0x08, 0x00, 0x04, 0x00,
  0x06, 0x00, 0x00, 0x00, 0x00, 0x00, 0x80, 0x3f, 0x01, 0x00, 0x00, 0x00,
  0x0b, 0x00, 0x00, 0x00, 0x01, 0x00, 0x00, 0x00, 0x0a, 0x00, 0x00, 0x00,
  0x92, 0xff, 0xff, 0xff, 0x14, 0x00, 0x00, 0x00, 0x00, 0x00, 0x00, 0x08,
  0x10, 0x00, 0x00, 0x00, 0x14, 0x00, 0x00, 0x00, 0x01, 0x00, 0x00, 0x00,
  0x98, 0xf8, 0xff, 0xff, 0x01, 0x00, 0x00, 0x00, 0x0a, 0x00, 0x00, 0x00,
  0x03, 0x00, 0x00, 0x00, 0x09, 0x00, 0x00, 0x00, 0x02, 0x00, 0x00, 0x00,
  0x01, 0x00, 0x00, 0x00, 0xc6, 0xff, 0xff, 0xff, 0x14, 0x00, 0x00, 0x00,
  0x00, 0x00, 0x00, 0x08, 0x14, 0x00, 0x00, 0x00, 0x18, 0x00, 0x00, 0x00,
  0x01, 0x00, 0x00, 0x00, 0xb6, 0xff, 0xff, 0xff, 0x00, 0x00, 0x00, 0x01,
  0x01, 0x00, 0x00, 0x00, 0x09, 0x00, 0x00, 0x00, 0x03, 0x00, 0x00, 0x00,
  0x08, 0x00, 0x00, 0x00, 0x04, 0x00, 0x00, 0x00, 0x03, 0x00, 0x00, 0x00,
  0x00, 0x00, 0x0e, 0x00, 0x1a, 0x00, 0x14, 0x00, 0x10, 0x00, 0x0c, 0x00,
  0x0b, 0x00, 0x04, 0x00, 0x0e, 0x00, 0x00, 0x00, 0x1c, 0x00, 0x00, 0x00,
  0x00, 0x00, 0x00, 0x08, 0x1c, 0x00, 0x00, 0x00, 0x20, 0x00, 0x00, 0x00,
  0x01, 0x00, 0x00, 0x00, 0x00, 0x00, 0x06, 0x00, 0x08, 0x00, 0x07, 0x00,
  0x06, 0x00, 0x00, 0x00, 0x00, 0x00, 0x00, 0x01, 0x01, 0x00, 0x00, 0x00,
  0x08, 0x00, 0x00, 0x00, 0x03, 0x00, 0x00, 0x00, 0x07, 0x00, 0x00, 0x00,
  0x06, 0x00, 0x00, 0x00, 0x05, 0x00, 0x00, 0x00, 0x00, 0x00, 0x0a, 0x00,
  0x0c, 0x00, 0x00, 0x00, 0x08, 0x00, 0x04, 0x00, 0x0a, 0x00, 0x00, 0x00,
  0x08, 0x00, 0x00, 0x00, 0x0c, 0x00, 0x00, 0x00, 0x01, 0x00, 0x00, 0x00,
  0x07, 0x00, 0x00, 0x00, 0x01, 0x00, 0x00, 0x00, 0x00, 0x00, 0x00, 0x00,
  0x01, 0x00, 0x00, 0x00, 0x0c, 0x00, 0x00, 0x00, 0x01, 0x00, 0x00, 0x00,
  0x00, 0x00, 0x00, 0x00, 0x0d, 0x00, 0x00, 0x00, 0x60, 0x06, 0x00, 0x00,
  0xc4, 0x05, 0x00, 0x00, 0x3c, 0x05, 0x00, 0x00, 0xc0, 0x04, 0x00, 0x00,
  0x54, 0x04, 0x00, 0x00, 0xd8, 0x03, 0x00, 0x00, 0x6c, 0x03, 0x00, 0x00,
  0xf8, 0x02, 0x00, 0x00, 0x2c, 0x02, 0x00, 0x00, 0x78, 0x01, 0x00, 0x00,
  0xdc, 0x00, 0x00, 0x00, 0x60, 0x00, 0x00, 0x00, 0x04, 0x00, 0x00, 0x00,
  0xea, 0xf9, 0xff, 0xff, 0x00, 0x00, 0x00, 0x01, 0x14, 0x00, 0x00, 0x00,
  0x1c, 0x00, 0x00, 0x00, 0x1c, 0x00, 0x00, 0x00, 0x0d, 0x00, 0x00, 0x00,
  0x34, 0x00, 0x00, 0x00, 0x02, 0x00, 0x00, 0x00, 0xff, 0xff, 0xff, 0xff,
  0x02, 0x00, 0x00, 0x00, 0xd4, 0xf9, 0xff, 0xff, 0x19, 0x00, 0x00, 0x00,
  0x53, 0x74, 0x61, 0x74, 0x65, 0x66, 0x75, 0x6c, 0x50, 0x61, 0x72, 0x74,
  0x69, 0x74, 0x69, 0x6f, 0x6e, 0x65, 0x64, 0x43, 0x61, 0x6c, 0x6c, 0x3a,
  0x30, 0x00, 0x00, 0x00, 0x02, 0x00, 0x00, 0x00, 0x01, 0x00, 0x00, 0x00,
  0x02, 0x00, 0x00, 0x00, 0x8e, 0xfd, 0xff, 0xff, 0x00, 0x00, 0x00, 0x01,
  0x18, 0x00, 0x00, 0x00, 0x20, 0x00, 0x00, 0x00, 0x3c, 0x00, 0x00, 0x00,
  0x0c, 0x00, 0x00, 0x00, 0x00, 0x00, 0x00, 0x09, 0x50, 0x00, 0x00, 0x00,
  0x02, 0x00, 0x00, 0x00, 0xff, 0xff, 0xff, 0xff, 0x02, 0x00, 0x00, 0x00,
  0xd4, 0xfa, 0xff, 0xff, 0x08, 0x00, 0x00, 0x00, 0x10, 0x00, 0x00, 0x00,
  0x01, 0x00, 0x00, 0x00, 0x80, 0xff, 0xff, 0xff, 0xff, 0xff, 0xff, 0xff,
  0x01, 0x00, 0x00, 0x00, 0x00, 0x00, 0x80, 0x3b, 0x1a, 0x00, 0x00, 0x00,
  0x53, 0x74, 0x61, 0x74, 0x65, 0x66, 0x75, 0x6c, 0x50, 0x61, 0x72, 0x74,
  0x69, 0x74, 0x69, 0x6f, 0x6e, 0x65, 0x64, 0x43, 0x61, 0x6c, 0x6c, 0x3a,
  0x30, 0x31, 0x00, 0x00, 0x02, 0x00, 0x00, 0x00, 0x01, 0x00, 0x00, 0x00,
  0x02, 0x00, 0x00, 0x00, 0x06, 0xfe, 0xff, 0xff, 0x00, 0x00, 0x00, 0x01,
  0x18, 0x00, 0x00, 0x00, 0x20, 0x00, 0x00, 0x00, 0x3c, 0x00, 0x00, 0x00,
  0x0b, 0x00, 0x00, 0x00, 0x00, 0x00, 0x00, 0x09, 0x70, 0x00, 0x00, 0x00,
  0x02, 0x00, 0x00, 0x00, 0xff, 0xff, 0xff, 0xff, 0x02, 0x00, 0x00, 0x00,
  0x4c, 0xfb, 0xff, 0xff, 0x08, 0x00, 0x00, 0x00, 0x10, 0x00, 0x00, 0x00,
  0x01, 0x00, 0x00, 0x00, 0xdb, 0xff, 0xff, 0xff, 0xff, 0xff, 0xff, 0xff,
  0x01, 0x00, 0x00, 0x00, 0xe0, 0x9d, 0xb8, 0x40, 0x38, 0x00, 0x00, 0x00,
  0x73, 0x65, 0x71, 0x75, 0x65, 0x6e, 0x74, 0x69, 0x61, 0x6c, 0x5f, 0x32,
  0x2f, 0x64, 0x65, 0x6e, 0x73, 0x65, 0x5f, 0x38, 0x2f, 0x4d, 0x61, 0x74,
  0x4d, 0x75, 0x6c, 0x3b, 0x73, 0x65, 0x71, 0x75, 0x65, 0x6e, 0x74, 0x69,
  0x61, 0x6c, 0x5f, 0x32, 0x2f, 0x64, 0x65, 0x6e, 0x73, 0x65, 0x5f, 0x38,
  0x2f, 0x42, 0x69, 0x61, 0x73, 0x41, 0x64, 0x64, 0x00, 0x00, 0x00, 0x00,
  0x02, 0x00, 0x00, 0x00, 0x01, 0x00, 0x00, 0x00, 0x02, 0x00, 0x00, 0x00,
  0x9e, 0xfe, 0xff, 0xff, 0x00, 0x00, 0x00, 0x01, 0x18, 0x00, 0x00, 0x00,
  0x20, 0x00, 0x00, 0x00, 0x3c, 0x00, 0x00, 0x00, 0x0a, 0x00, 0x00, 0x00,
  0x00, 0x00, 0x00, 0x09, 0x88, 0x00, 0x00, 0x00, 0x02, 0x00, 0x00, 0x00,
  0xff, 0xff, 0xff, 0xff, 0x40, 0x00, 0x00, 0x00, 0xe4, 0xfb, 0xff, 0xff,
  0x08, 0x00, 0x00, 0x00, 0x10, 0x00, 0x00, 0x00, 0x01, 0x00, 0x00, 0x00,
  0x80, 0xff, 0xff, 0xff, 0xff, 0xff, 0xff, 0xff, 0x01, 0x00, 0x00, 0x00,
  0x74, 0x1d, 0x65, 0x3f, 0x52, 0x00, 0x00, 0x00, 0x73, 0x65, 0x71, 0x75,
  0x65, 0x6e, 0x74, 0x69, 0x61, 0x6c, 0x5f, 0x32, 0x2f, 0x64, 0x65, 0x6e,
  0x73, 0x65, 0x5f, 0x37, 0x2f, 0x4d, 0x61, 0x74, 0x4d, 0x75, 0x6c, 0x3b,
  0x73, 0x65, 0x71, 0x75, 0x65, 0x6e, 0x74, 0x69, 0x61, 0x6c, 0x5f, 0x32,
  0x2f, 0x64, 0x65, 0x6e, 0x73, 0x65, 0x5f, 0x37, 0x2f, 0x52, 0x65, 0x6c,
  0x75, 0x3b, 0x73, 0x65, 0x71, 0x75, 0x65, 0x6e, 0x74, 0x69, 0x61, 0x6c,
  0x5f, 0x32, 0x2f, 0x64, 0x65, 0x6e, 0x73, 0x65, 0x5f, 0x37, 0x2f, 0x42,
  0x69, 0x61, 0x73, 0x41, 0x64, 0x64, 0x00, 0x00, 0x02, 0x00, 0x00, 0x00,
  0x01, 0x00, 0x00, 0x00, 0x40, 0x00, 0x00, 0x00, 0x4e, 0xff, 0xff, 0xff,
  0x00, 0x00, 0x00, 0x01, 0x18, 0x00, 0x00, 0x00, 0x20, 0x00, 0x00, 0x00,
  0x3c, 0x00, 0x00, 0x00, 0x09, 0x00, 0x00, 0x00, 0x00, 0x00, 0x00, 0x09,
  0x88, 0x00, 0x00, 0x00, 0x02, 0x00, 0x00, 0x00, 0xff, 0xff, 0xff, 0xff,
  0x20, 0x00, 0x00, 0x00, 0x94, 0xfc, 0xff, 0xff, 0x08, 0x00, 0x00, 0x00,
  0x10, 0x00, 0x00, 0x00, 0x01, 0x00, 0x00, 0x00, 0x80, 0xff, 0xff, 0xff,
  0xff, 0xff, 0xff, 0xff, 0x01, 0x00, 0x00, 0x00, 0x16, 0x6e, 0x42, 0x3f,
  0x52, 0x00, 0x00, 0x00, 0x73, 0x65, 0x71, 0x75, 0x65, 0x6e, 0x74, 0x69,
  0x61, 0x6c, 0x5f, 0x32, 0x2f, 0x64, 0x65, 0x6e, 0x73, 0x65, 0x5f, 0x36,
  0x2f, 0x4d, 0x61, 0x74, 0x4d, 0x75, 0x6c, 0x3b, 0x73, 0x65, 0x71, 0x75,
  0x65, 0x6e, 0x74, 0x69, 0x61, 0x6c, 0x5f, 0x32, 0x2f, 0x64, 0x65, 0x6e,
  0x73, 0x65, 0x5f, 0x36, 0x2f, 0x52, 0x65, 0x6c, 0x75, 0x3b, 0x73, 0x65,
  0x71, 0x75, 0x65, 0x6e, 0x74, 0x69, 0x61, 0x6c, 0x5f, 0x32, 0x2f, 0x64,
  0x65, 0x6e, 0x73, 0x65, 0x5f, 0x36, 0x2f, 0x42, 0x69, 0x61, 0x73, 0x41,
  0x64, 0x64, 0x00, 0x00, 0x02, 0x00, 0x00, 0x00, 0x01, 0x00, 0x00, 0x00,
  0x20, 0x00, 0x00, 0x00, 0x00, 0x00, 0x16, 0x00, 0x20, 0x00, 0x1c, 0x00,
  0x1b, 0x00, 0x14, 0x00, 0x10, 0x00, 0x0c, 0x00, 0x00, 0x00, 0x00, 0x00,
  0x08, 0x00, 0x07, 0x00, 0x16, 0x00, 0x00, 0x00, 0x00, 0x00, 0x00, 0x01,
  0x18, 0x00, 0x00, 0x00, 0x20, 0x00, 0x00, 0x00, 0x40, 0x00, 0x00, 0x00,
  0x08, 0x00, 0x00, 0x00, 0x00, 0x00, 0x00, 0x09, 0x48, 0x00, 0x00, 0x00,
  0x02, 0x00, 0x00, 0x00, 0xff, 0xff, 0xff, 0xff, 0x05, 0x00, 0x00, 0x00,
  0x5c, 0xfd, 0xff, 0xff, 0x08, 0x00, 0x00, 0x00, 0x14, 0x00, 0x00, 0x00,
  0x01, 0x00, 0x00, 0x00, 0x80, 0xff, 0xff, 0xff, 0xff, 0xff, 0xff, 0xff,
  0x00, 0x00, 0x00, 0x00, 0x01, 0x00, 0x00, 0x00, 0xc8, 0x18, 0xb9, 0x3f,
  0x0c, 0x00, 0x00, 0x00, 0x74, 0x66, 0x6c, 0x2e, 0x71, 0x75, 0x61, 0x6e,
  0x74, 0x69, 0x7a, 0x65, 0x00, 0x00, 0x00, 0x00, 0x02, 0x00, 0x00, 0x00,
  0x01, 0x00, 0x00, 0x00, 0x05, 0x00, 0x00, 0x00, 0xd2, 0xfd, 0xff, 0xff,
  0x00, 0x00, 0x00, 0x01, 0x14, 0x00, 0x00, 0x00, 0x30, 0x00, 0x00, 0x00,
  0x07, 0x00, 0x00, 0x00, 0x00, 0x00, 0x00, 0x09, 0x44, 0x00, 0x00, 0x00,
  0xbc, 0xfd, 0xff, 0xff, 0x08, 0x00, 0x00, 0x00, 0x10, 0x00, 0x00, 0x00,
  0x01, 0x00, 0x00, 0x00, 0x00, 0x00, 0x00, 0x00, 0x00, 0x00, 0x00, 0x00,
  0x01, 0x00, 0x00, 0x00, 0xf5, 0x96, 0xa4, 0x3b, 0x1b, 0x00, 0x00, 0x00,
  0x73, 0x65, 0x71, 0x75, 0x65, 0x6e, 0x74, 0x69, 0x61, 0x6c, 0x5f, 0x32,
  0x2f, 0x64, 0x65, 0x6e, 0x73, 0x65, 0x5f, 0x36, 0x2f, 0x4d, 0x61, 0x74,
  0x4d, 0x75, 0x6c, 0x00, 0x02, 0x00, 0x00, 0x00, 0x20, 0x00, 0x00, 0x00,
  0x05, 0x00, 0x00, 0x00, 0x3a, 0xfe, 0xff, 0xff, 0x00, 0x00, 0x00, 0x01,
  0x14, 0x00, 0x00, 0x00, 0x34, 0x00, 0x00, 0x00, 0x06, 0x00, 0x00, 0x00,
  0x00, 0x00, 0x00, 0x02, 0x58, 0x00, 0x00, 0x00, 0x24, 0xfe, 0xff, 0xff,
  0x08, 0x00, 0x00, 0x00, 0x14, 0x00, 0x00, 0x00, 0x01, 0x00, 0x00, 0x00,
  0x00, 0x00, 0x00, 0x00, 0x00, 0x00, 0x00, 0x00, 0x00, 0x00, 0x00, 0x00,
  0x01, 0x00, 0x00, 0x00, 0x0c, 0x02, 0xee, 0x3b, 0x2b, 0x00, 0x00, 0x00,
  0x73, 0x65, 0x71, 0x75, 0x65, 0x6e, 0x74, 0x69, 0x61, 0x6c, 0x5f, 0x32,
  0x2f, 0x64, 0x65, 0x6e, 0x73, 0x65, 0x5f, 0x36, 0x2f, 0x42, 0x69, 0x61,
  0x73, 0x41, 0x64, 0x64, 0x2f, 0x52, 0x65, 0x61, 0x64, 0x56, 0x61, 0x72,
  0x69, 0x61, 0x62, 0x6c, 0x65, 0x4f, 0x70, 0x00, 0x01, 0x00, 0x00, 0x00,
  0x20, 0x00, 0x00, 0x00, 0xb2, 0xfe, 0xff, 0xff, 0x00, 0x00, 0x00, 0x01,
  0x14, 0x00, 0x00, 0x00, 0x30, 0x00, 0x00, 0x00, 0x05, 0x00, 0x00, 0x00,
  0x00, 0x00, 0x00, 0x09, 0x44, 0x00, 0x00, 0x00, 0x9c, 0xfe, 0xff, 0xff,
  0x08, 0x00, 0x00, 0x00, 0x10, 0x00, 0x00, 0x00, 0x01, 0x00, 0x00, 0x00,
  0x00, 0x00, 0x00, 0x00, 0x00, 0x00, 0x00, 0x00, 0x01, 0x00, 0x00, 0x00,
  0x5e, 0x4e, 0x9f, 0x3b, 0x1b, 0x00, 0x00, 0x00, 0x73, 0x65, 0x71, 0x75,
  0x65, 0x6e, 0x74, 0x69, 0x61, 0x6c, 0x5f, 0x32, 0x2f, 0x64, 0x65, 0x6e,
  0x73, 0x65, 0x5f, 0x37, 0x2f, 0x4d, 0x61, 0x74, 0x4d, 0x75, 0x6c, 0x00,
  0x02, 0x00, 0x00, 0x00, 0x40, 0x00, 0x00, 0x00, 0x20, 0x00, 0x00, 0x00,
  0x1a, 0xff, 0xff, 0xff, 0x00, 0x00, 0x00, 0x01, 0x14, 0x00, 0x00, 0x00,
  0x34, 0x00, 0x00, 0x00, 0x04, 0x00, 0x00, 0x00, 0x00, 0x00, 0x00, 0x02,
  0x58, 0x00, 0x00, 0x00, 0x04, 0xff, 0xff, 0xff, 0x08, 0x00, 0x00, 0x00,
  0x14, 0x00, 0x00, 0x00, 0x01, 0x00, 0x00, 0x00, 0x00, 0x00, 0x00, 0x00,
  0x00, 0x00, 0x00, 0x00, 0x00, 0x00, 0x00, 0x00, 0x01, 0x00, 0x00, 0x00,
  0xc9, 0xfb, 0x71, 0x3b, 0x2b, 0x00, 0x00, 0x00, 0x73, 0x65, 0x71, 0x75,
  0x65, 0x6e, 0x74, 0x69, 0x61, 0x6c, 0x5f, 0x32, 0x2f, 0x64, 0x65, 0x6e,
  0x73, 0x65, 0x5f, 0x37, 0x2f, 0x42, 0x69, 0x61, 0x73, 0x41, 0x64, 0x64,
  0x2f, 0x52, 0x65, 0x61, 0x64, 0x56, 0x61, 0x72, 0x69, 0x61, 0x62, 0x6c,
  0x65, 0x4f, 0x70, 0x00, 0x01, 0x00, 0x00, 0x00, 0x40, 0x00, 0x00, 0x00,
  0x92, 0xff, 0xff, 0xff, 0x00, 0x00, 0x00, 0x01, 0x14, 0x00, 0x00, 0x00,
  0x34, 0x00, 0x00, 0x00, 0x03, 0x00, 0x00, 0x00, 0x00, 0x00, 0x00, 0x09,
  0x48, 0x00, 0x00, 0x00, 0x7c, 0xff, 0xff, 0xff, 0x08, 0x00, 0x00, 0x00,
  0x14, 0x00, 0x00, 0x00, 0x01, 0x00, 0x00, 0x00, 0x00, 0x00, 0x00, 0x00,
  0x00, 0x00, 0x00, 0x00, 0x00, 0x00, 0x00, 0x00, 0x01, 0x00, 0x00, 0x00,
  0xc2, 0xa4, 0xa0, 0x3b, 0x1b, 0x00, 0x00, 0x00, 0x73, 0x65, 0x71, 0x75,
  0x65, 0x6e, 0x74, 0x69, 0x61, 0x6c, 0x5f, 0x32, 0x2f, 0x64, 0x65, 0x6e,
  0x73, 0x65, 0x5f, 0x38, 0x2f, 0x4d, 0x61, 0x74, 0x4d, 0x75, 0x6c, 0x00,
  0x02, 0x00, 0x00, 0x00, 0x02, 0x00, 0x00, 0x00, 0x40, 0x00, 0x00, 0x00,
  0x00, 0x00, 0x16, 0x00, 0x1c, 0x00, 0x18, 0x00, 0x17, 0x00, 0x10, 0x00,
  0x0c, 0x00, 0x08, 0x00, 0x00, 0x00, 0x00, 0x00, 0x00, 0x00, 0x07, 0x00,
  0x16, 0x00, 0x00, 0x00, 0x00, 0x00, 0x00, 0x01, 0x20, 0x00, 0x00, 0x00,
  0x3c, 0x00, 0x00, 0x00, 0x02, 0x00, 0x00, 0x00, 0x00, 0x00, 0x00, 0x02,
  0x60, 0x00, 0x00, 0x00, 0x0c, 0x00, 0x0c, 0x00, 0x00, 0x00, 0x00, 0x00,
  0x08, 0x00, 0x04, 0x00, 0x0c, 0x00, 0x00, 0x00, 0x08, 0x00, 0x00, 0x00,
  0x10, 0x00, 0x00, 0x00, 0x01, 0x00, 0x00, 0x00, 0x00, 0x00, 0x00, 0x00,
  0x00, 0x00, 0x00, 0x00, 0x01, 0x00, 0x00, 0x00, 0xdd, 0xc5, 0x8f, 0x3b,
  0x2b, 0x00, 0x00, 0x00, 0x73, 0x65, 0x71, 0x75, 0x65, 0x6e, 0x74, 0x69,
  0x61, 0x6c, 0x5f, 0x32, 0x2f, 0x64, 0x65, 0x6e, 0x73, 0x65, 0x5f, 0x38,
  0x2f, 0x42, 0x69, 0x61, 0x73, 0x41, 0x64, 0x64, 0x2f, 0x52, 0x65, 0x61,
  0x64, 0x56, 0x61, 0x72, 0x69, 0x61, 0x62, 0x6c, 0x65, 0x4f, 0x70, 0x00,
  0x01, 0x00, 0x00, 0x00, 0x02, 0x00, 0x00, 0x00, 0x00, 0x00, 0x16, 0x00,
  0x1c, 0x00, 0x18, 0x00, 0x00, 0x00, 0x14, 0x00, 0x10, 0x00, 0x0c, 0x00,
  0x00, 0x00, 0x00, 0x00, 0x08, 0x00, 0x07, 0x00, 0x16, 0x00, 0x00, 0x00,
  0x00, 0x00, 0x00, 0x01, 0x14, 0x00, 0x00, 0x00, 0x20, 0x00, 0x00, 0x00,
  0x20, 0x00, 0x00, 0x00, 0x01, 0x00, 0x00, 0x00, 0x3c, 0x00, 0x00, 0x00,
  0x02, 0x00, 0x00, 0x00, 0xff, 0xff, 0xff, 0xff, 0x05, 0x00, 0x00, 0x00,
  0x04, 0x00, 0x04, 0x00, 0x04, 0x00, 0x00, 0x00, 0x1f, 0x00, 0x00, 0x00,
  0x73, 0x65, 0x72, 0x76, 0x69, 0x6e, 0x67, 0x5f, 0x64, 0x65, 0x66, 0x61,
  0x75, 0x6c, 0x74, 0x5f, 0x64, 0x65, 0x6e, 0x73, 0x65, 0x5f, 0x36, 0x5f,
  0x69, 0x6e, 0x70, 0x75, 0x74, 0x3a, 0x30, 0x00, 0x02, 0x00, 0x00, 0x00,
  0x01, 0x00, 0x00, 0x00, 0x05, 0x00, 0x00, 0x00, 0x04, 0x00, 0x00, 0x00,
  0x58, 0x00, 0x00, 0x00, 0x38, 0x00, 0x00, 0x00, 0x18, 0x00, 0x00, 0x00,
  0x04, 0x00, 0x00, 0x00, 0xe0, 0xff, 0xff, 0xff, 0x06, 0x00, 0x00, 0x00,
  0x02, 0x00, 0x00, 0x00, 0x00, 0x00, 0x00, 0x06, 0xf0, 0xff, 0xff, 0xff,
  0x19, 0x00, 0x00, 0x00, 0x02, 0x00, 0x00, 0x00, 0x00, 0x00, 0x00, 0x19,
  0x0c, 0x00, 0x10, 0x00, 0x0f, 0x00, 0x00, 0x00, 0x08, 0x00, 0x04, 0x00,
  0x0c, 0x00, 0x00, 0x00, 0x09, 0x00, 0x00, 0x00, 0x04, 0x00, 0x00, 0x00,
  0x00, 0x00, 0x00, 0x09, 0x0c, 0x00, 0x0c, 0x00, 0x0b, 0x00, 0x00, 0x00,
  0x00, 0x00, 0x04, 0x00, 0x0c, 0x00, 0x00, 0x00, 0x72, 0x00, 0x00, 0x00,
  0x00, 0x00, 0x00, 0x72
};
unsigned int FFT_model_fullint_quantized_tflite_len = 5584;
