unsigned char FFT_model_quantized_tflite[] = {
  0x20, 0x00, 0x00, 0x00, 0x54, 0x46, 0x4c, 0x33, 0x00, 0x00, 0x00, 0x00,
  0x14, 0x00, 0x20, 0x00, 0x1c, 0x00, 0x18, 0x00, 0x14, 0x00, 0x10, 0x00,
  0x0c, 0x00, 0x00, 0x00, 0x08, 0x00, 0x04, 0x00, 0x14, 0x00, 0x00, 0x00,
  0x1c, 0x00, 0x00, 0x00, 0x88, 0x00, 0x00, 0x00, 0xe0, 0x00, 0x00, 0x00,
  0xb0, 0x0c, 0x00, 0x00, 0xc0, 0x0c, 0x00, 0x00, 0x30, 0x15, 0x00, 0x00,
  0x03, 0x00, 0x00, 0x00, 0x01, 0x00, 0x00, 0x00, 0x04, 0x00, 0x00, 0x00,
  0xfa, 0xf2, 0xff, 0xff, 0x0c, 0x00, 0x00, 0x00, 0x1c, 0x00, 0x00, 0x00,
  0x38, 0x00, 0x00, 0x00, 0x0f, 0x00, 0x00, 0x00, 0x73, 0x65, 0x72, 0x76,
  0x69, 0x6e, 0x67, 0x5f, 0x64, 0x65, 0x66, 0x61, 0x75, 0x6c, 0x74, 0x00,
  0x01, 0x00, 0x00, 0x00, 0x04, 0x00, 0x00, 0x00, 0x94, 0xff, 0xff, 0xff,
  0x0c, 0x00, 0x00, 0x00, 0x04, 0x00, 0x00, 0x00, 0x07, 0x00, 0x00, 0x00,
  0x64, 0x65, 0x6e, 0x73, 0x65, 0x5f, 0x38, 0x00, 0x01, 0x00, 0x00, 0x00,
  0x04, 0x00, 0x00, 0x00, 0x02, 0xf3, 0xff, 0xff, 0x04, 0x00, 0x00, 0x00,
  0x0d, 0x00, 0x00, 0x00, 0x64, 0x65, 0x6e, 0x73, 0x65, 0x5f, 0x36, 0x5f,
  0x69, 0x6e, 0x70, 0x75, 0x74, 0x00, 0x00, 0x00, 0x02, 0x00, 0x00, 0x00,
  0x34, 0x00, 0x00, 0x00, 0x04, 0x00, 0x00, 0x00, 0xdc, 0xff, 0xff, 0xff,
  0x0f, 0x00, 0x00, 0x00, 0x04, 0x00, 0x00, 0x00, 0x13, 0x00, 0x00, 0x00,
  0x43, 0x4f, 0x4e, 0x56, 0x45, 0x52, 0x53, 0x49, 0x4f, 0x4e, 0x5f, 0x4d,
  0x45, 0x54, 0x41, 0x44, 0x41, 0x54, 0x41, 0x00, 0x08, 0x00, 0x0c, 0x00,
  0x08, 0x00, 0x04, 0x00, 0x08, 0x00, 0x00, 0x00, 0x0e, 0x00, 0x00, 0x00,
  0x04, 0x00, 0x00, 0x00, 0x13, 0x00, 0x00, 0x00, 0x6d, 0x69, 0x6e, 0x5f,
  0x72, 0x75, 0x6e, 0x74, 0x69, 0x6d, 0x65, 0x5f, 0x76, 0x65, 0x72, 0x73,
  0x69, 0x6f, 0x6e, 0x00, 0x10, 0x00, 0x00, 0x00, 0xcc, 0x0b, 0x00, 0x00,
  0xc4, 0x0b, 0x00, 0x00, 0xac, 0x0b, 0x00, 0x00, 0x1c, 0x0b, 0x00, 0x00,
  0x0c, 0x0a, 0x00, 0x00, 0xfc, 0x01, 0x00, 0x00, 0x6c, 0x01, 0x00, 0x00,
  0xbc, 0x00, 0x00, 0x00, 0xb4, 0x00, 0x00, 0x00, 0xac, 0x00, 0x00, 0x00,
  0xa4, 0x00, 0x00, 0x00, 0x9c, 0x00, 0x00, 0x00, 0x94, 0x00, 0x00, 0x00,
  0x8c, 0x00, 0x00, 0x00, 0x6c, 0x00, 0x00, 0x00, 0x04, 0x00, 0x00, 0x00,
  0xbe, 0xf3, 0xff, 0xff, 0x04, 0x00, 0x00, 0x00, 0x58, 0x00, 0x00, 0x00,
  0x0c, 0x00, 0x00, 0x00, 0x08, 0x00, 0x0e, 0x00, 0x08, 0x00, 0x04, 0x00,
  0x08, 0x00, 0x00, 0x00, 0x10, 0x00, 0x00, 0x00, 0x28, 0x00, 0x00, 0x00,
  0x00, 0x00, 0x06, 0x00, 0x08, 0x00, 0x04, 0x00, 0x06, 0x00, 0x00, 0x00,
  0x04, 0x00, 0x00, 0x00, 0x01, 0x00, 0x00, 0x00, 0xeb, 0x03, 0x00, 0x00,
  0x00, 0x00, 0x0a, 0x00, 0x10, 0x00, 0x0c, 0x00, 0x08, 0x00, 0x04, 0x00,
  0x0a, 0x00, 0x00, 0x00, 0x02, 0x00, 0x00, 0x00, 0x02, 0x00, 0x00, 0x00,
  0x04, 0x00, 0x00, 0x00, 0x06, 0x00, 0x00, 0x00, 0x32, 0x2e, 0x31, 0x33,
  0x2e, 0x30, 0x00, 0x00, 0x22, 0xf4, 0xff, 0xff, 0x04, 0x00, 0x00, 0x00,
  0x10, 0x00, 0x00, 0x00, 0x31, 0x2e, 0x31, 0x34, 0x2e, 0x30, 0x00, 0x00,
  0x00, 0x00, 0x00, 0x00, 0x00, 0x00, 0x00, 0x00, 0xa0, 0xec, 0xff, 0xff,
  0xa4, 0xec, 0xff, 0xff, 0xa8, 0xec, 0xff, 0xff, 0xac, 0xec, 0xff, 0xff,
  0xb0, 0xec, 0xff, 0xff, 0xb4, 0xec, 0xff, 0xff, 0x56, 0xf4, 0xff, 0xff,
  0x04, 0x00, 0x00, 0x00, 0xa0, 0x00, 0x00, 0x00, 0x3c, 0xe4, 0xe5, 0xb9,
  0xe0, 0xde, 0xbe, 0x2b, 0xf8, 0x46, 0xc1, 0x01, 0x1b, 0x02, 0x2b, 0x04,
  0x1b, 0xee, 0xdf, 0x36, 0xec, 0xe6, 0x37, 0x37, 0xb9, 0x49, 0x25, 0xd4,
  0x43, 0xdf, 0xc1, 0xb9, 0xfd, 0x3f, 0x0d, 0xff, 0x3a, 0x17, 0x01, 0x4a,
  0x1d, 0x14, 0x24, 0x08, 0x24, 0xf6, 0xed, 0x03, 0xfa, 0x1b, 0xc3, 0x3c,
  0x5b, 0x1f, 0x7f, 0xfe, 0xd9, 0xc2, 0xc1, 0xcc, 0xe1, 0xe1, 0x13, 0x1d,
  0xf6, 0x2e, 0xbe, 0xe7, 0xc4, 0x3e, 0x02, 0xe5, 0x06, 0xcb, 0x3a, 0xc3,
  0xff, 0xd6, 0x39, 0xd1, 0x29, 0xf9, 0x4a, 0xf0, 0x0f, 0x2e, 0xeb, 0x2d,
  0xf9, 0x1f, 0xe0, 0xe9, 0x03, 0x43, 0x1b, 0x30, 0x3f, 0xdf, 0xe6, 0x3e,
  0xd5, 0x01, 0x6a, 0x2e, 0x75, 0xc8, 0xea, 0x3f, 0x14, 0xfb, 0xbe, 0xbc,
  0xec, 0xf9, 0x40, 0x3a, 0xe5, 0xe0, 0x40, 0xe3, 0x26, 0x23, 0xc7, 0x0c,
  0xbd, 0xd0, 0xf0, 0xda, 0x28, 0x38, 0xc4, 0xe3, 0x42, 0x21, 0xd0, 0xba,
  0x14, 0x45, 0xc5, 0x1d, 0xf3, 0x1f, 0xd2, 0x2d, 0x11, 0x39, 0xe6, 0xcf,
  0x1f, 0xea, 0xf9, 0xca, 0x43, 0x06, 0x3d, 0xbf, 0xc2, 0x1e, 0x1a, 0x2a,
  0x02, 0xf5, 0xff, 0xff, 0x04, 0x00, 0x00, 0x00, 0x80, 0x00, 0x00, 0x00,
  0x03, 0x00, 0x00, 0x00, 0x00, 0x00, 0x00, 0x00, 0x00, 0x00, 0x00, 0x00,
  0x03, 0x00, 0x00, 0x00, 0x00, 0x00, 0x00, 0x00, 0x05, 0x00, 0x00, 0x00,
  0x00, 0x00, 0x00, 0x00, 0x22, 0x00, 0x00, 0x00, 0x18, 0x00, 0x00, 0x00,
  0x00, 0x00, 0x00, 0x00, 0x1d, 0x00, 0x00, 0x00, 0x00, 0x00, 0x00, 0x00,
  0x00, 0x00, 0x00, 0x00, 0x23, 0x00, 0x00, 0x00, 0x00, 0x00, 0x00, 0x00,
  0x00, 0x00, 0x00, 0x00, 0x06, 0x00, 0x00, 0x00, 0x13, 0x00, 0x00, 0x00,
  0x00, 0x00, 0x00, 0x00, 0xfa, 0xff, 0xff, 0xff, 0x20, 0x00, 0x00, 0x00,
  0x00, 0x00, 0x00, 0x00, 0x00, 0x00, 0x00, 0x00, 0xfd, 0xff, 0xff, 0xff,
  0xfc, 0xff, 0xff, 0xff, 0x00, 0x00, 0x00, 0x00, 0x00, 0x00, 0x00, 0x00,
  0x00, 0x00, 0x00, 0x00, 0xfe, 0xff, 0xff, 0xff, 0x03, 0x00, 0x00, 0x00,
  0x00, 0x00, 0x00, 0x00, 0x00, 0x00, 0x00, 0x00, 0x8e, 0xf5, 0xff, 0xff,
  0x04, 0x00, 0x00, 0x00, 0x00, 0x08, 0x00, 0x00, 0xaf, 0xe8, 0xed, 0xdd,
  0xfa, 0xd5, 0xda, 0x6b, 0x31, 0xe1, 0x47, 0xf7, 0x27, 0xef, 0x15, 0x0a,
  0xd5, 0xe5, 0xfc, 0xd2, 0x79, 0x20, 0xd2, 0x0c, 0xcd, 0x14, 0xf0, 0x21,
  0x05, 0xb9, 0xd1, 0xfd, 0x23, 0xf4, 0x1b, 0xe3, 0xe4, 0x17, 0xe5, 0xf1,
  0x2a, 0x2d, 0x58, 0x06, 0xe5, 0xe2, 0xe7, 0xfb, 0xff, 0x21, 0x19, 0xd2,
  0x2d, 0xe6, 0xf0, 0x27, 0xcc, 0x02, 0xe8, 0xfb, 0xe1, 0x0b, 0xde, 0x0b,
  0x06, 0x1b, 0xf1, 0x2b, 0x09, 0x03, 0x13, 0xef, 0x1d, 0x02, 0x0c, 0xfc,
  0x0b, 0x27, 0xfb, 0xe3, 0xdb, 0x05, 0xe7, 0x06, 0x2a, 0xea, 0xe7, 0x2a,
  0x1c, 0x2a, 0x2f, 0x2d, 0xd5, 0xe4, 0x1d, 0x09, 0x21, 0xe7, 0x2b, 0x14,
  0x20, 0xf3, 0x04, 0x19, 0x1c, 0xe7, 0x4b, 0x15, 0xe0, 0x05, 0x13, 0xf6,
  0x0a, 0x09, 0x30, 0x28, 0x19, 0x1c, 0xd2, 0xf1, 0x18, 0xf8, 0x1c, 0xea,
  0x28, 0xeb, 0xd0, 0x2d, 0x1b, 0x07, 0x00, 0xcf, 0xd2, 0x07, 0xef, 0x23,
  0x11, 0x18, 0x1d, 0x0c, 0x02, 0x0e, 0xd2, 0xd9, 0x0a, 0xd5, 0x09, 0xf1,
  0x14, 0xe3, 0x05, 0x21, 0xe3, 0xf6, 0xd7, 0x12, 0xff, 0xe1, 0x1b, 0xe5,
  0xe6, 0xe1, 0xf1, 0x17, 0x22, 0x1d, 0x22, 0x31, 0x12, 0x21, 0xd2, 0xdc,
  0xee, 0xff, 0x0e, 0x12, 0xde, 0xfb, 0xed, 0xe9, 0xdc, 0xda, 0xf9, 0x08,
  0x29, 0x0c, 0x26, 0xe6, 0xd7, 0x00, 0x2f, 0xde, 0x2d, 0xf1, 0x28, 0xda,
  0xf7, 0x24, 0x1e, 0xd7, 0xf3, 0xf0, 0x02, 0xf4, 0x19, 0xe1, 0x1c, 0x14,
  0xe7, 0xdd, 0xf4, 0xf3, 0xeb, 0x2a, 0x12, 0x20, 0xd4, 0xf3, 0x20, 0xf2,
  0xde, 0xf0, 0xf4, 0x0a, 0xed, 0x24, 0x18, 0x02, 0x2d, 0xde, 0xd6, 0x26,
  0xcf, 0xdf, 0x0e, 0xea, 0xd1, 0x0b, 0x26, 0xfc, 0x06, 0x24, 0xfe, 0xf7,
  0x6a, 0x10, 0x1e, 0x23, 0x1c, 0x0e, 0xdf, 0xde, 0x0d, 0xf3, 0xfe, 0x29,
  0xea, 0xfe, 0xd7, 0x01, 0xe7, 0xd0, 0x2a, 0x1b, 0x11, 0xe4, 0xcd, 0x0a,
  0xfb, 0x1e, 0x00, 0xea, 0xed, 0xf4, 0x07, 0x06, 0x07, 0xf0, 0xfb, 0xd2,
  0x01, 0xdb, 0x22, 0xd1, 0x1b, 0xed, 0x29, 0xfb, 0xdf, 0x29, 0x1f, 0x04,
  0x05, 0xf6, 0xed, 0xfe, 0xcf, 0xe8, 0x22, 0xe4, 0xd1, 0x25, 0xdf, 0x1a,
  0xec, 0x10, 0x30, 0xde, 0xda, 0x2a, 0x05, 0x06, 0xd6, 0xfe, 0x29, 0xd6,
  0x22, 0xf1, 0xee, 0xd3, 0x22, 0xfe, 0xdb, 0xee, 0xe9, 0xf1, 0x2d, 0xd1,
  0xff, 0xff, 0xe7, 0x02, 0x04, 0xf2, 0x1f, 0x00, 0x11, 0xe6, 0x17, 0xd8,
  0xed, 0x2b, 0x18, 0x25, 0xe1, 0xfa, 0x1a, 0xf1, 0x2f, 0xd8, 0x0f, 0x2a,
  0xec, 0x03, 0xed, 0xf7, 0x21, 0x07, 0x2a, 0x19, 0x25, 0x20, 0x57, 0xf4,
  0x01, 0xdf, 0xf9, 0xe8, 0xf7, 0xe8, 0xf8, 0x0e, 0x61, 0x08, 0xd6, 0x01,
  0xea, 0x1c, 0xe9, 0x2c, 0x03, 0xe7, 0x13, 0x23, 0xf4, 0xd9, 0x2b, 0x1e,
  0xd6, 0x1c, 0x26, 0x0a, 0x1a, 0x28, 0xfd, 0xf7, 0x1c, 0xd3, 0xda, 0x0e,
  0x23, 0x22, 0x0a, 0xd0, 0x1b, 0x21, 0x23, 0xee, 0xfc, 0xfd, 0x30, 0x1e,
  0xd9, 0x04, 0xf3, 0xf0, 0xf6, 0x12, 0xd1, 0xef, 0x28, 0xff, 0xdb, 0xec,
  0xe8, 0xd6, 0xf1, 0xd7, 0x05, 0x08, 0xf3, 0x26, 0xf8, 0xe4, 0x0d, 0x05,
  0x15, 0x11, 0xf3, 0xfb, 0x2a, 0x30, 0x14, 0xf2, 0xd8, 0x26, 0xf1, 0x1d,
  0xbf, 0xf4, 0x23, 0xed, 0x29, 0xd9, 0xd3, 0x1f, 0x2f, 0x15, 0x5c, 0x01,
  0xe1, 0xc4, 0xfc, 0xe6, 0xf0, 0x23, 0x17, 0xed, 0x7f, 0xdd, 0x1a, 0xb8,
  0xec, 0x2e, 0x21, 0x17, 0x1a, 0xb9, 0x15, 0xe6, 0x25, 0xdf, 0xd9, 0x12,
  0x05, 0xf8, 0xf8, 0xfe, 0x2c, 0xf1, 0x4c, 0x2f, 0xe9, 0xfc, 0xe0, 0x25,
  0x13, 0x26, 0x1e, 0x1e, 0x31, 0xd9, 0xde, 0x1c, 0xea, 0xdd, 0xdd, 0xf6,
  0x28, 0x1d, 0x2b, 0x16, 0xfc, 0xdd, 0xd7, 0x24, 0x2a, 0xfd, 0xe9, 0x0f,
  0xeb, 0xf2, 0xe7, 0x0b, 0x00, 0x1b, 0x25, 0x1d, 0x0b, 0xff, 0xd4, 0xed,
  0xd3, 0x2e, 0x13, 0xf3, 0xe5, 0xf0, 0x2c, 0x20, 0x09, 0x09, 0xe4, 0xfd,
  0x25, 0x09, 0xe8, 0x0b, 0x24, 0xe6, 0x14, 0xf6, 0x27, 0x06, 0xcc, 0x0c,
  0xd8, 0xfc, 0xe1, 0x1c, 0xe8, 0x05, 0x1e, 0xfa, 0xd6, 0xec, 0x1a, 0x24,
  0x21, 0xd4, 0x0b, 0xee, 0xe2, 0x11, 0x11, 0xdb, 0x33, 0x25, 0xd1, 0x12,
  0xd6, 0x03, 0xe8, 0x32, 0xf2, 0x04, 0xf6, 0xdb, 0x09, 0x1a, 0x16, 0xfa,
  0x02, 0x13, 0xfc, 0x01, 0xe5, 0x27, 0x29, 0xe1, 0x07, 0xd9, 0x04, 0x2c,
  0x13, 0x19, 0x02, 0x20, 0xd0, 0x02, 0xd3, 0x04, 0x27, 0x15, 0xfe, 0x29,
  0xf1, 0x2d, 0x2a, 0x1e, 0x0e, 0xe7, 0xf1, 0xf7, 0x01, 0x2a, 0x01, 0xe3,
  0x3f, 0xf7, 0xd3, 0x28, 0x0e, 0xd3, 0xd8, 0xd7, 0xf4, 0x25, 0xeb, 0x12,
  0x1d, 0x18, 0x1a, 0xe5, 0x17, 0xd0, 0xe7, 0x0b, 0xe8, 0xf8, 0x09, 0x0f,
  0xd0, 0xfb, 0x14, 0x20, 0xe2, 0xd7, 0xe3, 0xf8, 0x04, 0xd9, 0x28, 0x02,
  0x1c, 0x12, 0xdd, 0xdd, 0x1e, 0xe7, 0xe4, 0xf9, 0xcc, 0xd0, 0x12, 0xde,
  0x00, 0xdb, 0x25, 0x44, 0x45, 0x2c, 0x4d, 0xfa, 0x0e, 0xe6, 0xf4, 0x14,
  0x2e, 0xd9, 0xda, 0xf4, 0x1b, 0xdc, 0xe0, 0xde, 0xc3, 0xd1, 0x10, 0xfa,
  0x1a, 0xac, 0x0c, 0xff, 0xd2, 0x20, 0x04, 0x19, 0x23, 0xcd, 0xe5, 0x60,
  0x13, 0xdc, 0x5f, 0x08, 0xe4, 0xd3, 0xf5, 0xd9, 0xe4, 0x27, 0x1a, 0xed,
  0x42, 0xf0, 0x02, 0xc7, 0xc5, 0x22, 0x13, 0xf1, 0xe5, 0xc8, 0x21, 0x1e,
  0x0a, 0xee, 0xfe, 0xcb, 0xd5, 0xda, 0xe2, 0xda, 0xf2, 0x0f, 0x4b, 0x0b,
  0x2b, 0x0d, 0xf1, 0x0e, 0x0c, 0x28, 0xe9, 0x23, 0x4b, 0xd4, 0x1e, 0xf8,
  0x21, 0x30, 0xdd, 0x28, 0x09, 0xf3, 0xe1, 0x06, 0x27, 0xf9, 0x20, 0x07,
  0x16, 0x09, 0xf7, 0x33, 0x32, 0xd8, 0xd9, 0x1a, 0xeb, 0xee, 0x10, 0x21,
  0xd6, 0x31, 0x0e, 0x33, 0xe2, 0x25, 0x20, 0x01, 0xeb, 0xde, 0xe4, 0xda,
  0x1f, 0xd7, 0xd4, 0xe5, 0x01, 0x21, 0xd2, 0xdb, 0xed, 0x28, 0x0d, 0x14,
  0x28, 0x2d, 0x2a, 0x10, 0x0b, 0x17, 0x0e, 0xe0, 0xe7, 0x0b, 0x18, 0xfa,
  0x03, 0x1d, 0xff, 0x08, 0x1d, 0x18, 0xfa, 0xde, 0x20, 0x00, 0x02, 0x18,
  0x07, 0xe8, 0x17, 0xe1, 0x2c, 0xf5, 0x14, 0xf3, 0xdd, 0xd5, 0xf5, 0xe3,
  0xe8, 0xd4, 0x2b, 0x24, 0xd4, 0xf8, 0x1c, 0x1c, 0x11, 0xf9, 0xe0, 0xe7,
  0x05, 0x15, 0x30, 0x20, 0x04, 0xe2, 0x17, 0xf2, 0x09, 0xe8, 0x08, 0x20,
  0xdd, 0x0c, 0x2e, 0xcd, 0x2b, 0x06, 0x51, 0x07, 0xf1, 0xe6, 0x2c, 0x19,
  0x29, 0x03, 0x25, 0x1a, 0x26, 0xf4, 0x1b, 0xfd, 0x10, 0xdc, 0xeb, 0x02,
  0xe5, 0xe0, 0xea, 0xee, 0x1f, 0x09, 0xe2, 0x11, 0xd6, 0xf9, 0xdf, 0xde,
  0xf4, 0x1f, 0xf7, 0xf1, 0xe6, 0xee, 0xde, 0xd8, 0xeb, 0x2a, 0xfe, 0xee,
  0x04, 0xfb, 0xf4, 0x26, 0x02, 0xf4, 0x06, 0x0d, 0xe4, 0x27, 0xf9, 0xee,
  0x09, 0x2e, 0xdc, 0x01, 0x0e, 0x1b, 0xf5, 0x04, 0x0f, 0x1b, 0xfa, 0x21,
  0xd3, 0x2c, 0xd3, 0xe8, 0xec, 0x07, 0x2f, 0xf6, 0xd3, 0x12, 0x2c, 0x10,
  0x23, 0x11, 0xff, 0xe3, 0xfb, 0x19, 0x0a, 0x18, 0xd9, 0x28, 0xe6, 0x1c,
  0xfa, 0xf5, 0xd7, 0xf0, 0xd5, 0xe5, 0xda, 0xdb, 0xf7, 0xe5, 0xe7, 0x12,
  0xd4, 0xe3, 0xdc, 0xe4, 0x2e, 0xeb, 0xea, 0x09, 0x29, 0x2d, 0xd9, 0x11,
  0xfc, 0x1a, 0x28, 0xfd, 0x28, 0xdc, 0x23, 0xe2, 0xe3, 0xde, 0xda, 0x29,
  0x00, 0x03, 0x52, 0x19, 0xfa, 0xde, 0x0e, 0xe7, 0xdd, 0x28, 0x11, 0x18,
  0x0c, 0x1c, 0x0f, 0x03, 0x02, 0x05, 0x2b, 0x2f, 0x12, 0x09, 0x03, 0xf9,
  0x10, 0xd2, 0x22, 0xec, 0xf6, 0x0f, 0x00, 0xe3, 0xd4, 0x12, 0xd3, 0xfb,
  0xe5, 0xe7, 0xf5, 0x0f, 0x2a, 0x15, 0xd0, 0xde, 0x18, 0x04, 0x27, 0x1b,
  0xe4, 0x23, 0x20, 0x19, 0x15, 0xfc, 0xd1, 0x28, 0xe3, 0xda, 0x25, 0xde,
  0x27, 0xd6, 0x1d, 0xf5, 0x1c, 0x2d, 0x19, 0x04, 0xd5, 0xdd, 0x17, 0xff,
  0xe7, 0x09, 0x06, 0xef, 0xe9, 0xf8, 0x25, 0xd9, 0x10, 0xd3, 0x2f, 0x23,
  0xf0, 0x28, 0x2a, 0xe2, 0xee, 0x09, 0xd4, 0xe8, 0xd5, 0xf9, 0x2b, 0x1d,
  0xdd, 0x11, 0x11, 0x11, 0x20, 0x22, 0xed, 0x1c, 0x02, 0xe3, 0x22, 0x11,
  0xd0, 0x2b, 0xff, 0xf5, 0xd8, 0x08, 0x2d, 0xed, 0xdd, 0xd6, 0x13, 0x06,
  0x07, 0x04, 0x2f, 0x2a, 0x1a, 0xec, 0x13, 0xf6, 0x13, 0xd3, 0xe0, 0x10,
  0xf3, 0xd3, 0xe9, 0xf3, 0x18, 0x2a, 0x0f, 0xd9, 0xfb, 0x30, 0x25, 0xdc,
  0xed, 0xe6, 0xe4, 0x21, 0xdc, 0x0a, 0xf6, 0xd6, 0x04, 0xdb, 0xf0, 0xfb,
  0x00, 0xda, 0xfc, 0x27, 0x1b, 0x0b, 0xf7, 0x28, 0x1b, 0xd4, 0xf3, 0xe5,
  0xe1, 0x14, 0x14, 0xfd, 0xe3, 0x29, 0xe3, 0xf7, 0x06, 0x24, 0xea, 0x11,
  0x1e, 0xdc, 0xd3, 0xf0, 0x32, 0xd8, 0xf8, 0x14, 0x0b, 0x12, 0x04, 0x22,
  0xf7, 0x09, 0xfc, 0xe6, 0x28, 0xdb, 0xf0, 0x0a, 0xf2, 0x13, 0xde, 0x0e,
  0xf9, 0xf1, 0xfc, 0xeb, 0xfc, 0xf0, 0xde, 0xe6, 0xfb, 0xf5, 0x18, 0xdb,
  0x33, 0xe9, 0xe5, 0xe6, 0xf4, 0x31, 0x27, 0xe5, 0xeb, 0xf5, 0x19, 0x10,
  0x0e, 0xfd, 0x2a, 0x2e, 0xfb, 0x21, 0xe5, 0x0a, 0xc9, 0xd0, 0x1a, 0xd8,
  0xe6, 0xeb, 0xf3, 0xd0, 0x19, 0x1d, 0x2a, 0x2e, 0x0b, 0xdb, 0x01, 0xde,
  0xf9, 0x33, 0xe9, 0x17, 0xe0, 0xe4, 0xe8, 0x27, 0xdc, 0xf8, 0xff, 0xe1,
  0x07, 0x0e, 0x08, 0xff, 0xfb, 0xff, 0x2c, 0x06, 0x19, 0xe5, 0xdf, 0xe9,
  0xe6, 0x0c, 0xeb, 0x22, 0x2a, 0x1a, 0x28, 0xf9, 0x21, 0xef, 0xf5, 0x08,
  0x1d, 0x06, 0xd8, 0x13, 0xe9, 0x0f, 0xfa, 0x0a, 0xfe, 0x0b, 0x21, 0xf7,
  0xfd, 0xf0, 0xf3, 0x20, 0xfb, 0xfc, 0x14, 0x2d, 0xf0, 0x0e, 0xfc, 0xe1,
  0x20, 0xec, 0x01, 0x19, 0x25, 0xd0, 0xe7, 0xf3, 0xd3, 0xd6, 0x06, 0x22,
  0xf3, 0x08, 0x1b, 0x23, 0xfc, 0xed, 0x0f, 0x1d, 0x1e, 0xe0, 0xf7, 0x17,
  0xd4, 0xed, 0xdb, 0x05, 0xd5, 0x1f, 0x2a, 0x1a, 0xe5, 0x1f, 0x0a, 0xe3,
  0xe2, 0x08, 0xfd, 0x22, 0x09, 0xf0, 0x56, 0x0a, 0xd8, 0x09, 0xeb, 0xec,
  0xf5, 0xfe, 0xe4, 0x08, 0x09, 0x23, 0x20, 0xf0, 0xe9, 0xd4, 0x09, 0xdf,
  0xe8, 0x07, 0xe5, 0xed, 0xff, 0x1b, 0xe5, 0xd6, 0xd0, 0xe9, 0xd7, 0x04,
  0xe1, 0x10, 0xf9, 0xfc, 0xe6, 0xf8, 0xfa, 0x1a, 0x30, 0xd2, 0xe5, 0xef,
  0x0c, 0xfc, 0x2b, 0xdb, 0x14, 0xd9, 0xd0, 0x0a, 0xfe, 0xec, 0x1c, 0xe5,
  0xe3, 0xdc, 0xe9, 0x2b, 0xe2, 0x2c, 0xdd, 0xf5, 0xf1, 0xdd, 0x02, 0x11,
  0x16, 0x24, 0xe3, 0x15, 0x24, 0xf9, 0xe1, 0x26, 0xc5, 0xf1, 0x05, 0xf1,
  0x1f, 0xd9, 0x21, 0x10, 0xd6, 0x26, 0xe6, 0xe4, 0x17, 0xeb, 0x29, 0x0d,
  0x05, 0xff, 0xe8, 0xfe, 0x10, 0x0e, 0x12, 0xfd, 0xe6, 0x2f, 0x28, 0x20,
  0x13, 0xfb, 0xe7, 0x06, 0xc8, 0xf2, 0xf9, 0x0c, 0x28, 0xda, 0xfd, 0xe2,
  0xcc, 0x31, 0x13, 0xfa, 0xcb, 0x05, 0x19, 0xdf, 0x27, 0xf4, 0xe2, 0x46,
  0xf8, 0xf5, 0x4f, 0x03, 0x0c, 0xdc, 0xec, 0x0e, 0xd7, 0x1f, 0x2a, 0xd3,
  0x6e, 0x27, 0x0a, 0xb9, 0x0c, 0x19, 0x22, 0xe6, 0xda, 0xa9, 0xd8, 0x20,
  0x26, 0xf7, 0xe9, 0xd6, 0xe3, 0xd5, 0x02, 0xe0, 0xd9, 0xfe, 0xd9, 0xf2,
  0x14, 0xe8, 0xe2, 0x27, 0xf6, 0xec, 0x27, 0xe2, 0xfd, 0x18, 0x2d, 0xec,
  0x30, 0x13, 0xf0, 0x0c, 0xfc, 0xff, 0x16, 0xf1, 0xe9, 0xd6, 0x2e, 0x16,
  0x0a, 0x0b, 0xe0, 0xef, 0xfa, 0x24, 0xd2, 0x29, 0xee, 0xd8, 0xfa, 0x24,
  0x11, 0x2a, 0x06, 0xe8, 0x2b, 0xe7, 0x2d, 0xf0, 0x02, 0x09, 0x1b, 0xf0,
  0xcf, 0xd2, 0x14, 0xd3, 0x18, 0x0e, 0x28, 0x2b, 0xe2, 0xeb, 0xe0, 0x0e,
  0xe0, 0xfc, 0xee, 0x04, 0x20, 0x23, 0xf2, 0xdd, 0xd2, 0xfd, 0xdb, 0xef,
  0x11, 0x2a, 0xe7, 0xcf, 0x29, 0x16, 0x22, 0x05, 0xf2, 0xd7, 0xfc, 0x0d,
  0x02, 0x1c, 0xd8, 0xea, 0xf7, 0xff, 0x10, 0xf0, 0x1e, 0xdd, 0xd7, 0x20,
  0x16, 0xfb, 0x30, 0x20, 0xe0, 0x0a, 0xe6, 0x0d, 0xe7, 0x27, 0xe0, 0x03,
  0x2d, 0x11, 0x1e, 0x30, 0xe4, 0x0e, 0xe3, 0xee, 0xe2, 0x26, 0x03, 0x15,
  0x1f, 0x21, 0xd5, 0xf2, 0x2f, 0x19, 0xf0, 0x20, 0xe9, 0x30, 0x00, 0xd6,
  0xee, 0xed, 0xeb, 0xf0, 0xf1, 0xe7, 0xec, 0x34, 0xf4, 0xfa, 0xee, 0x16,
  0xef, 0xe8, 0xe9, 0x19, 0xeb, 0x1b, 0xda, 0x0f, 0x1d, 0x1e, 0x16, 0x2d,
  0x0e, 0x2a, 0xbc, 0xe1, 0x29, 0xeb, 0xd9, 0xea, 0x2b, 0x2d, 0xf1, 0x00,
  0xdc, 0xff, 0x08, 0x0f, 0xd7, 0xfc, 0x13, 0xe1, 0xdc, 0x2b, 0x17, 0x06,
  0x10, 0xf9, 0x1d, 0x0c, 0xe5, 0x1a, 0x2d, 0xd3, 0xe4, 0x2c, 0xd0, 0x14,
  0xdf, 0xed, 0x13, 0x09, 0xd8, 0x1b, 0xd5, 0xe9, 0xf0, 0x1e, 0xe9, 0x25,
  0x2c, 0xd4, 0x10, 0x10, 0xde, 0xe4, 0xe2, 0x09, 0xaa, 0xf1, 0xfe, 0xf8,
  0xd8, 0x10, 0xd3, 0x0d, 0x1c, 0xdc, 0x5b, 0xe8, 0xf3, 0xea, 0xfa, 0xda,
  0xf9, 0x21, 0x05, 0xd9, 0x4e, 0x0f, 0xf7, 0xd3, 0xd2, 0xfc, 0xe4, 0x22,
  0xef, 0xc8, 0x27, 0x11, 0x09, 0x0b, 0x1b, 0xd3, 0xd2, 0xf7, 0x0e, 0x08,
  0x09, 0xfe, 0x15, 0xf2, 0x00, 0xf5, 0x1a, 0xff, 0xf2, 0xfc, 0xec, 0x02,
  0xd3, 0x1e, 0x1a, 0x0b, 0xf1, 0x25, 0xf2, 0x1f, 0xf4, 0xdb, 0x1d, 0xfe,
  0xff, 0xd9, 0xfe, 0x18, 0x29, 0xf1, 0x1e, 0xee, 0x1a, 0xff, 0x09, 0x22,
  0xd8, 0x2a, 0xf4, 0x27, 0x31, 0x2f, 0x06, 0x1a, 0xdd, 0xd9, 0xf5, 0x02,
  0x24, 0x09, 0xdc, 0xf3, 0xf7, 0x1b, 0x08, 0xe6, 0xe8, 0x1d, 0x2f, 0x2d,
  0xd8, 0xd3, 0x23, 0x22, 0xeb, 0xd4, 0xdf, 0x23, 0xd3, 0xfa, 0x0d, 0xdb,
  0x02, 0x2e, 0xff, 0xf9, 0xf5, 0x19, 0x17, 0x08, 0x19, 0xfb, 0xd6, 0x2f,
  0x29, 0xd5, 0x20, 0x12, 0xe4, 0x0e, 0xd1, 0x1c, 0x0a, 0x00, 0x17, 0x2d,
  0xed, 0xfc, 0x52, 0x1b, 0x06, 0xe8, 0x15, 0xe4, 0xf2, 0x27, 0x0a, 0xd7,
  0x5c, 0x02, 0xff, 0x13, 0xf9, 0x2d, 0x29, 0x26, 0xff, 0xfe, 0x02, 0x2a,
  0x1f, 0xfe, 0x13, 0xe3, 0x15, 0x1b, 0x16, 0x0a, 0x2a, 0x19, 0xbc, 0x18,
  0x02, 0x20, 0xd3, 0x09, 0xd9, 0xd5, 0x29, 0x1a, 0x1b, 0xf1, 0xfb, 0x0b,
  0xf4, 0xdf, 0xd4, 0xf5, 0x0a, 0xea, 0xfb, 0xf4, 0xf7, 0xea, 0x0e, 0xde,
  0x06, 0xfb, 0xee, 0xea, 0x09, 0xf4, 0x13, 0x14, 0x07, 0x22, 0x25, 0xd9,
  0xdb, 0xfb, 0x0d, 0xfb, 0xdf, 0x09, 0xf1, 0xd6, 0x25, 0x0c, 0xd2, 0x2e,
  0xee, 0xf7, 0x12, 0xf5, 0xd9, 0xe4, 0xfb, 0x2b, 0x1c, 0xcf, 0x07, 0xd5,
  0xda, 0x03, 0xe7, 0x0f, 0x28, 0x29, 0xfe, 0xef, 0x00, 0x1e, 0xfb, 0x0a,
  0x00, 0x27, 0x0f, 0xfd, 0x0f, 0xe5, 0xf7, 0xda, 0x2c, 0x1d, 0xec, 0x15,
  0x07, 0x0f, 0x25, 0xd0, 0x12, 0xea, 0xe0, 0xed, 0xf4, 0xf8, 0xdc, 0x17,
  0x15, 0xfd, 0xdb, 0x2d, 0x29, 0x19, 0x2e, 0xf9, 0xd9, 0x1e, 0xfc, 0xf5,
  0x13, 0x1c, 0xfc, 0x00, 0x28, 0xfa, 0x16, 0xf9, 0xf2, 0x28, 0xf3, 0xe9,
  0x2b, 0x24, 0x1e, 0xd2, 0xdf, 0x30, 0x31, 0xea, 0xfa, 0x12, 0xf8, 0x25,
  0xfa, 0xdd, 0x1a, 0x2a, 0x3d, 0xdb, 0xe6, 0xed, 0x16, 0x2f, 0xf7, 0x02,
  0x00, 0x19, 0xfb, 0xf0, 0x9a, 0xfd, 0xff, 0xff, 0x04, 0x00, 0x00, 0x00,
  0x00, 0x01, 0x00, 0x00, 0x58, 0x00, 0x00, 0x00, 0x0c, 0x00, 0x00, 0x00,
  0x0d, 0x00, 0x00, 0x00, 0x0c, 0x00, 0x00, 0x00, 0x0d, 0x00, 0x00, 0x00,
  0x13, 0x00, 0x00, 0x00, 0x00, 0x00, 0x00, 0x00, 0xfd, 0xff, 0xff, 0xff,
  0xf9, 0xff, 0xff, 0xff, 0xfe, 0xff, 0xff, 0xff, 0x00, 0x00, 0x00, 0x00,
  0x19, 0x00, 0x00, 0x00, 0x0c, 0x00, 0x00, 0x00, 0xfa, 0xff, 0xff, 0xff,
  0x59, 0x00, 0x00, 0x00, 0x0c, 0x00, 0x00, 0x00, 0xfe, 0xff, 0xff, 0xff,
  0xc5, 0xff, 0xff, 0xff, 0x02, 0x00, 0x00, 0x00, 0x0d, 0x00, 0x00, 0x00,
  0x00, 0x00, 0x00, 0x00, 0x38, 0x00, 0x00, 0x00, 0x47, 0x00, 0x00, 0x00,
  0x0c, 0x00, 0x00, 0x00, 0xfa, 0xff, 0xff, 0xff, 0x0d, 0x00, 0x00, 0x00,
  0x00, 0x00, 0x00, 0x00, 0x0c, 0x00, 0x00, 0x00, 0x46, 0x00, 0x00, 0x00,
  0x10, 0x00, 0x00, 0x00, 0x00, 0x00, 0x00, 0x00, 0x0c, 0x00, 0x00, 0x00,
  0x00, 0x00, 0x00, 0x00, 0xfb, 0xff, 0xff, 0xff, 0xfe, 0xff, 0xff, 0xff,
  0x00, 0x00, 0x00, 0x00, 0xf9, 0xff, 0xff, 0xff, 0x01, 0x00, 0x00, 0x00,
  0x21, 0x00, 0x00, 0x00, 0x0b, 0x00, 0x00, 0x00, 0x11, 0x00, 0x00, 0x00,
  0xff, 0xff, 0xff, 0xff, 0x0f, 0x00, 0x00, 0x00, 0x00, 0x00, 0x00, 0x00,
  0x12, 0x00, 0x00, 0x00, 0x0b, 0x00, 0x00, 0x00, 0x60, 0x00, 0x00, 0x00,
  0x00, 0x00, 0x00, 0x00, 0xfb, 0xff, 0xff, 0xff, 0xf8, 0xff, 0xff, 0xff,
  0x3e, 0x00, 0x00, 0x00, 0x06, 0x00, 0x00, 0x00, 0x09, 0x00, 0x00, 0x00,
  0xf7, 0xff, 0xff, 0xff, 0x3b, 0x00, 0x00, 0x00, 0x00, 0x00, 0x00, 0x00,
  0xff, 0xff, 0xff, 0xff, 0xfe, 0xff, 0xff, 0xff, 0x1e, 0x00, 0x00, 0x00,
  0x13, 0x00, 0x00, 0x00, 0xfe, 0xff, 0xff, 0xff, 0xfe, 0xff, 0xff, 0xff,
  0xfa, 0xff, 0xff, 0xff, 0x0c, 0x00, 0x00, 0x00, 0xa6, 0xfe, 0xff, 0xff,
  0x04, 0x00, 0x00, 0x00, 0x80, 0x00, 0x00, 0x00, 0x46, 0x1a, 0x12, 0xf1,
  0x0c, 0xee, 0x1a, 0x0d, 0xe0, 0xef, 0x0f, 0x2d, 0xff, 0x1e, 0x74, 0x11,
  0xdc, 0x1c, 0xd4, 0x1c, 0x0d, 0x5a, 0x54, 0x0b, 0xda, 0x1a, 0xf8, 0xea,
  0x0a, 0xf1, 0xfd, 0xfb, 0xf5, 0xdb, 0xdf, 0xd6, 0xe5, 0x0c, 0xe3, 0xe7,
  0xeb, 0xfa, 0x02, 0xfb, 0xf3, 0xf1, 0x7f, 0x1a, 0xe1, 0xf2, 0xe6, 0xd2,
  0xdf, 0x06, 0x5f, 0x15, 0xd9, 0xda, 0x2d, 0x17, 0xee, 0x02, 0x1a, 0x0b,
  0xb9, 0x04, 0xdf, 0xe3, 0xec, 0x0d, 0x0b, 0xe6, 0xf6, 0x1a, 0xfd, 0xf0,
  0xea, 0x0b, 0xd9, 0x07, 0xfe, 0xed, 0x0f, 0xe8, 0xde, 0xb2, 0xab, 0xea,
  0xff, 0x06, 0xe0, 0xdd, 0x0f, 0x0a, 0xe0, 0xea, 0x03, 0x25, 0x00, 0xdb,
  0xfb, 0x2e, 0xf3, 0x18, 0xf8, 0x2a, 0xf7, 0x22, 0x1d, 0x07, 0xc7, 0x23,
  0x04, 0x18, 0xf0, 0xed, 0x0a, 0xf7, 0xa9, 0xf1, 0x19, 0xf5, 0xcb, 0x2a,
  0x28, 0x28, 0x11, 0xef, 0x32, 0xff, 0xff, 0xff, 0x04, 0x00, 0x00, 0x00,
  0x08, 0x00, 0x00, 0x00, 0x11, 0x00, 0x00, 0x00, 0xef, 0xff, 0xff, 0xff,
  0xa8, 0xf7, 0xff, 0xff, 0xac, 0xf7, 0xff, 0xff, 0x0f, 0x00, 0x00, 0x00,
  0x4d, 0x4c, 0x49, 0x52, 0x20, 0x43, 0x6f, 0x6e, 0x76, 0x65, 0x72, 0x74,
  0x65, 0x64, 0x2e, 0x00, 0x01, 0x00, 0x00, 0x00, 0x14, 0x00, 0x00, 0x00,
  0x00, 0x00, 0x0e, 0x00, 0x18, 0x00, 0x14, 0x00, 0x10, 0x00, 0x0c, 0x00,
  0x08, 0x00, 0x04, 0x00, 0x0e, 0x00, 0x00, 0x00, 0x14, 0x00, 0x00, 0x00,
  0x1c, 0x00, 0x00, 0x00, 0x7c, 0x01, 0x00, 0x00, 0x80, 0x01, 0x00, 0x00,
  0x84, 0x01, 0x00, 0x00, 0x04, 0x00, 0x00, 0x00, 0x6d, 0x61, 0x69, 0x6e,
  0x00, 0x00, 0x00, 0x00, 0x06, 0x00, 0x00, 0x00, 0x44, 0x01, 0x00, 0x00,
  0xf4, 0x00, 0x00, 0x00, 0xa8, 0x00, 0x00, 0x00, 0x70, 0x00, 0x00, 0x00,
  0x34, 0x00, 0x00, 0x00, 0x10, 0x00, 0x00, 0x00, 0x00, 0x00, 0x0a, 0x00,
  0x10, 0x00, 0x0c, 0x00, 0x08, 0x00, 0x04, 0x00, 0x0a, 0x00, 0x00, 0x00,
  0x0c, 0x00, 0x00, 0x00, 0x10, 0x00, 0x00, 0x00, 0x03, 0x00, 0x00, 0x00,
  0x01, 0x00, 0x00, 0x00, 0x0c, 0x00, 0x00, 0x00, 0x01, 0x00, 0x00, 0x00,
  0x0b, 0x00, 0x00, 0x00, 0x5a, 0xff, 0xff, 0xff, 0x1c, 0x00, 0x00, 0x00,
  0x00, 0x00, 0x00, 0x09, 0x1c, 0x00, 0x00, 0x00, 0x20, 0x00, 0x00, 0x00,
  0x02, 0x00, 0x00, 0x00, 0x00, 0x00, 0x06, 0x00, 0x08, 0x00, 0x04, 0x00,
  0x06, 0x00, 0x00, 0x00, 0x00, 0x00, 0x80, 0x3f, 0x01, 0x00, 0x00, 0x00,
  0x0b, 0x00, 0x00, 0x00, 0x01, 0x00, 0x00, 0x00, 0x0a, 0x00, 0x00, 0x00,
  0x92, 0xff, 0xff, 0xff, 0x14, 0x00, 0x00, 0x00, 0x00, 0x00, 0x00, 0x08,
  0x10, 0x00, 0x00, 0x00, 0x14, 0x00, 0x00, 0x00, 0x01, 0x00, 0x00, 0x00,
  0x98, 0xf8, 0xff, 0xff, 0x01, 0x00, 0x00, 0x00, 0x0a, 0x00, 0x00, 0x00,
  0x03, 0x00, 0x00, 0x00, 0x09, 0x00, 0x00, 0x00, 0x02, 0x00, 0x00, 0x00,
  0x01, 0x00, 0x00, 0x00, 0xc6, 0xff, 0xff, 0xff, 0x14, 0x00, 0x00, 0x00,
  0x00, 0x00, 0x00, 0x08, 0x14, 0x00, 0x00, 0x00, 0x18, 0x00, 0x00, 0x00,
  0x01, 0x00, 0x00, 0x00, 0xb6, 0xff, 0xff, 0xff, 0x00, 0x00, 0x00, 0x01,
  0x01, 0x00, 0x00, 0x00, 0x09, 0x00, 0x00, 0x00, 0x03, 0x00, 0x00, 0x00,
  0x08, 0x00, 0x00, 0x00, 0x04, 0x00, 0x00, 0x00, 0x03, 0x00, 0x00, 0x00,
  0x00, 0x00, 0x0e, 0x00, 0x1a, 0x00, 0x14, 0x00, 0x10, 0x00, 0x0c, 0x00,
  0x0b, 0x00, 0x04, 0x00, 0x0e, 0x00, 0x00, 0x00, 0x1c, 0x00, 0x00, 0x00,
  0x00, 0x00, 0x00, 0x08, 0x1c, 0x00, 0x00, 0x00, 0x20, 0x00, 0x00, 0x00,
  0x01, 0x00, 0x00, 0x00, 0x00, 0x00, 0x06, 0x00, 0x08, 0x00, 0x07, 0x00,
  0x06, 0x00, 0x00, 0x00, 0x00, 0x00, 0x00, 0x01, 0x01, 0x00, 0x00, 0x00,
  0x08, 0x00, 0x00, 0x00, 0x03, 0x00, 0x00, 0x00, 0x07, 0x00, 0x00, 0x00,
  0x06, 0x00, 0x00, 0x00, 0x05, 0x00, 0x00, 0x00, 0x00, 0x00, 0x0a, 0x00,
  0x0c, 0x00, 0x00, 0x00, 0x08, 0x00, 0x04, 0x00, 0x0a, 0x00, 0x00, 0x00,
  0x08, 0x00, 0x00, 0x00, 0x0c, 0x00, 0x00, 0x00, 0x01, 0x00, 0x00, 0x00,
  0x07, 0x00, 0x00, 0x00, 0x01, 0x00, 0x00, 0x00, 0x00, 0x00, 0x00, 0x00,
  0x01, 0x00, 0x00, 0x00, 0x0c, 0x00, 0x00, 0x00, 0x01, 0x00, 0x00, 0x00,
  0x00, 0x00, 0x00, 0x00, 0x0d, 0x00, 0x00, 0x00, 0x60, 0x06, 0x00, 0x00,
  0xc4, 0x05, 0x00, 0x00, 0x3c, 0x05, 0x00, 0x00, 0xc0, 0x04, 0x00, 0x00,
  0x54, 0x04, 0x00, 0x00, 0xd8, 0x03, 0x00, 0x00, 0x6c, 0x03, 0x00, 0x00,
  0xf8, 0x02, 0x00, 0x00, 0x2c, 0x02, 0x00, 0x00, 0x78, 0x01, 0x00, 0x00,
  0xdc, 0x00, 0x00, 0x00, 0x60, 0x00, 0x00, 0x00, 0x04, 0x00, 0x00, 0x00,
  0xea, 0xf9, 0xff, 0xff, 0x00, 0x00, 0x00, 0x01, 0x14, 0x00, 0x00, 0x00,
  0x1c, 0x00, 0x00, 0x00, 0x1c, 0x00, 0x00, 0x00, 0x0d, 0x00, 0x00, 0x00,
  0x34, 0x00, 0x00, 0x00, 0x02, 0x00, 0x00, 0x00, 0xff, 0xff, 0xff, 0xff,
  0x02, 0x00, 0x00, 0x00, 0xd4, 0xf9, 0xff, 0xff, 0x19, 0x00, 0x00, 0x00,
  0x53, 0x74, 0x61, 0x74, 0x65, 0x66, 0x75, 0x6c, 0x50, 0x61, 0x72, 0x74,
  0x69, 0x74, 0x69, 0x6f, 0x6e, 0x65, 0x64, 0x43, 0x61, 0x6c, 0x6c, 0x3a,
  0x30, 0x00, 0x00, 0x00, 0x02, 0x00, 0x00, 0x00, 0x01, 0x00, 0x00, 0x00,
  0x02, 0x00, 0x00, 0x00, 0x8e, 0xfd, 0xff, 0xff, 0x00, 0x00, 0x00, 0x01,
  0x18, 0x00, 0x00, 0x00, 0x20, 0x00, 0x00, 0x00, 0x3c, 0x00, 0x00, 0x00,
  0x0c, 0x00, 0x00, 0x00, 0x00, 0x00, 0x00, 0x09, 0x50, 0x00, 0x00, 0x00,
  0x02, 0x00, 0x00, 0x00, 0xff, 0xff, 0xff, 0xff, 0x02, 0x00, 0x00, 0x00,
  0xd4, 0xfa, 0xff, 0xff, 0x08, 0x00, 0x00, 0x00, 0x10, 0x00, 0x00, 0x00,
  0x01, 0x00, 0x00, 0x00, 0x80, 0xff, 0xff, 0xff, 0xff, 0xff, 0xff, 0xff,
  0x01, 0x00, 0x00, 0x00, 0x00, 0x00, 0x80, 0x3b, 0x1a, 0x00, 0x00, 0x00,
  0x53, 0x74, 0x61, 0x74, 0x65, 0x66, 0x75, 0x6c, 0x50, 0x61, 0x72, 0x74,
  0x69, 0x74, 0x69, 0x6f, 0x6e, 0x65, 0x64, 0x43, 0x61, 0x6c, 0x6c, 0x3a,
  0x30, 0x31, 0x00, 0x00, 0x02, 0x00, 0x00, 0x00, 0x01, 0x00, 0x00, 0x00,
  0x02, 0x00, 0x00, 0x00, 0x06, 0xfe, 0xff, 0xff, 0x00, 0x00, 0x00, 0x01,
  0x18, 0x00, 0x00, 0x00, 0x20, 0x00, 0x00, 0x00, 0x3c, 0x00, 0x00, 0x00,
  0x0b, 0x00, 0x00, 0x00, 0x00, 0x00, 0x00, 0x09, 0x70, 0x00, 0x00, 0x00,
  0x02, 0x00, 0x00, 0x00, 0xff, 0xff, 0xff, 0xff, 0x02, 0x00, 0x00, 0x00,
  0x4c, 0xfb, 0xff, 0xff, 0x08, 0x00, 0x00, 0x00, 0x10, 0x00, 0x00, 0x00,
  0x01, 0x00, 0x00, 0x00, 0x43, 0x00, 0x00, 0x00, 0x00, 0x00, 0x00, 0x00,
  0x01, 0x00, 0x00, 0x00, 0x0a, 0x32, 0x0a, 0x3f, 0x38, 0x00, 0x00, 0x00,
  0x73, 0x65, 0x71, 0x75, 0x65, 0x6e, 0x74, 0x69, 0x61, 0x6c, 0x5f, 0x32,
  0x2f, 0x64, 0x65, 0x6e, 0x73, 0x65, 0x5f, 0x38, 0x2f, 0x4d, 0x61, 0x74,
  0x4d, 0x75, 0x6c, 0x3b, 0x73, 0x65, 0x71, 0x75, 0x65, 0x6e, 0x74, 0x69,
  0x61, 0x6c, 0x5f, 0x32, 0x2f, 0x64, 0x65, 0x6e, 0x73, 0x65, 0x5f, 0x38,
  0x2f, 0x42, 0x69, 0x61, 0x73, 0x41, 0x64, 0x64, 0x00, 0x00, 0x00, 0x00,
  0x02, 0x00, 0x00, 0x00, 0x01, 0x00, 0x00, 0x00, 0x02, 0x00, 0x00, 0x00,
  0x9e, 0xfe, 0xff, 0xff, 0x00, 0x00, 0x00, 0x01, 0x18, 0x00, 0x00, 0x00,
  0x20, 0x00, 0x00, 0x00, 0x3c, 0x00, 0x00, 0x00, 0x0a, 0x00, 0x00, 0x00,
  0x00, 0x00, 0x00, 0x09, 0x88, 0x00, 0x00, 0x00, 0x02, 0x00, 0x00, 0x00,
  0xff, 0xff, 0xff, 0xff, 0x40, 0x00, 0x00, 0x00, 0xe4, 0xfb, 0xff, 0xff,
  0x08, 0x00, 0x00, 0x00, 0x10, 0x00, 0x00, 0x00, 0x01, 0x00, 0x00, 0x00,
  0x80, 0xff, 0xff, 0xff, 0xff, 0xff, 0xff, 0xff, 0x01, 0x00, 0x00, 0x00,
  0xa7, 0x16, 0xc7, 0x3e, 0x52, 0x00, 0x00, 0x00, 0x73, 0x65, 0x71, 0x75,
  0x65, 0x6e, 0x74, 0x69, 0x61, 0x6c, 0x5f, 0x32, 0x2f, 0x64, 0x65, 0x6e,
  0x73, 0x65, 0x5f, 0x37, 0x2f, 0x4d, 0x61, 0x74, 0x4d, 0x75, 0x6c, 0x3b,
  0x73, 0x65, 0x71, 0x75, 0x65, 0x6e, 0x74, 0x69, 0x61, 0x6c, 0x5f, 0x32,
  0x2f, 0x64, 0x65, 0x6e, 0x73, 0x65, 0x5f, 0x37, 0x2f, 0x52, 0x65, 0x6c,
  0x75, 0x3b, 0x73, 0x65, 0x71, 0x75, 0x65, 0x6e, 0x74, 0x69, 0x61, 0x6c,
  0x5f, 0x32, 0x2f, 0x64, 0x65, 0x6e, 0x73, 0x65, 0x5f, 0x37, 0x2f, 0x42,
  0x69, 0x61, 0x73, 0x41, 0x64, 0x64, 0x00, 0x00, 0x02, 0x00, 0x00, 0x00,
  0x01, 0x00, 0x00, 0x00, 0x40, 0x00, 0x00, 0x00, 0x4e, 0xff, 0xff, 0xff,
  0x00, 0x00, 0x00, 0x01, 0x18, 0x00, 0x00, 0x00, 0x20, 0x00, 0x00, 0x00,
  0x3c, 0x00, 0x00, 0x00, 0x09, 0x00, 0x00, 0x00, 0x00, 0x00, 0x00, 0x09,
  0x88, 0x00, 0x00, 0x00, 0x02, 0x00, 0x00, 0x00, 0xff, 0xff, 0xff, 0xff,
  0x20, 0x00, 0x00, 0x00, 0x94, 0xfc, 0xff, 0xff, 0x08, 0x00, 0x00, 0x00,
  0x10, 0x00, 0x00, 0x00, 0x01, 0x00, 0x00, 0x00, 0x80, 0xff, 0xff, 0xff,
  0xff, 0xff, 0xff, 0xff, 0x01, 0x00, 0x00, 0x00, 0x90, 0x19, 0x29, 0x3f,
  0x52, 0x00, 0x00, 0x00, 0x73, 0x65, 0x71, 0x75, 0x65, 0x6e, 0x74, 0x69,
  0x61, 0x6c, 0x5f, 0x32, 0x2f, 0x64, 0x65, 0x6e, 0x73, 0x65, 0x5f, 0x36,
  0x2f, 0x4d, 0x61, 0x74, 0x4d, 0x75, 0x6c, 0x3b, 0x73, 0x65, 0x71, 0x75,
  0x65, 0x6e, 0x74, 0x69, 0x61, 0x6c, 0x5f, 0x32, 0x2f, 0x64, 0x65, 0x6e,
  0x73, 0x65, 0x5f, 0x36, 0x2f, 0x52, 0x65, 0x6c, 0x75, 0x3b, 0x73, 0x65,
  0x71, 0x75, 0x65, 0x6e, 0x74, 0x69, 0x61, 0x6c, 0x5f, 0x32, 0x2f, 0x64,
  0x65, 0x6e, 0x73, 0x65, 0x5f, 0x36, 0x2f, 0x42, 0x69, 0x61, 0x73, 0x41,
  0x64, 0x64, 0x00, 0x00, 0x02, 0x00, 0x00, 0x00, 0x01, 0x00, 0x00, 0x00,
  0x20, 0x00, 0x00, 0x00, 0x00, 0x00, 0x16, 0x00, 0x20, 0x00, 0x1c, 0x00,
  0x1b, 0x00, 0x14, 0x00, 0x10, 0x00, 0x0c, 0x00, 0x00, 0x00, 0x00, 0x00,
  0x08, 0x00, 0x07, 0x00, 0x16, 0x00, 0x00, 0x00, 0x00, 0x00, 0x00, 0x01,
  0x18, 0x00, 0x00, 0x00, 0x20, 0x00, 0x00, 0x00, 0x40, 0x00, 0x00, 0x00,
  0x08, 0x00, 0x00, 0x00, 0x00, 0x00, 0x00, 0x09, 0x48, 0x00, 0x00, 0x00,
  0x02, 0x00, 0x00, 0x00, 0xff, 0xff, 0xff, 0xff, 0x05, 0x00, 0x00, 0x00,
  0x5c, 0xfd, 0xff, 0xff, 0x08, 0x00, 0x00, 0x00, 0x14, 0x00, 0x00, 0x00,
  0x01, 0x00, 0x00, 0x00, 0x80, 0xff, 0xff, 0xff, 0xff, 0xff, 0xff, 0xff,
  0x00, 0x00, 0x00, 0x00, 0x01, 0x00, 0x00, 0x00, 0xe8, 0x2d, 0xb9, 0x3f,
  0x0c, 0x00, 0x00, 0x00, 0x74, 0x66, 0x6c, 0x2e, 0x71, 0x75, 0x61, 0x6e,
  0x74, 0x69, 0x7a, 0x65, 0x00, 0x00, 0x00, 0x00, 0x02, 0x00, 0x00, 0x00,
  0x01, 0x00, 0x00, 0x00, 0x05, 0x00, 0x00, 0x00, 0xd2, 0xfd, 0xff, 0xff,
  0x00, 0x00, 0x00, 0x01, 0x14, 0x00, 0x00, 0x00, 0x30, 0x00, 0x00, 0x00,
  0x07, 0x00, 0x00, 0x00, 0x00, 0x00, 0x00, 0x09, 0x44, 0x00, 0x00, 0x00,
  0xbc, 0xfd, 0xff, 0xff, 0x08, 0x00, 0x00, 0x00, 0x10, 0x00, 0x00, 0x00,
  0x01, 0x00, 0x00, 0x00, 0x00, 0x00, 0x00, 0x00, 0x00, 0x00, 0x00, 0x00,
  0x01, 0x00, 0x00, 0x00, 0x62, 0x7c, 0xb6, 0x3b, 0x1b, 0x00, 0x00, 0x00,
  0x73, 0x65, 0x71, 0x75, 0x65, 0x6e, 0x74, 0x69, 0x61, 0x6c, 0x5f, 0x32,
  0x2f, 0x64, 0x65, 0x6e, 0x73, 0x65, 0x5f, 0x36, 0x2f, 0x4d, 0x61, 0x74,
  0x4d, 0x75, 0x6c, 0x00, 0x02, 0x00, 0x00, 0x00, 0x20, 0x00, 0x00, 0x00,
  0x05, 0x00, 0x00, 0x00, 0x3a, 0xfe, 0xff, 0xff, 0x00, 0x00, 0x00, 0x01,
  0x14, 0x00, 0x00, 0x00, 0x34, 0x00, 0x00, 0x00, 0x06, 0x00, 0x00, 0x00,
  0x00, 0x00, 0x00, 0x02, 0x58, 0x00, 0x00, 0x00, 0x24, 0xfe, 0xff, 0xff,
  0x08, 0x00, 0x00, 0x00, 0x14, 0x00, 0x00, 0x00, 0x01, 0x00, 0x00, 0x00,
  0x00, 0x00, 0x00, 0x00, 0x00, 0x00, 0x00, 0x00, 0x00, 0x00, 0x00, 0x00,
  0x01, 0x00, 0x00, 0x00, 0x9c, 0x00, 0x04, 0x3c, 0x2b, 0x00, 0x00, 0x00,
  0x73, 0x65, 0x71, 0x75, 0x65, 0x6e, 0x74, 0x69, 0x61, 0x6c, 0x5f, 0x32,
  0x2f, 0x64, 0x65, 0x6e, 0x73, 0x65, 0x5f, 0x36, 0x2f, 0x42, 0x69, 0x61,
  0x73, 0x41, 0x64, 0x64, 0x2f, 0x52, 0x65, 0x61, 0x64, 0x56, 0x61, 0x72,
  0x69, 0x61, 0x62, 0x6c, 0x65, 0x4f, 0x70, 0x00, 0x01, 0x00, 0x00, 0x00,
  0x20, 0x00, 0x00, 0x00, 0xb2, 0xfe, 0xff, 0xff, 0x00, 0x00, 0x00, 0x01,
  0x14, 0x00, 0x00, 0x00, 0x30, 0x00, 0x00, 0x00, 0x05, 0x00, 0x00, 0x00,
  0x00, 0x00, 0x00, 0x09, 0x44, 0x00, 0x00, 0x00, 0x9c, 0xfe, 0xff, 0xff,
  0x08, 0x00, 0x00, 0x00, 0x10, 0x00, 0x00, 0x00, 0x01, 0x00, 0x00, 0x00,
  0x00, 0x00, 0x00, 0x00, 0x00, 0x00, 0x00, 0x00, 0x01, 0x00, 0x00, 0x00,
  0xa1, 0xaa, 0xa9, 0x3b, 0x1b, 0x00, 0x00, 0x00, 0x73, 0x65, 0x71, 0x75,
  0x65, 0x6e, 0x74, 0x69, 0x61, 0x6c, 0x5f, 0x32, 0x2f, 0x64, 0x65, 0x6e,
  0x73, 0x65, 0x5f, 0x37, 0x2f, 0x4d, 0x61, 0x74, 0x4d, 0x75, 0x6c, 0x00,
  0x02, 0x00, 0x00, 0x00, 0x40, 0x00, 0x00, 0x00, 0x20, 0x00, 0x00, 0x00,
  0x1a, 0xff, 0xff, 0xff, 0x00, 0x00, 0x00, 0x01, 0x14, 0x00, 0x00, 0x00,
  0x34, 0x00, 0x00, 0x00, 0x04, 0x00, 0x00, 0x00, 0x00, 0x00, 0x00, 0x02,
  0x58, 0x00, 0x00, 0x00, 0x04, 0xff, 0xff, 0xff, 0x08, 0x00, 0x00, 0x00,
  0x14, 0x00, 0x00, 0x00, 0x01, 0x00, 0x00, 0x00, 0x00, 0x00, 0x00, 0x00,
  0x00, 0x00, 0x00, 0x00, 0x00, 0x00, 0x00, 0x00, 0x01, 0x00, 0x00, 0x00,
  0x2b, 0x25, 0x60, 0x3b, 0x2b, 0x00, 0x00, 0x00, 0x73, 0x65, 0x71, 0x75,
  0x65, 0x6e, 0x74, 0x69, 0x61, 0x6c, 0x5f, 0x32, 0x2f, 0x64, 0x65, 0x6e,
  0x73, 0x65, 0x5f, 0x37, 0x2f, 0x42, 0x69, 0x61, 0x73, 0x41, 0x64, 0x64,
  0x2f, 0x52, 0x65, 0x61, 0x64, 0x56, 0x61, 0x72, 0x69, 0x61, 0x62, 0x6c,
  0x65, 0x4f, 0x70, 0x00, 0x01, 0x00, 0x00, 0x00, 0x40, 0x00, 0x00, 0x00,
  0x92, 0xff, 0xff, 0xff, 0x00, 0x00, 0x00, 0x01, 0x14, 0x00, 0x00, 0x00,
  0x34, 0x00, 0x00, 0x00, 0x03, 0x00, 0x00, 0x00, 0x00, 0x00, 0x00, 0x09,
  0x48, 0x00, 0x00, 0x00, 0x7c, 0xff, 0xff, 0xff, 0x08, 0x00, 0x00, 0x00,
  0x14, 0x00, 0x00, 0x00, 0x01, 0x00, 0x00, 0x00, 0x00, 0x00, 0x00, 0x00,
  0x00, 0x00, 0x00, 0x00, 0x00, 0x00, 0x00, 0x00, 0x01, 0x00, 0x00, 0x00,
  0xe7, 0xbe, 0xe4, 0x3b, 0x1b, 0x00, 0x00, 0x00, 0x73, 0x65, 0x71, 0x75,
  0x65, 0x6e, 0x74, 0x69, 0x61, 0x6c, 0x5f, 0x32, 0x2f, 0x64, 0x65, 0x6e,
  0x73, 0x65, 0x5f, 0x38, 0x2f, 0x4d, 0x61, 0x74, 0x4d, 0x75, 0x6c, 0x00,
  0x02, 0x00, 0x00, 0x00, 0x02, 0x00, 0x00, 0x00, 0x40, 0x00, 0x00, 0x00,
  0x00, 0x00, 0x16, 0x00, 0x1c, 0x00, 0x18, 0x00, 0x17, 0x00, 0x10, 0x00,
  0x0c, 0x00, 0x08, 0x00, 0x00, 0x00, 0x00, 0x00, 0x00, 0x00, 0x07, 0x00,
  0x16, 0x00, 0x00, 0x00, 0x00, 0x00, 0x00, 0x01, 0x20, 0x00, 0x00, 0x00,
  0x3c, 0x00, 0x00, 0x00, 0x02, 0x00, 0x00, 0x00, 0x00, 0x00, 0x00, 0x02,
  0x60, 0x00, 0x00, 0x00, 0x0c, 0x00, 0x0c, 0x00, 0x00, 0x00, 0x00, 0x00,
  0x08, 0x00, 0x04, 0x00, 0x0c, 0x00, 0x00, 0x00, 0x08, 0x00, 0x00, 0x00,
  0x10, 0x00, 0x00, 0x00, 0x01, 0x00, 0x00, 0x00, 0x00, 0x00, 0x00, 0x00,
  0x00, 0x00, 0x00, 0x00, 0x01, 0x00, 0x00, 0x00, 0xa3, 0xe4, 0x31, 0x3b,
  0x2b, 0x00, 0x00, 0x00, 0x73, 0x65, 0x71, 0x75, 0x65, 0x6e, 0x74, 0x69,
  0x61, 0x6c, 0x5f, 0x32, 0x2f, 0x64, 0x65, 0x6e, 0x73, 0x65, 0x5f, 0x38,
  0x2f, 0x42, 0x69, 0x61, 0x73, 0x41, 0x64, 0x64, 0x2f, 0x52, 0x65, 0x61,
  0x64, 0x56, 0x61, 0x72, 0x69, 0x61, 0x62, 0x6c, 0x65, 0x4f, 0x70, 0x00,
  0x01, 0x00, 0x00, 0x00, 0x02, 0x00, 0x00, 0x00, 0x00, 0x00, 0x16, 0x00,
  0x1c, 0x00, 0x18, 0x00, 0x00, 0x00, 0x14, 0x00, 0x10, 0x00, 0x0c, 0x00,
  0x00, 0x00, 0x00, 0x00, 0x08, 0x00, 0x07, 0x00, 0x16, 0x00, 0x00, 0x00,
  0x00, 0x00, 0x00, 0x01, 0x14, 0x00, 0x00, 0x00, 0x20, 0x00, 0x00, 0x00,
  0x20, 0x00, 0x00, 0x00, 0x01, 0x00, 0x00, 0x00, 0x3c, 0x00, 0x00, 0x00,
  0x02, 0x00, 0x00, 0x00, 0xff, 0xff, 0xff, 0xff, 0x05, 0x00, 0x00, 0x00,
  0x04, 0x00, 0x04, 0x00, 0x04, 0x00, 0x00, 0x00, 0x1f, 0x00, 0x00, 0x00,
  0x73, 0x65, 0x72, 0x76, 0x69, 0x6e, 0x67, 0x5f, 0x64, 0x65, 0x66, 0x61,
  0x75, 0x6c, 0x74, 0x5f, 0x64, 0x65, 0x6e, 0x73, 0x65, 0x5f, 0x36, 0x5f,
  0x69, 0x6e, 0x70, 0x75, 0x74, 0x3a, 0x30, 0x00, 0x02, 0x00, 0x00, 0x00,
  0x01, 0x00, 0x00, 0x00, 0x05, 0x00, 0x00, 0x00, 0x04, 0x00, 0x00, 0x00,
  0x58, 0x00, 0x00, 0x00, 0x38, 0x00, 0x00, 0x00, 0x18, 0x00, 0x00, 0x00,
  0x04, 0x00, 0x00, 0x00, 0xe0, 0xff, 0xff, 0xff, 0x06, 0x00, 0x00, 0x00,
  0x02, 0x00, 0x00, 0x00, 0x00, 0x00, 0x00, 0x06, 0xf0, 0xff, 0xff, 0xff,
  0x19, 0x00, 0x00, 0x00, 0x02, 0x00, 0x00, 0x00, 0x00, 0x00, 0x00, 0x19,
  0x0c, 0x00, 0x10, 0x00, 0x0f, 0x00, 0x00, 0x00, 0x08, 0x00, 0x04, 0x00,
  0x0c, 0x00, 0x00, 0x00, 0x09, 0x00, 0x00, 0x00, 0x04, 0x00, 0x00, 0x00,
  0x00, 0x00, 0x00, 0x09, 0x0c, 0x00, 0x0c, 0x00, 0x0b, 0x00, 0x00, 0x00,
  0x00, 0x00, 0x04, 0x00, 0x0c, 0x00, 0x00, 0x00, 0x72, 0x00, 0x00, 0x00,
  0x00, 0x00, 0x00, 0x72
};
unsigned int FFT_model_quantized_tflite_len = 5584;
