unsigned char sine_model_quantized_tflite[] = {
  0x1c, 0x00, 0x00, 0x00, 0x54, 0x46, 0x4c, 0x33, 0x14, 0x00, 0x20, 0x00,
  0x1c, 0x00, 0x18, 0x00, 0x14, 0x00, 0x10, 0x00, 0x0c, 0x00, 0x00, 0x00,
  0x08, 0x00, 0x04, 0x00, 0x14, 0x00, 0x00, 0x00, 0x1c, 0x00, 0x00, 0x00,
  0x94, 0x00, 0x00, 0x00, 0xec, 0x00, 0x00, 0x00, 0x08, 0x07, 0x00, 0x00,
  0x18, 0x07, 0x00, 0x00, 0x28, 0x0c, 0x00, 0x00, 0x03, 0x00, 0x00, 0x00,
  0x01, 0x00, 0x00, 0x00, 0x10, 0x00, 0x00, 0x00, 0x00, 0x00, 0x0a, 0x00,
  0x10, 0x00, 0x0c, 0x00, 0x08, 0x00, 0x04, 0x00, 0x0a, 0x00, 0x00, 0x00,
  0x0c, 0x00, 0x00, 0x00, 0x1c, 0x00, 0x00, 0x00, 0x38, 0x00, 0x00, 0x00,
  0x0f, 0x00, 0x00, 0x00, 0x73, 0x65, 0x72, 0x76, 0x69, 0x6e, 0x67, 0x5f,
  0x64, 0x65, 0x66, 0x61, 0x75, 0x6c, 0x74, 0x00, 0x01, 0x00, 0x00, 0x00,
  0x04, 0x00, 0x00, 0x00, 0x94, 0xff, 0xff, 0xff, 0x09, 0x00, 0x00, 0x00,
  0x04, 0x00, 0x00, 0x00, 0x07, 0x00, 0x00, 0x00, 0x64, 0x65, 0x6e, 0x73,
  0x65, 0x5f, 0x35, 0x00, 0x01, 0x00, 0x00, 0x00, 0x04, 0x00, 0x00, 0x00,
  0x86, 0xf9, 0xff, 0xff, 0x04, 0x00, 0x00, 0x00, 0x0d, 0x00, 0x00, 0x00,
  0x64, 0x65, 0x6e, 0x73, 0x65, 0x5f, 0x33, 0x5f, 0x69, 0x6e, 0x70, 0x75,
  0x74, 0x00, 0x00, 0x00, 0x02, 0x00, 0x00, 0x00, 0x34, 0x00, 0x00, 0x00,
  0x04, 0x00, 0x00, 0x00, 0xdc, 0xff, 0xff, 0xff, 0x0c, 0x00, 0x00, 0x00,
  0x04, 0x00, 0x00, 0x00, 0x13, 0x00, 0x00, 0x00, 0x43, 0x4f, 0x4e, 0x56,
  0x45, 0x52, 0x53, 0x49, 0x4f, 0x4e, 0x5f, 0x4d, 0x45, 0x54, 0x41, 0x44,
  0x41, 0x54, 0x41, 0x00, 0x08, 0x00, 0x0c, 0x00, 0x08, 0x00, 0x04, 0x00,
  0x08, 0x00, 0x00, 0x00, 0x0b, 0x00, 0x00, 0x00, 0x04, 0x00, 0x00, 0x00,
  0x13, 0x00, 0x00, 0x00, 0x6d, 0x69, 0x6e, 0x5f, 0x72, 0x75, 0x6e, 0x74,
  0x69, 0x6d, 0x65, 0x5f, 0x76, 0x65, 0x72, 0x73, 0x69, 0x6f, 0x6e, 0x00,
  0x0d, 0x00, 0x00, 0x00, 0x18, 0x06, 0x00, 0x00, 0x10, 0x06, 0x00, 0x00,
  0xfc, 0x05, 0x00, 0x00, 0xa4, 0x05, 0x00, 0x00, 0x54, 0x05, 0x00, 0x00,
  0x04, 0x05, 0x00, 0x00, 0xf4, 0x00, 0x00, 0x00, 0xa4, 0x00, 0x00, 0x00,
  0x9c, 0x00, 0x00, 0x00, 0x94, 0x00, 0x00, 0x00, 0x8c, 0x00, 0x00, 0x00,
  0x6c, 0x00, 0x00, 0x00, 0x04, 0x00, 0x00, 0x00, 0x36, 0xfa, 0xff, 0xff,
  0x04, 0x00, 0x00, 0x00, 0x58, 0x00, 0x00, 0x00, 0x0c, 0x00, 0x00, 0x00,
  0x08, 0x00, 0x0e, 0x00, 0x08, 0x00, 0x04, 0x00, 0x08, 0x00, 0x00, 0x00,
  0x10, 0x00, 0x00, 0x00, 0x28, 0x00, 0x00, 0x00, 0x00, 0x00, 0x06, 0x00,
  0x08, 0x00, 0x04, 0x00, 0x06, 0x00, 0x00, 0x00, 0x04, 0x00, 0x00, 0x00,
  0x01, 0x00, 0x00, 0x00, 0xea, 0x03, 0x00, 0x00, 0x00, 0x00, 0x0a, 0x00,
  0x10, 0x00, 0x0c, 0x00, 0x08, 0x00, 0x04, 0x00, 0x0a, 0x00, 0x00, 0x00,
  0x02, 0x00, 0x00, 0x00, 0x02, 0x00, 0x00, 0x00, 0x04, 0x00, 0x00, 0x00,
  0x06, 0x00, 0x00, 0x00, 0x32, 0x2e, 0x31, 0x33, 0x2e, 0x30, 0x00, 0x00,
  0x9a, 0xfa, 0xff, 0xff, 0x04, 0x00, 0x00, 0x00, 0x10, 0x00, 0x00, 0x00,
  0x31, 0x2e, 0x35, 0x2e, 0x30, 0x00, 0x00, 0x00, 0x00, 0x00, 0x00, 0x00,
  0x00, 0x00, 0x00, 0x00, 0xa8, 0xf5, 0xff, 0xff, 0xac, 0xf5, 0xff, 0xff,
  0xb0, 0xf5, 0xff, 0xff, 0xc2, 0xfa, 0xff, 0xff, 0x04, 0x00, 0x00, 0x00,
  0x40, 0x00, 0x00, 0x00, 0x8d, 0x58, 0x0d, 0x3f, 0x78, 0xbe, 0x10, 0xbf,
  0x66, 0xe5, 0x39, 0xbf, 0xca, 0x75, 0x73, 0xbf, 0xae, 0x38, 0x0c, 0xbf,
  0x21, 0x9c, 0xc4, 0x3f, 0x99, 0x8d, 0x13, 0xbf, 0xf8, 0x32, 0x1e, 0xbf,
  0x00, 0xad, 0xe0, 0xbd, 0x78, 0x51, 0xfc, 0x3e, 0x0c, 0x50, 0xaf, 0xbe,
  0x11, 0xea, 0x81, 0xbf, 0x6b, 0x0b, 0x85, 0x3f, 0x20, 0x0f, 0x2a, 0xbd,
  0x64, 0xe7, 0x90, 0x3f, 0x52, 0x42, 0x79, 0x3f, 0x0e, 0xfb, 0xff, 0xff,
  0x04, 0x00, 0x00, 0x00, 0x00, 0x04, 0x00, 0x00, 0xcc, 0x20, 0x99, 0xbe,
  0xc2, 0x66, 0xc1, 0x3e, 0xdc, 0x71, 0x33, 0xbe, 0xc7, 0x97, 0x49, 0xbe,
  0x42, 0xb5, 0x8c, 0xbe, 0x94, 0x36, 0x03, 0xbe, 0xe8, 0x0b, 0x85, 0xbd,
  0x93, 0x19, 0xd5, 0x3e, 0x60, 0xee, 0xaf, 0x3e, 0x85, 0x12, 0xa2, 0x3e,
  0x55, 0x66, 0x6d, 0xbe, 0x98, 0xc5, 0x8a, 0xbe, 0xfe, 0x78, 0x00, 0xbe,
  0x72, 0x1e, 0x13, 0x3e, 0xd3, 0xdd, 0xc7, 0xbd, 0xed, 0xa6, 0x7d, 0xbe,
  0x20, 0xd5, 0x19, 0x3f, 0x6e, 0xeb, 0xb7, 0xbe, 0x45, 0xfb, 0x5f, 0xbe,
  0x4c, 0x88, 0xc7, 0x3b, 0x9e, 0x39, 0x15, 0x3e, 0xac, 0x10, 0xb0, 0x3d,
  0x1c, 0x61, 0xb0, 0xbd, 0x3e, 0x43, 0x9f, 0xbe, 0x95, 0x28, 0x20, 0xbf,
  0x4a, 0x45, 0x53, 0xbe, 0x61, 0xe1, 0xd4, 0x3e, 0xae, 0x82, 0x2e, 0x3e,
  0xaf, 0x1a, 0x57, 0xbe, 0xc4, 0x10, 0x35, 0xbe, 0x0d, 0xe2, 0xc1, 0x3d,
  0x0e, 0xe1, 0x2f, 0x3e, 0x07, 0x5c, 0xba, 0x3e, 0x6b, 0xc3, 0x0b, 0xbf,
  0x49, 0xd7, 0xbf, 0xbe, 0xd9, 0x13, 0x06, 0x3e, 0xd6, 0xf5, 0x9d, 0xbe,
  0x2f, 0x24, 0x84, 0x3e, 0xa8, 0x15, 0x72, 0x3d, 0x7f, 0xce, 0xb8, 0x3e,
  0xaf, 0x8c, 0x1e, 0xbf, 0x20, 0x12, 0x12, 0xbd, 0x18, 0xbc, 0xe4, 0xbd,
  0x18, 0x8e, 0x8c, 0xbe, 0x9e, 0x94, 0x48, 0x3e, 0x92, 0x3f, 0x33, 0x3e,
  0x60, 0x52, 0x81, 0x3e, 0xb8, 0x23, 0x2a, 0xbe, 0x4c, 0xb0, 0x0a, 0xbe,
  0x07, 0x9e, 0x3d, 0xbe, 0x74, 0xad, 0x8c, 0xbd, 0x73, 0x77, 0x9a, 0x3e,
  0x20, 0x25, 0x04, 0x3d, 0x10, 0xbc, 0x96, 0xbe, 0x80, 0xc8, 0xf3, 0xbb,
  0x00, 0x6a, 0x45, 0x3b, 0xc5, 0xad, 0x4d, 0xbf, 0x7e, 0x07, 0x30, 0xbe,
  0xa6, 0xdd, 0xa6, 0xbe, 0xa4, 0xa9, 0x88, 0xbe, 0x44, 0x42, 0xe5, 0xbd,
  0xf0, 0x2b, 0xca, 0xbe, 0x53, 0x2f, 0xbf, 0x3e, 0xc6, 0xe9, 0xa2, 0xbe,
  0x58, 0x14, 0x28, 0xbd, 0x66, 0xeb, 0x71, 0x3e, 0x60, 0x6b, 0xbb, 0xbe,
  0x3a, 0x49, 0x9d, 0xbe, 0x80, 0x6a, 0x53, 0xbe, 0x22, 0xf5, 0x62, 0x3e,
  0x2c, 0x3f, 0xb9, 0xbe, 0x78, 0x15, 0xa6, 0xbd, 0xc5, 0x9e, 0xcd, 0x3e,
  0xf1, 0x9b, 0x5a, 0xbe, 0xe8, 0x0d, 0x47, 0xbd, 0xf4, 0x46, 0xf8, 0xbd,
  0xce, 0xe3, 0x59, 0x3e, 0xd9, 0xb9, 0x74, 0xbe, 0x06, 0x4a, 0xa8, 0xbd,
  0xb8, 0xa0, 0x07, 0xbf, 0x8b, 0xc1, 0x27, 0xbf, 0xfa, 0xab, 0x09, 0x3e,
  0x9d, 0x26, 0xaf, 0x3e, 0x57, 0x2e, 0xd7, 0x3e, 0xd3, 0x7c, 0xdb, 0x3e,
  0x17, 0x3c, 0x49, 0xbe, 0x6e, 0x13, 0x30, 0xbe, 0x8c, 0xd5, 0x65, 0xbe,
  0xa0, 0x47, 0x81, 0xbe, 0x5d, 0x3c, 0xaa, 0x3e, 0x35, 0x00, 0xa2, 0x3e,
  0xf0, 0x36, 0x8d, 0xbd, 0xe1, 0x26, 0xa3, 0x3e, 0xbc, 0x6e, 0x91, 0x3e,
  0x02, 0x16, 0x39, 0x3e, 0x76, 0x18, 0x11, 0x3f, 0x34, 0xfa, 0xb7, 0x3d,
  0x54, 0x92, 0x93, 0xbe, 0x3c, 0xe3, 0x66, 0xbe, 0x00, 0xf9, 0xfb, 0x3a,
  0x2c, 0x8f, 0x0b, 0xbe, 0xcd, 0xa5, 0xcc, 0xbe, 0x63, 0x92, 0xd7, 0x3e,
  0x14, 0xb0, 0xea, 0xbd, 0xb9, 0x79, 0xb4, 0xbe, 0x3a, 0x81, 0x00, 0x3e,
  0x8e, 0x48, 0x0f, 0x3e, 0x32, 0xf1, 0x9f, 0xbe, 0xa0, 0x7b, 0xe7, 0xbd,
  0x8d, 0xa1, 0xbc, 0x3e, 0xdb, 0x4c, 0xbc, 0xbe, 0xbd, 0x35, 0xa4, 0x3e,
  0xc1, 0xb1, 0xf6, 0x3e, 0xa1, 0x77, 0xbf, 0xbe, 0x47, 0x2d, 0x89, 0x3e,
  0x35, 0x0d, 0xd1, 0xbe, 0x16, 0x84, 0x48, 0xbe, 0x9a, 0xa8, 0x51, 0xbe,
  0x90, 0x7b, 0x92, 0xbe, 0x1d, 0x69, 0x91, 0xbe, 0x6b, 0x82, 0xca, 0xbe,
  0xaf, 0x64, 0x83, 0xbe, 0xe6, 0x51, 0xa2, 0xbe, 0xfd, 0xec, 0x89, 0x3e,
  0xbe, 0x7a, 0x1c, 0x3e, 0xae, 0x9b, 0x67, 0x3e, 0x19, 0x19, 0x40, 0x3d,
  0xb9, 0x58, 0x37, 0xbe, 0x0c, 0x8b, 0x86, 0x3e, 0x0a, 0x49, 0xb7, 0xbe,
  0x28, 0x00, 0xa5, 0xbe, 0xc8, 0x41, 0x04, 0xbe, 0x9e, 0x41, 0x28, 0x3e,
  0x8f, 0xd0, 0xb4, 0x3e, 0x8c, 0x4c, 0xeb, 0x3d, 0xd6, 0xbf, 0x70, 0x3e,
  0xde, 0xa6, 0xb1, 0x3e, 0xb4, 0x7e, 0xa4, 0x3d, 0xad, 0xf7, 0xce, 0x3e,
  0xde, 0x90, 0x23, 0x3e, 0x30, 0x55, 0x6d, 0x3d, 0x17, 0xe3, 0x8e, 0xbe,
  0xb2, 0x7b, 0x0c, 0x3e, 0x8c, 0xce, 0xd9, 0x3c, 0x91, 0xb6, 0x9f, 0x3e,
  0x3e, 0x6e, 0xeb, 0xbb, 0xe7, 0x0a, 0x84, 0x3e, 0x95, 0x97, 0xd2, 0xbe,
  0xb0, 0x90, 0x59, 0xbd, 0xc0, 0x8c, 0x18, 0xbd, 0x62, 0xf0, 0x71, 0x3e,
  0x28, 0x70, 0x16, 0x3d, 0xe4, 0x3b, 0x50, 0xbe, 0x49, 0x42, 0xbe, 0x3e,
  0xb1, 0x4f, 0xc1, 0x3e, 0x40, 0xec, 0x01, 0xbd, 0x23, 0xc1, 0xc5, 0x3e,
  0x0e, 0x20, 0x93, 0xbe, 0x05, 0xfc, 0xb8, 0xbe, 0xa5, 0xe0, 0xb6, 0x3e,
  0xd8, 0x8d, 0x9b, 0xbd, 0xb4, 0x25, 0xbb, 0xbe, 0x6a, 0xae, 0x58, 0x3e,
  0xf0, 0x63, 0x5b, 0xbe, 0x10, 0x1b, 0xe6, 0x3c, 0x6b, 0x00, 0xca, 0xbe,
  0x20, 0x06, 0x28, 0x3c, 0x8d, 0x93, 0x9e, 0x3e, 0x51, 0x07, 0xb2, 0xbe,
  0xa3, 0xf0, 0xc5, 0x3e, 0x8c, 0x4a, 0xbf, 0xbd, 0x24, 0x08, 0x8b, 0x3d,
  0x52, 0x53, 0x00, 0x3e, 0xf4, 0xb1, 0xd4, 0xbe, 0x74, 0xe2, 0xb8, 0xbd,
  0xa8, 0xd8, 0x11, 0xbe, 0xb3, 0x37, 0xed, 0x3e, 0xd1, 0xf0, 0xf9, 0x3d,
  0x1a, 0x84, 0xdb, 0xbe, 0x09, 0x4c, 0xb0, 0xbe, 0x10, 0x74, 0x39, 0xbd,
  0x8a, 0x5a, 0x48, 0x3e, 0x54, 0x90, 0x0c, 0xbe, 0x46, 0x25, 0x7a, 0xbe,
  0x95, 0x97, 0xb2, 0xbd, 0x32, 0x5b, 0x8a, 0xbe, 0x08, 0x1b, 0x93, 0xbe,
  0xc2, 0x99, 0x65, 0x3e, 0x3a, 0x65, 0x56, 0x3e, 0xce, 0x00, 0x24, 0xbf,
  0x55, 0xa6, 0x01, 0x3e, 0xad, 0x5b, 0x1c, 0x3e, 0x44, 0x0a, 0x0b, 0x3f,
  0x34, 0xca, 0xbc, 0x3d, 0xa5, 0x18, 0xcb, 0xbe, 0x25, 0x85, 0x0d, 0xbe,
  0xe4, 0x78, 0xb8, 0x3d, 0x7e, 0x7e, 0x3d, 0xbe, 0x03, 0xca, 0x89, 0xbe,
  0xb4, 0x3b, 0xb9, 0x3d, 0x24, 0xfe, 0xef, 0xbe, 0x46, 0xbe, 0x61, 0x3e,
  0x13, 0xea, 0xbe, 0x3e, 0xd2, 0x30, 0x23, 0xbe, 0xc2, 0x17, 0xd6, 0xbe,
  0x90, 0x0b, 0x2f, 0xbf, 0x6a, 0xf2, 0xc5, 0x3e, 0xf8, 0xd0, 0x0e, 0xbf,
  0xc0, 0x1d, 0x6c, 0xbd, 0x4f, 0x5f, 0xaa, 0x3e, 0xc3, 0xce, 0xa6, 0x3e,
  0x60, 0xb2, 0xbd, 0xbe, 0x01, 0x43, 0xa2, 0xbe, 0xdc, 0xfd, 0x85, 0x3d,
  0x67, 0x7b, 0xa4, 0x3e, 0x9e, 0x7b, 0x45, 0x3e, 0x10, 0x9e, 0xf3, 0xbd,
  0xbb, 0x7a, 0x9b, 0x3e, 0x73, 0x21, 0x99, 0x3e, 0x2d, 0xe5, 0xcb, 0xbe,
  0xe3, 0x3b, 0xd6, 0xbe, 0x94, 0x0f, 0xcd, 0xbe, 0xa8, 0xbd, 0xf8, 0xbd,
  0x1a, 0xcc, 0x55, 0x3e, 0x66, 0x7b, 0xf4, 0x3e, 0x09, 0x8f, 0x16, 0xbe,
  0x2c, 0x6c, 0xc8, 0x3d, 0x9b, 0x9a, 0xca, 0xbe, 0x02, 0x93, 0x96, 0xbe,
  0x94, 0x01, 0xbc, 0xbd, 0x3d, 0xe3, 0xd2, 0x3e, 0x58, 0x25, 0xc2, 0xbe,
  0x75, 0x12, 0x59, 0xbc, 0xf6, 0x78, 0xca, 0xbe, 0xfd, 0xe0, 0x98, 0x3e,
  0x30, 0x8c, 0xd7, 0xbe, 0xbd, 0x4c, 0xae, 0x3e, 0x23, 0xac, 0x86, 0xbf,
  0x8a, 0xb0, 0xd4, 0x3e, 0x19, 0x4e, 0x24, 0xbf, 0x3f, 0x6a, 0x3e, 0x3e,
  0xc4, 0x8e, 0xd3, 0xb9, 0x23, 0x7f, 0xd9, 0x3e, 0x6f, 0x25, 0x87, 0xbe,
  0x76, 0xc8, 0x1c, 0xbe, 0xb0, 0xc2, 0x51, 0xbe, 0x5e, 0xb2, 0x00, 0xbe,
  0x68, 0xdf, 0x0e, 0x3d, 0x94, 0x97, 0x0a, 0x3e, 0x94, 0x99, 0xe5, 0x3d,
  0xe7, 0xde, 0xa2, 0x3e, 0xf4, 0xe8, 0xe9, 0x3d, 0x6e, 0x1e, 0x83, 0xbe,
  0x96, 0x80, 0x6a, 0xbf, 0x53, 0x00, 0xca, 0x3d, 0x9a, 0x5c, 0xf0, 0xbe,
  0x1a, 0xff, 0xff, 0xff, 0x04, 0x00, 0x00, 0x00, 0x40, 0x00, 0x00, 0x00,
  0x57, 0x40, 0x86, 0x3c, 0xee, 0xff, 0xae, 0x3e, 0xfa, 0xde, 0xe5, 0xbe,
  0x5c, 0x95, 0xd4, 0x3e, 0x5d, 0x94, 0x81, 0xbe, 0x56, 0x7b, 0x6f, 0xbe,
  0xb8, 0xff, 0x08, 0xbe, 0x0e, 0xa2, 0xed, 0xbe, 0xbb, 0x8d, 0x05, 0x3f,
  0x02, 0xa5, 0xb8, 0xbe, 0xf6, 0xcc, 0xc7, 0xbe, 0xae, 0xd1, 0x88, 0xbe,
  0x40, 0x25, 0x4d, 0xbd, 0x8d, 0xe8, 0x3a, 0x3e, 0xe4, 0xa6, 0x67, 0x3e,
  0x36, 0xa3, 0x8b, 0x3e, 0x66, 0xff, 0xff, 0xff, 0x04, 0x00, 0x00, 0x00,
  0x40, 0x00, 0x00, 0x00, 0x12, 0x84, 0x69, 0x3f, 0x23, 0x09, 0xd7, 0xbc,
  0x00, 0x00, 0x00, 0x00, 0xa3, 0x7a, 0x42, 0xbf, 0x00, 0x00, 0x00, 0x00,
  0x00, 0x00, 0x00, 0x00, 0x00, 0x00, 0x00, 0x00, 0x00, 0x00, 0x00, 0x00,
  0x47, 0xe6, 0x98, 0x3d, 0x00, 0x00, 0x00, 0x00, 0x00, 0x00, 0x00, 0x00,
  0x00, 0x00, 0x00, 0x00, 0x00, 0x00, 0x00, 0x00, 0x81, 0x52, 0x09, 0xbf,
  0xf1, 0x1e, 0xdd, 0x3e, 0x05, 0xab, 0xa9, 0xbe, 0xb2, 0xff, 0xff, 0xff,
  0x04, 0x00, 0x00, 0x00, 0x40, 0x00, 0x00, 0x00, 0x23, 0x9e, 0xbd, 0xbe,
  0xaa, 0x00, 0x92, 0x3e, 0x84, 0xd2, 0x9c, 0x3e, 0x06, 0x26, 0x75, 0x3e,
  0xf7, 0x09, 0x9a, 0x3e, 0xd0, 0x7d, 0x07, 0xbf, 0x00, 0x00, 0x00, 0x00,
  0xe4, 0xf0, 0x9c, 0x3e, 0xf0, 0x92, 0x85, 0x3e, 0x69, 0x44, 0xf2, 0xbd,
  0x00, 0x00, 0x00, 0x00, 0x66, 0xa6, 0x95, 0x3e, 0x2a, 0xba, 0xdd, 0x3e,
  0x00, 0x00, 0x00, 0x00, 0x38, 0xd1, 0xe6, 0x3e, 0x23, 0x2b, 0xf2, 0x3e,
  0x00, 0x00, 0x06, 0x00, 0x08, 0x00, 0x04, 0x00, 0x06, 0x00, 0x00, 0x00,
  0x04, 0x00, 0x00, 0x00, 0x04, 0x00, 0x00, 0x00, 0xd7, 0x9c, 0xb0, 0xbe,
  0x08, 0xfb, 0xff, 0xff, 0x0c, 0xfb, 0xff, 0xff, 0x0f, 0x00, 0x00, 0x00,
  0x4d, 0x4c, 0x49, 0x52, 0x20, 0x43, 0x6f, 0x6e, 0x76, 0x65, 0x72, 0x74,
  0x65, 0x64, 0x2e, 0x00, 0x01, 0x00, 0x00, 0x00, 0x14, 0x00, 0x00, 0x00,
  0x00, 0x00, 0x0e, 0x00, 0x18, 0x00, 0x14, 0x00, 0x10, 0x00, 0x0c, 0x00,
  0x08, 0x00, 0x04, 0x00, 0x0e, 0x00, 0x00, 0x00, 0x14, 0x00, 0x00, 0x00,
  0x1c, 0x00, 0x00, 0x00, 0xd8, 0x00, 0x00, 0x00, 0xdc, 0x00, 0x00, 0x00,
  0xe0, 0x00, 0x00, 0x00, 0x04, 0x00, 0x00, 0x00, 0x6d, 0x61, 0x69, 0x6e,
  0x00, 0x00, 0x00, 0x00, 0x03, 0x00, 0x00, 0x00, 0x80, 0x00, 0x00, 0x00,
  0x38, 0x00, 0x00, 0x00, 0x04, 0x00, 0x00, 0x00, 0x9a, 0xff, 0xff, 0xff,
  0x10, 0x00, 0x00, 0x00, 0x00, 0x00, 0x00, 0x08, 0x0c, 0x00, 0x00, 0x00,
  0x10, 0x00, 0x00, 0x00, 0x84, 0xfb, 0xff, 0xff, 0x01, 0x00, 0x00, 0x00,
  0x09, 0x00, 0x00, 0x00, 0x03, 0x00, 0x00, 0x00, 0x08, 0x00, 0x00, 0x00,
  0x06, 0x00, 0x00, 0x00, 0x01, 0x00, 0x00, 0x00, 0xca, 0xff, 0xff, 0xff,
  0x10, 0x00, 0x00, 0x00, 0x00, 0x00, 0x00, 0x08, 0x10, 0x00, 0x00, 0x00,
  0x14, 0x00, 0x00, 0x00, 0xba, 0xff, 0xff, 0xff, 0x00, 0x00, 0x00, 0x01,
  0x01, 0x00, 0x00, 0x00, 0x08, 0x00, 0x00, 0x00, 0x03, 0x00, 0x00, 0x00,
  0x07, 0x00, 0x00, 0x00, 0x05, 0x00, 0x00, 0x00, 0x02, 0x00, 0x00, 0x00,
  0x00, 0x00, 0x0e, 0x00, 0x16, 0x00, 0x00, 0x00, 0x10, 0x00, 0x0c, 0x00,
  0x0b, 0x00, 0x04, 0x00, 0x0e, 0x00, 0x00, 0x00, 0x18, 0x00, 0x00, 0x00,
  0x00, 0x00, 0x00, 0x08, 0x18, 0x00, 0x00, 0x00, 0x1c, 0x00, 0x00, 0x00,
  0x00, 0x00, 0x06, 0x00, 0x08, 0x00, 0x07, 0x00, 0x06, 0x00, 0x00, 0x00,
  0x00, 0x00, 0x00, 0x01, 0x01, 0x00, 0x00, 0x00, 0x07, 0x00, 0x00, 0x00,
  0x03, 0x00, 0x00, 0x00, 0x00, 0x00, 0x00, 0x00, 0x04, 0x00, 0x00, 0x00,
  0x03, 0x00, 0x00, 0x00, 0x01, 0x00, 0x00, 0x00, 0x09, 0x00, 0x00, 0x00,
  0x01, 0x00, 0x00, 0x00, 0x00, 0x00, 0x00, 0x00, 0x0a, 0x00, 0x00, 0x00,
  0xa4, 0x03, 0x00, 0x00, 0x34, 0x03, 0x00, 0x00, 0xc4, 0x02, 0x00, 0x00,
  0x6c, 0x02, 0x00, 0x00, 0x20, 0x02, 0x00, 0x00, 0xd4, 0x01, 0x00, 0x00,
  0x88, 0x01, 0x00, 0x00, 0xf4, 0x00, 0x00, 0x00, 0x60, 0x00, 0x00, 0x00,
  0x04, 0x00, 0x00, 0x00, 0x9a, 0xfc, 0xff, 0xff, 0x00, 0x00, 0x00, 0x01,
  0x14, 0x00, 0x00, 0x00, 0x1c, 0x00, 0x00, 0x00, 0x1c, 0x00, 0x00, 0x00,
  0x0a, 0x00, 0x00, 0x00, 0x34, 0x00, 0x00, 0x00, 0x02, 0x00, 0x00, 0x00,
  0xff, 0xff, 0xff, 0xff, 0x01, 0x00, 0x00, 0x00, 0x84, 0xfc, 0xff, 0xff,
  0x19, 0x00, 0x00, 0x00, 0x53, 0x74, 0x61, 0x74, 0x65, 0x66, 0x75, 0x6c,
  0x50, 0x61, 0x72, 0x74, 0x69, 0x74, 0x69, 0x6f, 0x6e, 0x65, 0x64, 0x43,
  0x61, 0x6c, 0x6c, 0x3a, 0x30, 0x00, 0x00, 0x00, 0x02, 0x00, 0x00, 0x00,
  0x01, 0x00, 0x00, 0x00, 0x01, 0x00, 0x00, 0x00, 0xf2, 0xfc, 0xff, 0xff,
  0x00, 0x00, 0x00, 0x01, 0x14, 0x00, 0x00, 0x00, 0x1c, 0x00, 0x00, 0x00,
  0x1c, 0x00, 0x00, 0x00, 0x09, 0x00, 0x00, 0x00, 0x6c, 0x00, 0x00, 0x00,
  0x02, 0x00, 0x00, 0x00, 0xff, 0xff, 0xff, 0xff, 0x10, 0x00, 0x00, 0x00,
  0xdc, 0xfc, 0xff, 0xff, 0x52, 0x00, 0x00, 0x00, 0x73, 0x65, 0x71, 0x75,
  0x65, 0x6e, 0x74, 0x69, 0x61, 0x6c, 0x5f, 0x31, 0x2f, 0x64, 0x65, 0x6e,
  0x73, 0x65, 0x5f, 0x34, 0x2f, 0x4d, 0x61, 0x74, 0x4d, 0x75, 0x6c, 0x3b,
  0x73, 0x65, 0x71, 0x75, 0x65, 0x6e, 0x74, 0x69, 0x61, 0x6c, 0x5f, 0x31,
  0x2f, 0x64, 0x65, 0x6e, 0x73, 0x65, 0x5f, 0x34, 0x2f, 0x52, 0x65, 0x6c,
  0x75, 0x3b, 0x73, 0x65, 0x71, 0x75, 0x65, 0x6e, 0x74, 0x69, 0x61, 0x6c,
  0x5f, 0x31, 0x2f, 0x64, 0x65, 0x6e, 0x73, 0x65, 0x5f, 0x34, 0x2f, 0x42,
  0x69, 0x61, 0x73, 0x41, 0x64, 0x64, 0x00, 0x00, 0x02, 0x00, 0x00, 0x00,
  0x01, 0x00, 0x00, 0x00, 0x10, 0x00, 0x00, 0x00, 0x82, 0xfd, 0xff, 0xff,
  0x00, 0x00, 0x00, 0x01, 0x14, 0x00, 0x00, 0x00, 0x1c, 0x00, 0x00, 0x00,
  0x1c, 0x00, 0x00, 0x00, 0x08, 0x00, 0x00, 0x00, 0x6c, 0x00, 0x00, 0x00,
  0x02, 0x00, 0x00, 0x00, 0xff, 0xff, 0xff, 0xff, 0x10, 0x00, 0x00, 0x00,
  0x6c, 0xfd, 0xff, 0xff, 0x52, 0x00, 0x00, 0x00, 0x73, 0x65, 0x71, 0x75,
  0x65, 0x6e, 0x74, 0x69, 0x61, 0x6c, 0x5f, 0x31, 0x2f, 0x64, 0x65, 0x6e,
  0x73, 0x65, 0x5f, 0x33, 0x2f, 0x4d, 0x61, 0x74, 0x4d, 0x75, 0x6c, 0x3b,
  0x73, 0x65, 0x71, 0x75, 0x65, 0x6e, 0x74, 0x69, 0x61, 0x6c, 0x5f, 0x31,
  0x2f, 0x64, 0x65, 0x6e, 0x73, 0x65, 0x5f, 0x33, 0x2f, 0x52, 0x65, 0x6c,
  0x75, 0x3b, 0x73, 0x65, 0x71, 0x75, 0x65, 0x6e, 0x74, 0x69, 0x61, 0x6c,
  0x5f, 0x31, 0x2f, 0x64, 0x65, 0x6e, 0x73, 0x65, 0x5f, 0x33, 0x2f, 0x42,
  0x69, 0x61, 0x73, 0x41, 0x64, 0x64, 0x00, 0x00, 0x02, 0x00, 0x00, 0x00,
  0x01, 0x00, 0x00, 0x00, 0x10, 0x00, 0x00, 0x00, 0x7e, 0xfe, 0xff, 0xff,
  0x00, 0x00, 0x00, 0x01, 0x10, 0x00, 0x00, 0x00, 0x10, 0x00, 0x00, 0x00,
  0x07, 0x00, 0x00, 0x00, 0x28, 0x00, 0x00, 0x00, 0xec, 0xfd, 0xff, 0xff,
  0x1b, 0x00, 0x00, 0x00, 0x73, 0x65, 0x71, 0x75, 0x65, 0x6e, 0x74, 0x69,
  0x61, 0x6c, 0x5f, 0x31, 0x2f, 0x64, 0x65, 0x6e, 0x73, 0x65, 0x5f, 0x35,
  0x2f, 0x4d, 0x61, 0x74, 0x4d, 0x75, 0x6c, 0x00, 0x02, 0x00, 0x00, 0x00,
  0x01, 0x00, 0x00, 0x00, 0x10, 0x00, 0x00, 0x00, 0xc6, 0xfe, 0xff, 0xff,
  0x00, 0x00, 0x00, 0x01, 0x10, 0x00, 0x00, 0x00, 0x10, 0x00, 0x00, 0x00,
  0x06, 0x00, 0x00, 0x00, 0x28, 0x00, 0x00, 0x00, 0x34, 0xfe, 0xff, 0xff,
  0x1b, 0x00, 0x00, 0x00, 0x73, 0x65, 0x71, 0x75, 0x65, 0x6e, 0x74, 0x69,
  0x61, 0x6c, 0x5f, 0x31, 0x2f, 0x64, 0x65, 0x6e, 0x73, 0x65, 0x5f, 0x34,
  0x2f, 0x4d, 0x61, 0x74, 0x4d, 0x75, 0x6c, 0x00, 0x02, 0x00, 0x00, 0x00,
  0x10, 0x00, 0x00, 0x00, 0x10, 0x00, 0x00, 0x00, 0x0e, 0xff, 0xff, 0xff,
  0x00, 0x00, 0x00, 0x01, 0x10, 0x00, 0x00, 0x00, 0x10, 0x00, 0x00, 0x00,
  0x05, 0x00, 0x00, 0x00, 0x28, 0x00, 0x00, 0x00, 0x7c, 0xfe, 0xff, 0xff,
  0x1b, 0x00, 0x00, 0x00, 0x73, 0x65, 0x71, 0x75, 0x65, 0x6e, 0x74, 0x69,
  0x61, 0x6c, 0x5f, 0x31, 0x2f, 0x64, 0x65, 0x6e, 0x73, 0x65, 0x5f, 0x33,
  0x2f, 0x4d, 0x61, 0x74, 0x4d, 0x75, 0x6c, 0x00, 0x02, 0x00, 0x00, 0x00,
  0x10, 0x00, 0x00, 0x00, 0x01, 0x00, 0x00, 0x00, 0x56, 0xff, 0xff, 0xff,
  0x00, 0x00, 0x00, 0x01, 0x10, 0x00, 0x00, 0x00, 0x10, 0x00, 0x00, 0x00,
  0x04, 0x00, 0x00, 0x00, 0x38, 0x00, 0x00, 0x00, 0xc4, 0xfe, 0xff, 0xff,
  0x2b, 0x00, 0x00, 0x00, 0x73, 0x65, 0x71, 0x75, 0x65, 0x6e, 0x74, 0x69,
  0x61, 0x6c, 0x5f, 0x31, 0x2f, 0x64, 0x65, 0x6e, 0x73, 0x65, 0x5f, 0x33,
  0x2f, 0x42, 0x69, 0x61, 0x73, 0x41, 0x64, 0x64, 0x2f, 0x52, 0x65, 0x61,
  0x64, 0x56, 0x61, 0x72, 0x69, 0x61, 0x62, 0x6c, 0x65, 0x4f, 0x70, 0x00,
  0x01, 0x00, 0x00, 0x00, 0x10, 0x00, 0x00, 0x00, 0xaa, 0xff, 0xff, 0xff,
  0x00, 0x00, 0x00, 0x01, 0x10, 0x00, 0x00, 0x00, 0x10, 0x00, 0x00, 0x00,
  0x03, 0x00, 0x00, 0x00, 0x38, 0x00, 0x00, 0x00, 0x18, 0xff, 0xff, 0xff,
  0x2b, 0x00, 0x00, 0x00, 0x73, 0x65, 0x71, 0x75, 0x65, 0x6e, 0x74, 0x69,
  0x61, 0x6c, 0x5f, 0x31, 0x2f, 0x64, 0x65, 0x6e, 0x73, 0x65, 0x5f, 0x34,
  0x2f, 0x42, 0x69, 0x61, 0x73, 0x41, 0x64, 0x64, 0x2f, 0x52, 0x65, 0x61,
  0x64, 0x56, 0x61, 0x72, 0x69, 0x61, 0x62, 0x6c, 0x65, 0x4f, 0x70, 0x00,
  0x01, 0x00, 0x00, 0x00, 0x10, 0x00, 0x00, 0x00, 0x00, 0x00, 0x16, 0x00,
  0x18, 0x00, 0x14, 0x00, 0x00, 0x00, 0x10, 0x00, 0x0c, 0x00, 0x08, 0x00,
  0x00, 0x00, 0x00, 0x00, 0x00, 0x00, 0x07, 0x00, 0x16, 0x00, 0x00, 0x00,
  0x00, 0x00, 0x00, 0x01, 0x10, 0x00, 0x00, 0x00, 0x10, 0x00, 0x00, 0x00,
  0x02, 0x00, 0x00, 0x00, 0x38, 0x00, 0x00, 0x00, 0x84, 0xff, 0xff, 0xff,
  0x2b, 0x00, 0x00, 0x00, 0x73, 0x65, 0x71, 0x75, 0x65, 0x6e, 0x74, 0x69,
  0x61, 0x6c, 0x5f, 0x31, 0x2f, 0x64, 0x65, 0x6e, 0x73, 0x65, 0x5f, 0x35,
  0x2f, 0x42, 0x69, 0x61, 0x73, 0x41, 0x64, 0x64, 0x2f, 0x52, 0x65, 0x61,
  0x64, 0x56, 0x61, 0x72, 0x69, 0x61, 0x62, 0x6c, 0x65, 0x4f, 0x70, 0x00,
  0x01, 0x00, 0x00, 0x00, 0x01, 0x00, 0x00, 0x00, 0x00, 0x00, 0x16, 0x00,
  0x1c, 0x00, 0x18, 0x00, 0x00, 0x00, 0x14, 0x00, 0x10, 0x00, 0x0c, 0x00,
  0x00, 0x00, 0x00, 0x00, 0x08, 0x00, 0x07, 0x00, 0x16, 0x00, 0x00, 0x00,
  0x00, 0x00, 0x00, 0x01, 0x14, 0x00, 0x00, 0x00, 0x20, 0x00, 0x00, 0x00,
  0x20, 0x00, 0x00, 0x00, 0x01, 0x00, 0x00, 0x00, 0x3c, 0x00, 0x00, 0x00,
  0x02, 0x00, 0x00, 0x00, 0xff, 0xff, 0xff, 0xff, 0x01, 0x00, 0x00, 0x00,
  0x04, 0x00, 0x04, 0x00, 0x04, 0x00, 0x00, 0x00, 0x1f, 0x00, 0x00, 0x00,
  0x73, 0x65, 0x72, 0x76, 0x69, 0x6e, 0x67, 0x5f, 0x64, 0x65, 0x66, 0x61,
  0x75, 0x6c, 0x74, 0x5f, 0x64, 0x65, 0x6e, 0x73, 0x65, 0x5f, 0x33, 0x5f,
  0x69, 0x6e, 0x70, 0x75, 0x74, 0x3a, 0x30, 0x00, 0x02, 0x00, 0x00, 0x00,
  0x01, 0x00, 0x00, 0x00, 0x01, 0x00, 0x00, 0x00, 0x01, 0x00, 0x00, 0x00,
  0x10, 0x00, 0x00, 0x00, 0x0c, 0x00, 0x0c, 0x00, 0x0b, 0x00, 0x00, 0x00,
  0x00, 0x00, 0x04, 0x00, 0x0c, 0x00, 0x00, 0x00, 0x09, 0x00, 0x00, 0x00,
  0x00, 0x00, 0x00, 0x09
};
unsigned int sine_model_quantized_tflite_len = 3196;
