unsigned char FFT_model_quantized_tflite[] = {
  0x1c, 0x00, 0x00, 0x00, 0x54, 0x46, 0x4c, 0x33, 0x14, 0x00, 0x20, 0x00,
  0x1c, 0x00, 0x18, 0x00, 0x14, 0x00, 0x10, 0x00, 0x0c, 0x00, 0x00, 0x00,
  0x08, 0x00, 0x04, 0x00, 0x14, 0x00, 0x00, 0x00, 0x1c, 0x00, 0x00, 0x00,
  0x98, 0x00, 0x00, 0x00, 0xf0, 0x00, 0x00, 0x00, 0x10, 0x28, 0x00, 0x00,
  0x20, 0x28, 0x00, 0x00, 0x1c, 0x2e, 0x00, 0x00, 0x03, 0x00, 0x00, 0x00,
  0x01, 0x00, 0x00, 0x00, 0x10, 0x00, 0x00, 0x00, 0x00, 0x00, 0x0a, 0x00,
  0x10, 0x00, 0x0c, 0x00, 0x08, 0x00, 0x04, 0x00, 0x0a, 0x00, 0x00, 0x00,
  0x0c, 0x00, 0x00, 0x00, 0x1c, 0x00, 0x00, 0x00, 0x3c, 0x00, 0x00, 0x00,
  0x0f, 0x00, 0x00, 0x00, 0x73, 0x65, 0x72, 0x76, 0x69, 0x6e, 0x67, 0x5f,
  0x64, 0x65, 0x66, 0x61, 0x75, 0x6c, 0x74, 0x00, 0x01, 0x00, 0x00, 0x00,
  0x04, 0x00, 0x00, 0x00, 0x90, 0xff, 0xff, 0xff, 0x0a, 0x00, 0x00, 0x00,
  0x04, 0x00, 0x00, 0x00, 0x08, 0x00, 0x00, 0x00, 0x64, 0x65, 0x6e, 0x73,
  0x65, 0x5f, 0x31, 0x34, 0x00, 0x00, 0x00, 0x00, 0x01, 0x00, 0x00, 0x00,
  0x04, 0x00, 0x00, 0x00, 0xd6, 0xd7, 0xff, 0xff, 0x04, 0x00, 0x00, 0x00,
  0x0e, 0x00, 0x00, 0x00, 0x64, 0x65, 0x6e, 0x73, 0x65, 0x5f, 0x31, 0x32,
  0x5f, 0x69, 0x6e, 0x70, 0x75, 0x74, 0x00, 0x00, 0x02, 0x00, 0x00, 0x00,
  0x34, 0x00, 0x00, 0x00, 0x04, 0x00, 0x00, 0x00, 0xdc, 0xff, 0xff, 0xff,
  0x0d, 0x00, 0x00, 0x00, 0x04, 0x00, 0x00, 0x00, 0x13, 0x00, 0x00, 0x00,
  0x43, 0x4f, 0x4e, 0x56, 0x45, 0x52, 0x53, 0x49, 0x4f, 0x4e, 0x5f, 0x4d,
  0x45, 0x54, 0x41, 0x44, 0x41, 0x54, 0x41, 0x00, 0x08, 0x00, 0x0c, 0x00,
  0x08, 0x00, 0x04, 0x00, 0x08, 0x00, 0x00, 0x00, 0x0c, 0x00, 0x00, 0x00,
  0x04, 0x00, 0x00, 0x00, 0x13, 0x00, 0x00, 0x00, 0x6d, 0x69, 0x6e, 0x5f,
  0x72, 0x75, 0x6e, 0x74, 0x69, 0x6d, 0x65, 0x5f, 0x76, 0x65, 0x72, 0x73,
  0x69, 0x6f, 0x6e, 0x00, 0x0e, 0x00, 0x00, 0x00, 0x1c, 0x27, 0x00, 0x00,
  0x14, 0x27, 0x00, 0x00, 0x04, 0x25, 0x00, 0x00, 0xf4, 0x04, 0x00, 0x00,
  0x64, 0x04, 0x00, 0x00, 0xd4, 0x01, 0x00, 0x00, 0xc4, 0x00, 0x00, 0x00,
  0xac, 0x00, 0x00, 0x00, 0xa4, 0x00, 0x00, 0x00, 0x9c, 0x00, 0x00, 0x00,
  0x94, 0x00, 0x00, 0x00, 0x8c, 0x00, 0x00, 0x00, 0x6c, 0x00, 0x00, 0x00,
  0x04, 0x00, 0x00, 0x00, 0x8a, 0xd8, 0xff, 0xff, 0x04, 0x00, 0x00, 0x00,
  0x58, 0x00, 0x00, 0x00, 0x0c, 0x00, 0x00, 0x00, 0x08, 0x00, 0x0e, 0x00,
  0x08, 0x00, 0x04, 0x00, 0x08, 0x00, 0x00, 0x00, 0x10, 0x00, 0x00, 0x00,
  0x28, 0x00, 0x00, 0x00, 0x00, 0x00, 0x06, 0x00, 0x08, 0x00, 0x04, 0x00,
  0x06, 0x00, 0x00, 0x00, 0x04, 0x00, 0x00, 0x00, 0x01, 0x00, 0x00, 0x00,
  0xeb, 0x03, 0x00, 0x00, 0x00, 0x00, 0x0a, 0x00, 0x10, 0x00, 0x0c, 0x00,
  0x08, 0x00, 0x04, 0x00, 0x0a, 0x00, 0x00, 0x00, 0x02, 0x00, 0x00, 0x00,
  0x02, 0x00, 0x00, 0x00, 0x04, 0x00, 0x00, 0x00, 0x06, 0x00, 0x00, 0x00,
  0x32, 0x2e, 0x31, 0x33, 0x2e, 0x30, 0x00, 0x00, 0xee, 0xd8, 0xff, 0xff,
  0x04, 0x00, 0x00, 0x00, 0x10, 0x00, 0x00, 0x00, 0x31, 0x2e, 0x35, 0x2e,
  0x30, 0x00, 0x00, 0x00, 0x00, 0x00, 0x00, 0x00, 0x00, 0x00, 0x00, 0x00,
  0xc0, 0xd3, 0xff, 0xff, 0xc4, 0xd3, 0xff, 0xff, 0xc8, 0xd3, 0xff, 0xff,
  0xcc, 0xd3, 0xff, 0xff, 0x1a, 0xd9, 0xff, 0xff, 0x04, 0x00, 0x00, 0x00,
  0x08, 0x00, 0x00, 0x00, 0x75, 0x0f, 0x04, 0x3e, 0x74, 0x0f, 0x04, 0xbe,
  0x2e, 0xd9, 0xff, 0xff, 0x04, 0x00, 0x00, 0x00, 0x00, 0x01, 0x00, 0x00,
  0x46, 0xbb, 0x89, 0xbc, 0x69, 0x32, 0x47, 0x3d, 0x00, 0x00, 0x00, 0x00,
  0x60, 0x1c, 0xf1, 0x3c, 0xe9, 0x3b, 0x38, 0x3e, 0x7f, 0xa9, 0x5a, 0xbc,
  0x52, 0x9d, 0x37, 0xbc, 0x31, 0x28, 0x54, 0x3e, 0x5f, 0x76, 0x98, 0x3d,
  0x93, 0x6e, 0x8d, 0x3d, 0x00, 0x00, 0x00, 0x00, 0xeb, 0x8b, 0x44, 0x3d,
  0xb9, 0x3d, 0x25, 0x3d, 0xea, 0x7a, 0x6b, 0x3d, 0x61, 0xec, 0xa3, 0xbc,
  0x2e, 0x69, 0x14, 0x3c, 0x00, 0x00, 0x00, 0x00, 0x00, 0x00, 0x00, 0x00,
  0x43, 0x1f, 0xe6, 0x3a, 0x63, 0xaa, 0x53, 0x3d, 0x75, 0x10, 0x85, 0xbc,
  0x17, 0x8d, 0x51, 0x3e, 0x22, 0x50, 0x29, 0xbc, 0xff, 0xe8, 0x27, 0xbc,
  0xfd, 0xbe, 0xc4, 0xbb, 0x00, 0x00, 0x00, 0x00, 0x7e, 0x0d, 0x49, 0xbc,
  0xda, 0x6b, 0x45, 0x3e, 0x97, 0x8a, 0x78, 0xbc, 0x84, 0x03, 0x02, 0x3d,
  0x83, 0x97, 0x32, 0x3e, 0xaf, 0xbb, 0x4a, 0x3e, 0x00, 0x00, 0x00, 0x00,
  0x53, 0x65, 0x55, 0x3e, 0x76, 0x42, 0x3d, 0x3e, 0x00, 0x00, 0x00, 0x00,
  0x29, 0xa6, 0x8b, 0x3d, 0x4e, 0xa4, 0x22, 0x3d, 0x4f, 0xfb, 0x35, 0x3e,
  0x00, 0x00, 0x00, 0x00, 0x20, 0xe9, 0xb4, 0xbc, 0x00, 0x00, 0x00, 0x00,
  0xea, 0x72, 0x5d, 0x3e, 0x32, 0xfc, 0x5a, 0x3e, 0x39, 0xda, 0x61, 0xbc,
  0xa9, 0x21, 0x74, 0xbc, 0xf4, 0xbc, 0x9a, 0xbc, 0x96, 0x02, 0xd0, 0x3c,
  0x46, 0x09, 0xda, 0x3c, 0x38, 0xce, 0xf1, 0x3c, 0x1a, 0x6b, 0x5d, 0x3e,
  0x58, 0x91, 0x45, 0x3e, 0xf3, 0x85, 0x2a, 0xbc, 0xf6, 0x84, 0xbe, 0xbc,
  0xbd, 0xf8, 0x69, 0x3e, 0xdb, 0x62, 0xb2, 0xbb, 0x25, 0xb8, 0x54, 0x3c,
  0x21, 0x58, 0x84, 0x3d, 0xb2, 0x2d, 0x4e, 0x3e, 0x11, 0x57, 0x33, 0xbc,
  0xb0, 0xdf, 0xa7, 0x3c, 0x72, 0x10, 0xb6, 0xbb, 0x8b, 0x27, 0x4b, 0xbc,
  0x47, 0xb9, 0x8c, 0xba, 0x3a, 0xda, 0xff, 0xff, 0x04, 0x00, 0x00, 0x00,
  0x80, 0x02, 0x00, 0x00, 0x60, 0xe0, 0xa2, 0x3a, 0xd0, 0xb7, 0x4c, 0x3b,
  0xc0, 0xeb, 0xd8, 0xbc, 0xe8, 0x2b, 0xf0, 0x3b, 0xda, 0xc9, 0xed, 0xbc,
  0x66, 0x87, 0x15, 0xbd, 0x54, 0x9f, 0x0a, 0xbd, 0x18, 0xa5, 0xe3, 0xbb,
  0xce, 0xf8, 0xf5, 0x3c, 0x66, 0x0d, 0x90, 0x3c, 0xdc, 0x73, 0xaa, 0xbd,
  0xd5, 0x44, 0x74, 0x3d, 0x66, 0xb4, 0xbc, 0x3d, 0x09, 0xb1, 0xa8, 0x3e,
  0xa7, 0x41, 0x94, 0x3e, 0x2d, 0x9b, 0x47, 0xbd, 0xd0, 0xf9, 0x62, 0xbb,
  0x00, 0xb6, 0x8e, 0x3a, 0x53, 0xdb, 0xd7, 0xbc, 0xcc, 0x56, 0x6c, 0xbc,
  0x00, 0x51, 0x25, 0xbd, 0x34, 0x5a, 0x77, 0x3c, 0xe2, 0x64, 0x80, 0x3c,
  0x18, 0x9d, 0xa8, 0xbb, 0x11, 0x56, 0x4b, 0x3d, 0x84, 0x96, 0x4f, 0xbd,
  0x0f, 0x34, 0x2e, 0x3d, 0x76, 0x32, 0x35, 0x3b, 0xc6, 0xf0, 0x56, 0xbd,
  0x87, 0xa2, 0xcf, 0x3c, 0x83, 0xdf, 0x0f, 0xbd, 0xb9, 0x43, 0xcf, 0x3d,
  0x0b, 0xd9, 0xd5, 0x3d, 0x7a, 0x7e, 0x9d, 0x3e, 0xc4, 0x90, 0x93, 0x3e,
  0xf4, 0xcf, 0x39, 0xbe, 0xd3, 0x93, 0xd1, 0x3d, 0xc7, 0x3b, 0x86, 0x3e,
  0xa8, 0x6a, 0xd2, 0x3e, 0x8e, 0x2f, 0xcc, 0x3e, 0x73, 0x0a, 0xa7, 0xbc,
  0x36, 0x5f, 0x05, 0xbd, 0xe8, 0x1c, 0x22, 0xbc, 0xf7, 0x4e, 0x29, 0x3d,
  0x67, 0xb4, 0x3e, 0x3d, 0x00, 0xb9, 0x45, 0x3c, 0xa0, 0xef, 0x24, 0xbd,
  0x66, 0xe4, 0x83, 0xbc, 0x49, 0xc9, 0x0b, 0x3d, 0xb4, 0xa9, 0x7f, 0x3c,
  0xc7, 0x01, 0xda, 0x3d, 0xfd, 0x48, 0x80, 0x3d, 0xf5, 0x84, 0xff, 0xbc,
  0xe2, 0x92, 0x07, 0xbe, 0xb9, 0xd5, 0x99, 0xbd, 0x28, 0x39, 0x05, 0xbd,
  0xda, 0x16, 0x0d, 0xbc, 0xc8, 0x9d, 0x33, 0x3d, 0xa1, 0xda, 0x92, 0x3b,
  0xf1, 0x55, 0x92, 0xbc, 0x67, 0x84, 0x3b, 0x3e, 0x8e, 0x19, 0xbd, 0x3d,
  0x04, 0xab, 0x32, 0xbb, 0x92, 0x60, 0x85, 0xbe, 0xf8, 0xb4, 0xa9, 0xbe,
  0x74, 0xd6, 0x8c, 0xbc, 0x73, 0x7a, 0x47, 0xbd, 0x0c, 0xe4, 0x26, 0x3c,
  0x66, 0xab, 0x93, 0xbc, 0x5c, 0xfb, 0x4e, 0x3c, 0xb0, 0xfa, 0x32, 0x3e,
  0x73, 0x8d, 0x0b, 0x3d, 0x08, 0xe5, 0xcf, 0xbb, 0xc3, 0xa3, 0x87, 0xbe,
  0xcd, 0x4c, 0x92, 0xbe, 0xcf, 0x8a, 0x21, 0x3e, 0xd3, 0xd4, 0x47, 0x3c,
  0x8c, 0xc5, 0x04, 0x3b, 0xd5, 0xd9, 0x8a, 0xbe, 0x27, 0xf1, 0x8d, 0xbe,
  0x1a, 0x23, 0x1f, 0xbd, 0x63, 0x4d, 0x45, 0xbd, 0xc7, 0x73, 0xca, 0xbc,
  0x7a, 0xab, 0xa0, 0x3c, 0xd3, 0x1e, 0x49, 0x3d, 0xd8, 0x72, 0x33, 0xbc,
  0x93, 0x83, 0xf3, 0xbc, 0xc6, 0x08, 0x9f, 0x3c, 0x42, 0x6a, 0xab, 0x3c,
  0x36, 0xb5, 0x25, 0xbd, 0x54, 0x57, 0x49, 0x3e, 0xc4, 0xc1, 0x9e, 0x3b,
  0x61, 0x38, 0xf4, 0xbd, 0x37, 0xb4, 0xaa, 0xbe, 0x3b, 0x0b, 0xcf, 0xbe,
  0x04, 0x18, 0x06, 0x3e, 0x92, 0xdd, 0x63, 0x3d, 0x57, 0xad, 0x7f, 0x3d,
  0x3b, 0x27, 0x84, 0xbd, 0x57, 0xca, 0xfb, 0xbd, 0x3f, 0xa3, 0x01, 0x3e,
  0x0a, 0xe5, 0xc8, 0x3c, 0xa3, 0x34, 0xc9, 0x3c, 0x2f, 0x81, 0x3c, 0xbe,
  0x9b, 0x92, 0x4c, 0xbe, 0x16, 0xe1, 0x20, 0x3d, 0x4c, 0x09, 0xc8, 0x3d,
  0x6b, 0x13, 0x97, 0x3d, 0x10, 0x62, 0xba, 0x3d, 0x89, 0xf8, 0x37, 0x3e,
  0xe6, 0x08, 0x21, 0xbd, 0x6d, 0x50, 0x39, 0xbd, 0xec, 0x4c, 0x85, 0xbc,
  0xd3, 0x97, 0x18, 0x3d, 0x13, 0x11, 0x31, 0x3d, 0x4e, 0xa4, 0x47, 0xbe,
  0x19, 0xd6, 0x03, 0x3e, 0x34, 0x54, 0x91, 0x3e, 0xf5, 0x4f, 0xcb, 0x3e,
  0xc0, 0x29, 0xd0, 0x3e, 0x46, 0x33, 0x2b, 0xbd, 0x22, 0xe7, 0xc3, 0x3c,
  0x74, 0x89, 0x08, 0xbd, 0xed, 0xb1, 0x12, 0xbd, 0x72, 0xa2, 0xe2, 0x3c,
  0xb5, 0xa3, 0xcb, 0x3c, 0x3e, 0x80, 0x97, 0x3d, 0x89, 0x66, 0x53, 0x3e,
  0xcf, 0xd4, 0x9d, 0x3e, 0x53, 0x9a, 0xa2, 0x3e, 0x19, 0x1e, 0x9a, 0x3d,
  0xcb, 0x43, 0x00, 0x3d, 0xfb, 0x47, 0xde, 0x3d, 0x35, 0x13, 0x0a, 0x3d,
  0x89, 0x0f, 0xd3, 0x3d, 0x67, 0xfc, 0x2d, 0xbd, 0x87, 0xf6, 0x2e, 0xbd,
  0x80, 0x2a, 0x57, 0xba, 0x93, 0xca, 0x28, 0x3d, 0x26, 0x1b, 0x8c, 0x3c,
  0xa6, 0x57, 0x0a, 0xbd, 0x40, 0xc2, 0x15, 0x3c, 0x86, 0x48, 0xcb, 0x3c,
  0x0e, 0x7b, 0xfc, 0x3c, 0x27, 0xe7, 0x2e, 0xbd, 0x29, 0xeb, 0x1f, 0x3e,
  0xb9, 0x0a, 0x4b, 0x3d, 0x16, 0x16, 0x21, 0xbc, 0x94, 0xf1, 0x31, 0xbe,
  0x61, 0xc7, 0x38, 0xbe, 0x07, 0xd2, 0xcb, 0xbc, 0x7d, 0x27, 0x20, 0xbd,
  0x69, 0x6a, 0x35, 0x3d, 0x47, 0x6a, 0x33, 0x3d, 0x2d, 0x21, 0x3f, 0xbd,
  0x00, 0x2d, 0xcc, 0xbb, 0x9a, 0xf5, 0x10, 0xbd, 0x63, 0xc5, 0x4a, 0x3d,
  0x3d, 0xbb, 0x4b, 0xbd, 0xe6, 0xad, 0xf1, 0x3c, 0xc6, 0xdc, 0xff, 0xff,
  0x04, 0x00, 0x00, 0x00, 0x80, 0x00, 0x00, 0x00, 0x00, 0x00, 0x00, 0x00,
  0x00, 0x00, 0x00, 0x00, 0xa4, 0x56, 0x8b, 0x3e, 0x00, 0x00, 0x00, 0x00,
  0x00, 0x00, 0x00, 0x00, 0xb5, 0x84, 0xc4, 0xbb, 0x40, 0x54, 0x8e, 0x3e,
  0x97, 0xbb, 0x7c, 0x3e, 0x00, 0x00, 0x00, 0x00, 0x00, 0x00, 0x00, 0x00,
  0x25, 0x3b, 0x11, 0xbd, 0xf7, 0x45, 0xc4, 0xbb, 0xe6, 0xd0, 0xa3, 0xbd,
  0x00, 0x00, 0x00, 0x00, 0xd4, 0x74, 0x2e, 0xbd, 0x03, 0x2c, 0xd9, 0xbc,
  0x00, 0x00, 0x00, 0x00, 0x00, 0x00, 0x00, 0x00, 0x84, 0xd2, 0x0a, 0xbb,
  0xb7, 0x85, 0x6b, 0xbd, 0x2d, 0xcb, 0x1d, 0xbd, 0x94, 0xff, 0x79, 0x3e,
  0x00, 0x00, 0x00, 0x00, 0x71, 0x47, 0x80, 0x3e, 0x00, 0x00, 0x00, 0x00,
  0x82, 0x2c, 0x8d, 0x3e, 0xe9, 0xe3, 0x80, 0x3e, 0x00, 0x00, 0x00, 0x00,
  0x00, 0x00, 0x00, 0x00, 0x51, 0x25, 0x61, 0xbd, 0x00, 0x00, 0x00, 0x00,
  0x00, 0x00, 0x00, 0x00, 0x52, 0xdd, 0xff, 0xff, 0x04, 0x00, 0x00, 0x00,
  0x00, 0x20, 0x00, 0x00, 0xa8, 0x14, 0x4b, 0x3c, 0x93, 0x6a, 0xb8, 0xbc,
  0x42, 0xac, 0x48, 0xbd, 0xec, 0xf3, 0x90, 0xbc, 0xe7, 0x17, 0x30, 0x3d,
  0xcb, 0x37, 0x19, 0xbd, 0x08, 0x10, 0xeb, 0x3c, 0x8c, 0x0d, 0x50, 0x3d,
  0x1a, 0x77, 0xdc, 0x3c, 0xb3, 0xe7, 0x35, 0xbd, 0xe8, 0xf4, 0x5e, 0xbc,
  0x14, 0xd3, 0x77, 0xbc, 0x64, 0x35, 0xa1, 0xbc, 0xd0, 0x78, 0x4b, 0xbb,
  0x8c, 0xad, 0xe7, 0x3c, 0x52, 0xdb, 0xc6, 0x3c, 0x27, 0x60, 0xd1, 0xbc,
  0xa0, 0xc9, 0x3f, 0xbd, 0x56, 0xc3, 0x0a, 0xbd, 0xf0, 0xf4, 0x14, 0x3b,
  0xfe, 0x61, 0x65, 0x3c, 0xe4, 0xb7, 0x1a, 0xbc, 0x00, 0x8a, 0x34, 0xbd,
  0xd4, 0xdc, 0x48, 0x3d, 0xf1, 0xf5, 0x0d, 0x3d, 0x4c, 0x5b, 0xc7, 0xbc,
  0x31, 0xc0, 0x21, 0xbc, 0xe8, 0xa1, 0x5c, 0xbc, 0x0c, 0xbc, 0x63, 0xbc,
  0xf0, 0x18, 0x12, 0xbd, 0x80, 0x22, 0xf3, 0x3b, 0x93, 0xef, 0xb4, 0xbc,
  0x5c, 0x25, 0x7d, 0x3c, 0xdd, 0x7b, 0x0e, 0x3d, 0x2d, 0x15, 0xd7, 0xbc,
  0x77, 0xb7, 0x3a, 0x3d, 0x30, 0x54, 0xde, 0x3b, 0x0e, 0xf4, 0x2d, 0x3d,
  0x95, 0x24, 0x4c, 0x3d, 0x1e, 0x72, 0x60, 0xbe, 0xd0, 0x60, 0x90, 0xbb,
  0x20, 0x7d, 0x32, 0xbd, 0x3b, 0xf6, 0x28, 0x3d, 0x89, 0xa2, 0x27, 0x3d,
  0x5a, 0x99, 0x8d, 0x3d, 0x6d, 0xeb, 0x2f, 0xbd, 0xdd, 0x41, 0x74, 0x3d,
  0xd4, 0x50, 0x17, 0x3d, 0x00, 0xe0, 0xbf, 0xb8, 0x18, 0x42, 0xd2, 0xbb,
  0x92, 0xc4, 0x77, 0x3d, 0xdc, 0x12, 0x9f, 0x3d, 0xc3, 0xc9, 0xcf, 0xbb,
  0x66, 0xff, 0xc0, 0x3d, 0x1a, 0xb4, 0x45, 0xbd, 0xda, 0x39, 0x3a, 0xbe,
  0x53, 0x96, 0x28, 0x3d, 0x8e, 0x02, 0x37, 0x3c, 0x59, 0x12, 0x83, 0x3d,
  0xdd, 0x05, 0x03, 0xbd, 0x18, 0x26, 0x9b, 0xbb, 0x02, 0xd1, 0x87, 0x3c,
  0x8c, 0x3e, 0x5a, 0x3c, 0x28, 0x39, 0x23, 0xbc, 0x4c, 0x60, 0x6a, 0x3c,
  0xc0, 0xa4, 0x7b, 0xbc, 0xb2, 0xcc, 0xa4, 0x3c, 0x77, 0xf6, 0x23, 0x3d,
  0xdd, 0xbf, 0x12, 0xbd, 0xf3, 0x3f, 0x18, 0xbd, 0xdd, 0x3e, 0x1d, 0xbd,
  0x73, 0x70, 0x1c, 0xbd, 0xdd, 0x76, 0x0a, 0xbd, 0x8d, 0xa3, 0x41, 0x3d,
  0x06, 0x3b, 0x8e, 0x3c, 0x18, 0x48, 0xe7, 0x3b, 0x67, 0x03, 0x0d, 0x3d,
  0x00, 0x34, 0x6b, 0xbc, 0xf4, 0x04, 0x5a, 0xbc, 0xe8, 0xaa, 0xd0, 0xbb,
  0x27, 0x5a, 0xd5, 0xbc, 0x66, 0x8a, 0xd0, 0x3c, 0xa2, 0x8d, 0x86, 0x3c,
  0x74, 0x70, 0x2d, 0xbc, 0x8d, 0xe4, 0xa7, 0xbc, 0xa4, 0x37, 0x74, 0x3c,
  0x60, 0xfb, 0x8f, 0xbc, 0x40, 0xc2, 0x17, 0xbd, 0x0c, 0xd2, 0x23, 0x3c,
  0x67, 0x74, 0xcc, 0xbc, 0x80, 0x6f, 0x84, 0xbc, 0xae, 0xc8, 0xa9, 0x3c,
  0x2d, 0x42, 0x36, 0xbd, 0xa0, 0xe2, 0x0b, 0xbd, 0xfa, 0xbf, 0xb5, 0x3c,
  0x03, 0x6e, 0x3e, 0x3d, 0x89, 0x28, 0x3d, 0x3d, 0x23, 0x3b, 0x45, 0x3d,
  0xc6, 0x7e, 0x04, 0x3d, 0x0c, 0x08, 0x1e, 0x3c, 0x66, 0x95, 0x22, 0xbd,
  0x63, 0xe5, 0xd9, 0x3c, 0xe1, 0x71, 0xc0, 0x3d, 0xd8, 0xf1, 0xb2, 0xbe,
  0x10, 0x5d, 0x03, 0xbd, 0x60, 0x80, 0x40, 0xbb, 0xca, 0x50, 0xea, 0x3d,
  0x48, 0xe6, 0x3f, 0xbd, 0x41, 0x71, 0x99, 0x3d, 0xe7, 0x88, 0x9c, 0xbc,
  0xd4, 0x1d, 0xe8, 0x3d, 0x07, 0x99, 0xb1, 0x3d, 0xb4, 0x42, 0x41, 0x3c,
  0xb0, 0xb6, 0x43, 0xbd, 0xa5, 0x07, 0x3f, 0x3e, 0xf4, 0x3b, 0x87, 0x3d,
  0xbd, 0xee, 0xf8, 0x3d, 0x4f, 0xd7, 0xda, 0x3d, 0xb7, 0x5e, 0x06, 0x3d,
  0xe4, 0x2d, 0xa6, 0xbe, 0x93, 0x63, 0x1f, 0xbd, 0x7d, 0x40, 0x10, 0x3e,
  0xfa, 0x41, 0xfa, 0x3d, 0x74, 0x0a, 0x6c, 0x3c, 0xa6, 0x6f, 0xa6, 0x3c,
  0x03, 0xbe, 0xa5, 0x3d, 0xce, 0xd1, 0xc4, 0x3c, 0x2d, 0x2b, 0x30, 0x3d,
  0x00, 0x46, 0x28, 0x3c, 0xd8, 0xdf, 0x54, 0xbc, 0x59, 0x57, 0xa6, 0x3e,
  0x40, 0x82, 0x14, 0xbc, 0x00, 0x88, 0xf6, 0x3b, 0xf7, 0x6b, 0x2b, 0x3d,
  0x93, 0x49, 0x3e, 0x3e, 0xc4, 0xd5, 0xb4, 0x3e, 0x1d, 0x9d, 0x14, 0xbd,
  0x2a, 0xe7, 0x14, 0xbd, 0x66, 0x82, 0x23, 0xbe, 0x0a, 0x5e, 0x44, 0xbd,
  0xe0, 0x48, 0xa6, 0xbd, 0x30, 0x10, 0x58, 0x3b, 0x6d, 0x07, 0x65, 0xbe,
  0x4c, 0x5c, 0x65, 0xbe, 0xcc, 0xfb, 0x4f, 0xbc, 0x60, 0x52, 0x50, 0xbb,
  0x55, 0x53, 0x5e, 0xbe, 0xf1, 0xaa, 0xa7, 0xbd, 0xbc, 0xe1, 0x43, 0xbe,
  0xfd, 0xb1, 0xca, 0x3d, 0xcc, 0x3a, 0x2b, 0x3c, 0xe6, 0x36, 0x9b, 0x3e,
  0xe8, 0xee, 0x93, 0xbb, 0xf4, 0x98, 0x39, 0x3e, 0x94, 0xd5, 0x95, 0x3d,
  0x67, 0xa9, 0xe1, 0xbc, 0xe7, 0x2f, 0x9b, 0xbc, 0x4d, 0x43, 0x30, 0xbe,
  0x3a, 0x66, 0x8d, 0x3c, 0x00, 0xde, 0xf0, 0x3b, 0x43, 0xdb, 0x09, 0x3d,
  0x10, 0xda, 0x2a, 0xbd, 0x5b, 0x3c, 0x03, 0x3d, 0xad, 0xf8, 0x45, 0xbd,
  0xf2, 0xbc, 0x96, 0x3c, 0xdb, 0xa3, 0x22, 0xbd, 0x40, 0xb7, 0x8c, 0x3c,
  0x61, 0x35, 0x76, 0x3c, 0x4c, 0x9a, 0x1a, 0x3c, 0x18, 0x49, 0x9d, 0xbb,
  0xaf, 0x65, 0xf0, 0xbc, 0x40, 0x7f, 0x05, 0xbd, 0xaa, 0x01, 0x11, 0xbd,
  0xa1, 0xe2, 0x2e, 0x3d, 0xdc, 0x03, 0x8b, 0x3c, 0x8c, 0x72, 0x76, 0xbd,
  0x3a, 0xff, 0x10, 0xbd, 0xb3, 0xee, 0x43, 0x3d, 0xff, 0x26, 0xb4, 0x3c,
  0x0c, 0x9b, 0xbb, 0x3c, 0x35, 0x6d, 0x3a, 0x3c, 0x66, 0xb4, 0xd7, 0xbc,
  0x89, 0x5d, 0x28, 0x3d, 0x7d, 0x8e, 0x45, 0x3c, 0x27, 0x55, 0xd6, 0xbc,
  0x11, 0x8c, 0xf3, 0x3c, 0x0a, 0x27, 0x71, 0xbd, 0x10, 0x32, 0x29, 0xbd,
  0xc3, 0xac, 0x47, 0xbd, 0x41, 0xe6, 0xc9, 0xbb, 0x58, 0xd6, 0x47, 0x3c,
  0x5a, 0x4c, 0x89, 0x3c, 0x0c, 0xa1, 0x7a, 0xbc, 0xfd, 0xf1, 0x26, 0xbd,
  0x1b, 0xbf, 0x51, 0xbd, 0x80, 0x4e, 0xa8, 0x3b, 0x84, 0x84, 0x7c, 0x3c,
  0x00, 0x3d, 0x27, 0xbc, 0xe3, 0x0f, 0x13, 0x3d, 0xc6, 0xda, 0xac, 0x3c,
  0x98, 0x20, 0x26, 0x3c, 0x28, 0xbb, 0x1d, 0x3c, 0x43, 0x42, 0x0b, 0x3d,
  0xca, 0x86, 0x1b, 0xbd, 0xe1, 0x2b, 0x11, 0x3d, 0x5c, 0xb8, 0x68, 0x3c,
  0x49, 0x97, 0xf1, 0xbb, 0xbd, 0x5e, 0xb2, 0x3c, 0xa8, 0xb6, 0x2e, 0x3c,
  0xd0, 0x77, 0x88, 0x3b, 0x12, 0x8c, 0xa3, 0xbb, 0x12, 0x71, 0x49, 0xbd,
  0xdc, 0xc4, 0x5f, 0xbd, 0x4c, 0x6c, 0xd5, 0x3c, 0x67, 0x86, 0xcc, 0xbc,
  0x0d, 0xc4, 0xdb, 0xbc, 0xbd, 0xeb, 0x40, 0x3d, 0xd5, 0xf9, 0xed, 0x3b,
  0x2c, 0xc5, 0x55, 0xbd, 0xb0, 0xda, 0x88, 0xbb, 0x07, 0x7d, 0xa3, 0xbc,
  0x38, 0x68, 0x44, 0x3c, 0x07, 0x0e, 0x1a, 0x3d, 0xad, 0x4c, 0x1c, 0xbd,
  0x98, 0x77, 0xf0, 0xbb, 0x72, 0x88, 0xec, 0x3c, 0x44, 0x65, 0x9a, 0x3e,
  0x93, 0x30, 0xd9, 0xbc, 0x80, 0x9b, 0x1f, 0x3c, 0x21, 0x31, 0x44, 0x3d,
  0xc0, 0x92, 0x7b, 0x3e, 0x51, 0xde, 0xb1, 0x3e, 0x00, 0x84, 0x77, 0x3b,
  0x5a, 0x73, 0x1b, 0xbd, 0xad, 0x12, 0xe1, 0xbd, 0x02, 0x52, 0xf9, 0x3c,
  0xac, 0x9b, 0xfd, 0xbd, 0xa9, 0xa1, 0x3e, 0x3d, 0xc4, 0x5e, 0x2a, 0xbe,
  0x4f, 0xf4, 0x66, 0xbe, 0xd3, 0x53, 0x38, 0x3d, 0x80, 0x41, 0xd1, 0x3b,
  0x06, 0x18, 0x84, 0xbe, 0xf6, 0xbe, 0xe6, 0xbd, 0x80, 0x09, 0xfa, 0xbd,
  0xe1, 0x57, 0x0a, 0x3e, 0x50, 0x3a, 0x8f, 0xbb, 0xd3, 0x31, 0xb1, 0x3e,
  0x1a, 0xfd, 0xb4, 0x3c, 0xbc, 0xc5, 0xe5, 0x3d, 0x90, 0x67, 0x24, 0x3d,
  0xe6, 0x2f, 0x86, 0x3c, 0xf3, 0x22, 0x10, 0xbd, 0xe6, 0xc2, 0x4a, 0xbe,
  0x26, 0x48, 0x82, 0x3c, 0x40, 0xdf, 0x98, 0xba, 0x98, 0x68, 0xcb, 0x3b,
  0x27, 0x86, 0xeb, 0xbc, 0xe3, 0x3f, 0x39, 0x3c, 0xcd, 0x3f, 0x0f, 0x3d,
  0xf3, 0xae, 0xd7, 0xbc, 0x39, 0x4b, 0x06, 0xbd, 0x0a, 0x79, 0xb2, 0x3c,
  0xb9, 0x28, 0x82, 0xbe, 0xed, 0xf9, 0xb4, 0xbc, 0xda, 0x75, 0x9f, 0x3c,
  0x54, 0xc3, 0x87, 0x3d, 0xff, 0x5f, 0xfd, 0x3c, 0xb4, 0xa1, 0xec, 0x3b,
  0x98, 0xfd, 0x1b, 0x3c, 0x15, 0x28, 0xcf, 0x3d, 0x1f, 0xe4, 0x8f, 0x3d,
  0x80, 0xdf, 0x0b, 0x3c, 0x74, 0x57, 0x69, 0x3c, 0x9a, 0xb1, 0x66, 0x3d,
  0xb9, 0x18, 0x2e, 0x3d, 0x38, 0xcf, 0x8c, 0x3d, 0x73, 0xd0, 0xb7, 0x3d,
  0x86, 0xf6, 0x9a, 0x3c, 0x14, 0xa8, 0x84, 0xbe, 0x3a, 0xd2, 0xd0, 0x3c,
  0xac, 0x67, 0xff, 0x3c, 0xf6, 0x35, 0x89, 0x3d, 0x80, 0xa2, 0xc6, 0x3b,
  0x03, 0x48, 0x41, 0x3d, 0x24, 0x5c, 0xb6, 0x3d, 0xcd, 0xc1, 0x0f, 0x3d,
  0x26, 0xeb, 0x21, 0xbd, 0x00, 0xab, 0x89, 0xbb, 0xc0, 0xb4, 0x0e, 0xbd,
  0xfb, 0x81, 0x67, 0xbc, 0x83, 0x10, 0x35, 0x3d, 0x80, 0xcc, 0x8d, 0xbb,
  0x60, 0x76, 0x18, 0x3c, 0x39, 0x0f, 0x0c, 0xbb, 0x03, 0xa0, 0x68, 0xbe,
  0x19, 0x5e, 0x0a, 0x3d, 0x18, 0x0f, 0x89, 0xbb, 0x9e, 0x44, 0xbc, 0x3d,
  0x16, 0x26, 0xad, 0x3b, 0x51, 0x04, 0x80, 0x3d, 0x30, 0x1c, 0xce, 0xbb,
  0x31, 0x57, 0xf1, 0x3d, 0x6a, 0x58, 0x53, 0x3c, 0xe0, 0x6b, 0xde, 0xbc,
  0x3a, 0xfa, 0x8d, 0x3c, 0x83, 0xe5, 0x92, 0x3d, 0xce, 0xed, 0xb3, 0x3d,
  0x53, 0x5e, 0xac, 0x3d, 0x27, 0x65, 0x80, 0x3d, 0x73, 0xc8, 0x1d, 0x3d,
  0x86, 0x33, 0x67, 0xbe, 0xa9, 0xd3, 0x23, 0x3d, 0xfa, 0x91, 0x6f, 0x3d,
  0x90, 0xc6, 0x80, 0x3d, 0xa3, 0x09, 0x03, 0x3d, 0x0c, 0xdd, 0x7e, 0xbc,
  0xa8, 0x57, 0xaf, 0x3c, 0x8d, 0x83, 0xab, 0xbc, 0xe3, 0x71, 0x40, 0x3d,
  0x72, 0x6d, 0xd8, 0x3c, 0xe8, 0x7a, 0x2e, 0xbc, 0xc7, 0x36, 0xc6, 0xbc,
  0x03, 0xbf, 0x0a, 0x3d, 0x99, 0x09, 0x2f, 0x3d, 0xd0, 0x86, 0x57, 0x3b,
  0x4c, 0x8a, 0x78, 0xbc, 0xc0, 0xd0, 0x60, 0xbc, 0xc0, 0xe6, 0x89, 0xba,
  0xb4, 0x33, 0x1c, 0x3c, 0xc3, 0x7d, 0x18, 0xbd, 0xb0, 0xbe, 0xec, 0xbb,
  0x6a, 0xe2, 0x13, 0xbd, 0xd8, 0x03, 0x52, 0xbc, 0x5d, 0x06, 0x21, 0x3d,
  0x4a, 0x70, 0x0c, 0xbd, 0x00, 0x30, 0xa8, 0xb9, 0x1a, 0x34, 0x20, 0xbd,
  0xcd, 0x2c, 0xa1, 0xbc, 0xd0, 0xf9, 0xf2, 0x3b, 0xa2, 0xb2, 0xdb, 0x3c,
  0xa0, 0x75, 0x3c, 0xbd, 0x34, 0xb9, 0x90, 0xbc, 0x00, 0xea, 0x20, 0x39,
  0x2d, 0xfa, 0x05, 0xbd, 0x00, 0x04, 0xb2, 0x3a, 0x46, 0x75, 0xf0, 0x3c,
  0xf7, 0x5d, 0x29, 0x3d, 0x24, 0xb4, 0x00, 0xbd, 0x53, 0xdb, 0x33, 0x3d,
  0x4c, 0xb0, 0x0f, 0xbc, 0xe3, 0x3b, 0x03, 0x3d, 0x98, 0xe3, 0x58, 0xbc,
  0x14, 0xbf, 0x03, 0xbd, 0xfb, 0x96, 0x34, 0xbd, 0x47, 0xf2, 0x4b, 0xbd,
  0xa8, 0xc1, 0x5e, 0xbc, 0x85, 0xfe, 0x20, 0xbd, 0xff, 0x36, 0xad, 0x3d,
  0xfd, 0x82, 0x88, 0xbe, 0x02, 0xbb, 0xdc, 0x3c, 0x8d, 0xa7, 0x9f, 0xbc,
  0x8d, 0x9a, 0xff, 0x3c, 0x37, 0x56, 0xe6, 0x3c, 0x70, 0x21, 0xce, 0x3d,
  0x2d, 0xfe, 0x40, 0xbd, 0x0f, 0x95, 0x00, 0x3e, 0xe4, 0x98, 0x94, 0x3d,
  0xcc, 0xf8, 0x0a, 0x3c, 0x80, 0xa0, 0x8f, 0xbb, 0x0d, 0xa5, 0x0d, 0x3d,
  0xd5, 0x64, 0x2f, 0xbc, 0x9a, 0x47, 0x8c, 0x3d, 0x23, 0x85, 0xce, 0x3d,
  0x63, 0x97, 0x49, 0xbd, 0x3e, 0x2f, 0x92, 0xbe, 0x0d, 0x15, 0xb9, 0xbc,
  0xde, 0xde, 0xd2, 0x3d, 0xe0, 0xb2, 0xa5, 0x3d, 0xa0, 0xc1, 0x32, 0xbb,
  0x12, 0xdd, 0xce, 0x3c, 0x22, 0x3b, 0xac, 0x3d, 0x7a, 0xdc, 0xe3, 0xbc,
  0xba, 0x25, 0xe8, 0xbc, 0x7d, 0xba, 0x03, 0x3d, 0x28, 0x20, 0x77, 0xbc,
  0x98, 0x41, 0x5d, 0xbc, 0xf4, 0x51, 0x06, 0xbc, 0x07, 0x0d, 0x3f, 0xbd,
  0x33, 0x08, 0x29, 0xbd, 0x33, 0x75, 0x2e, 0x3d, 0xd4, 0x6f, 0x81, 0xbe,
  0x4c, 0xfb, 0x0e, 0xbc, 0xc0, 0xec, 0x5d, 0xbc, 0x72, 0x8d, 0xd4, 0x3d,
  0x91, 0xa6, 0x3a, 0x3d, 0xd1, 0x29, 0x7c, 0x3d, 0x7a, 0x1e, 0x86, 0x3c,
  0x60, 0x49, 0xcb, 0x3d, 0x5a, 0x8b, 0xf6, 0x3c, 0xfa, 0xa8, 0xa8, 0x3c,
  0xd0, 0x14, 0xd2, 0x3b, 0xb2, 0x33, 0xdd, 0x3d, 0x70, 0x62, 0xc1, 0x3d,
  0x86, 0x00, 0x64, 0x3a, 0x92, 0xf3, 0x43, 0x3d, 0xe7, 0x9d, 0xd9, 0xbc,
  0xc9, 0xd1, 0x45, 0xbe, 0xba, 0x14, 0xde, 0x3c, 0x12, 0xeb, 0xa7, 0x3d,
  0xb0, 0xd6, 0xb2, 0x3d, 0x60, 0xc5, 0x55, 0xbb, 0x82, 0x27, 0xe8, 0x3c,
  0xc2, 0x31, 0xdc, 0x3d, 0xfa, 0xe6, 0x07, 0xbd, 0x6d, 0x0e, 0xf0, 0xbc,
  0xb4, 0xbd, 0x11, 0xbc, 0xd3, 0x24, 0xba, 0xbc, 0xb5, 0x08, 0xa1, 0xbd,
  0xba, 0x19, 0x0e, 0xbd, 0x30, 0x83, 0xe3, 0xbb, 0xc7, 0x65, 0xba, 0xbc,
  0x9f, 0x50, 0xac, 0x3d, 0xfd, 0x65, 0xba, 0xbe, 0x80, 0xe1, 0xb3, 0x3b,
  0xa0, 0xc3, 0x8c, 0x3a, 0xb9, 0xae, 0x83, 0x3e, 0xca, 0xe6, 0x3f, 0xbd,
  0xac, 0xf7, 0xa3, 0x3e, 0x10, 0xad, 0x1e, 0xbd, 0xbe, 0xce, 0xbd, 0x3e,
  0x7f, 0x09, 0xbf, 0x3e, 0x9a, 0xcd, 0x34, 0xbd, 0x68, 0x22, 0x98, 0x3b,
  0x8b, 0x0d, 0xd8, 0x3e, 0xe0, 0x04, 0x7c, 0x3e, 0xa7, 0xee, 0x97, 0x3e,
  0xe1, 0x45, 0x09, 0x3e, 0x0c, 0x30, 0x39, 0xbc, 0xe2, 0xf1, 0xb0, 0xbe,
  0xc0, 0x26, 0x03, 0x3c, 0x0b, 0x9c, 0xde, 0x3d, 0xae, 0x32, 0x35, 0x3e,
  0x5c, 0x44, 0x5a, 0x3c, 0x8c, 0xf5, 0x6d, 0xbc, 0xa6, 0x85, 0x9d, 0x3e,
  0xa1, 0xd7, 0x3e, 0x3d, 0x0c, 0x3d, 0x10, 0x3c, 0xa7, 0x67, 0xc3, 0xbc,
  0xae, 0xda, 0x80, 0x3c, 0x16, 0x86, 0x2a, 0x3d, 0x02, 0x11, 0xca, 0x3c,
  0x80, 0x90, 0x37, 0xbd, 0xe4, 0xc8, 0x84, 0x3c, 0xd1, 0xbc, 0xc8, 0x3d,
  0xf2, 0x35, 0x8f, 0xbe, 0x47, 0x77, 0xa0, 0xbc, 0x4a, 0xb8, 0x30, 0xbd,
  0xdf, 0x4e, 0x55, 0x3d, 0xb3, 0xf9, 0x4c, 0xbd, 0xd9, 0xb1, 0x26, 0x3d,
  0xc4, 0x5d, 0x51, 0x3c, 0xf2, 0x7c, 0xab, 0x3d, 0x01, 0x7a, 0xd1, 0x3d,
  0x7a, 0x0b, 0xfd, 0x3c, 0xc0, 0x5e, 0x41, 0xbc, 0x82, 0xe6, 0x33, 0x3d,
  0x53, 0x90, 0x79, 0x3d, 0x63, 0xcb, 0x49, 0x3d, 0x82, 0x1f, 0xda, 0x3d,
  0x5a, 0xc3, 0x9e, 0x3c, 0xfa, 0xc8, 0x77, 0xbe, 0x6e, 0x34, 0xc0, 0x3c,
  0xc8, 0x21, 0x06, 0x3e, 0x27, 0x7b, 0x00, 0x3e, 0xe4, 0xaf, 0x74, 0x3c,
  0x1d, 0x43, 0x10, 0x3d, 0xa7, 0x9d, 0xba, 0x3d, 0xc0, 0x4e, 0x22, 0xbd,
  0x30, 0x2d, 0x3b, 0xbd, 0x00, 0xa4, 0xc1, 0x3a, 0x60, 0x82, 0x1b, 0x3b,
  0x77, 0xf6, 0x06, 0x3d, 0x74, 0x7a, 0x36, 0x3c, 0x47, 0x95, 0x3c, 0x3d,
  0x75, 0x47, 0xb5, 0xbc, 0x46, 0x31, 0x77, 0x3d, 0x4d, 0x2b, 0x4e, 0xbe,
  0xc9, 0x39, 0x13, 0x3d, 0x61, 0x44, 0x0d, 0x3d, 0x35, 0xba, 0x37, 0x3d,
  0xeb, 0x18, 0xe6, 0xbc, 0x6d, 0x03, 0xad, 0x3d, 0x7a, 0x1f, 0x2a, 0xbd,
  0x49, 0xe4, 0x02, 0x3e, 0x6c, 0xb1, 0xa6, 0x3d, 0x43, 0xaf, 0x05, 0x3d,
  0x80, 0xd0, 0xb9, 0xbb, 0x36, 0x4d, 0x15, 0x3c, 0x6b, 0x55, 0x12, 0x3d,
  0xa5, 0x8b, 0x2d, 0x3d, 0xb8, 0x5f, 0xd4, 0x3d, 0xd6, 0x6e, 0x1e, 0xbd,
  0x64, 0x6d, 0x6f, 0xbe, 0x42, 0x60, 0x8c, 0x3c, 0x73, 0x05, 0x92, 0x3d,
  0x92, 0xe3, 0x7e, 0x3d, 0x12, 0x80, 0xab, 0x3c, 0x97, 0xe0, 0x12, 0x3d,
  0x8a, 0x3d, 0xb3, 0x3d, 0xa6, 0x73, 0xa5, 0x3c, 0x86, 0xf2, 0x1e, 0xbd,
  0x32, 0x6a, 0xa0, 0x3c, 0xb9, 0x80, 0x1d, 0x3d, 0x80, 0x40, 0x13, 0xbd,
  0xd8, 0x29, 0x6a, 0xbc, 0x8e, 0x3a, 0xd6, 0x3c, 0x80, 0x26, 0xb9, 0xbc,
  0x93, 0xf2, 0xcc, 0xbc, 0x87, 0x13, 0x0a, 0x3d, 0x22, 0xcf, 0xd3, 0x3c,
  0x2d, 0xc5, 0x45, 0xbd, 0xb1, 0x47, 0x04, 0x3d, 0xf4, 0xcb, 0x62, 0x3c,
  0x8d, 0x75, 0x14, 0xbd, 0x82, 0x8e, 0xaa, 0x3c, 0x12, 0x82, 0xe3, 0x3c,
  0x6d, 0x78, 0x05, 0xbd, 0xae, 0x4f, 0xef, 0x3c, 0x86, 0xd0, 0x1e, 0xbd,
  0xdd, 0x0b, 0x3f, 0xbd, 0x8c, 0x97, 0x27, 0xbc, 0x67, 0xb2, 0x4c, 0x3d,
  0x20, 0x97, 0xba, 0xbc, 0xcd, 0xf7, 0xd4, 0xbc, 0x58, 0x8c, 0x32, 0x3c,
  0x18, 0x66, 0x27, 0x3c, 0x58, 0xbc, 0x2d, 0xbc, 0x58, 0x70, 0x43, 0xbc,
  0x29, 0x74, 0x43, 0x3d, 0x06, 0x9d, 0x14, 0xbd, 0xed, 0x5b, 0xfe, 0xbc,
  0x09, 0x99, 0x22, 0x3d, 0x7a, 0xe0, 0x89, 0xbc, 0x30, 0x08, 0x42, 0x3b,
  0xf4, 0x2e, 0x6e, 0x3c, 0xa0, 0x47, 0x20, 0x3b, 0xad, 0xcf, 0x9a, 0xbc,
  0x00, 0xdd, 0xa7, 0xbb, 0x41, 0x56, 0x2a, 0x3d, 0x06, 0x78, 0x01, 0xbd,
  0x50, 0x41, 0xc6, 0x3b, 0x86, 0x74, 0x8a, 0xbc, 0x66, 0x64, 0x0c, 0xbd,
  0x20, 0xad, 0xb1, 0xbc, 0x1d, 0xaa, 0x14, 0x3d, 0x40, 0xaa, 0x42, 0x3c,
  0x32, 0x91, 0x81, 0x3c, 0x00, 0x6e, 0x8f, 0x3a, 0x8e, 0x1a, 0xa0, 0x3c,
  0x4d, 0x1a, 0x06, 0x3d, 0x58, 0x63, 0x08, 0x3c, 0xc0, 0x9f, 0x6d, 0xbc,
  0x30, 0x18, 0x80, 0x3b, 0xa0, 0x7c, 0x75, 0x3b, 0xba, 0x13, 0xf2, 0xbc,
  0xc2, 0xc2, 0xfc, 0x3c, 0x20, 0xff, 0x19, 0xbd, 0x52, 0x28, 0x9a, 0x3c,
  0x7a, 0x66, 0xaa, 0x3c, 0x87, 0x0f, 0xe7, 0xbc, 0x23, 0x64, 0x30, 0xbd,
  0x12, 0x02, 0x87, 0x3c, 0xe3, 0x2c, 0x0d, 0xbd, 0x79, 0x3c, 0x04, 0x3d,
  0xe7, 0xf2, 0x1a, 0x3d, 0x60, 0x71, 0x3f, 0x3b, 0xba, 0x00, 0xd3, 0x3c,
  0xd0, 0xe8, 0x45, 0xbd, 0x3a, 0x4f, 0x97, 0xbc, 0xd3, 0x64, 0xd2, 0xbc,
  0x00, 0x3a, 0x6c, 0xbc, 0x07, 0x59, 0x10, 0x3e, 0x86, 0xea, 0xc7, 0xbe,
  0x80, 0x0f, 0x17, 0xbd, 0x98, 0xef, 0x08, 0xbc, 0xe8, 0x57, 0x6f, 0x3e,
  0x9a, 0x8c, 0xb9, 0xbc, 0xd0, 0x06, 0x2d, 0x3e, 0x80, 0x19, 0x13, 0xbc,
  0x31, 0x82, 0x90, 0x3e, 0xf2, 0xcb, 0x94, 0x3e, 0x37, 0xfa, 0x38, 0xbd,
  0x68, 0x50, 0xe3, 0xbb, 0x28, 0x0e, 0x98, 0x3e, 0x94, 0x63, 0x49, 0x3e,
  0x67, 0xc2, 0x6e, 0x3e, 0x80, 0x83, 0x07, 0x3e, 0x00, 0xc4, 0xab, 0xba,
  0xc4, 0xc7, 0xba, 0xbe, 0x64, 0xb6, 0x7c, 0x3c, 0xce, 0xb9, 0x5d, 0x3e,
  0x76, 0xa6, 0x5c, 0x3e, 0xc0, 0x14, 0xe4, 0xbc, 0x8c, 0x58, 0x5b, 0xbc,
  0xcd, 0xd4, 0x63, 0x3e, 0x64, 0xab, 0x5e, 0x3c, 0xe8, 0x6c, 0x4a, 0xbc,
  0xd0, 0x2f, 0x02, 0x3b, 0xd0, 0x3f, 0xd8, 0xbb, 0x81, 0x55, 0x58, 0x3d,
  0x94, 0xfa, 0x89, 0xbc, 0x10, 0x8d, 0x38, 0xbd, 0x9b, 0x44, 0x9f, 0x3c,
  0x22, 0xd7, 0xb6, 0x3d, 0xb7, 0x62, 0x9e, 0xbe, 0xc9, 0x5b, 0x3b, 0x3d,
  0xd0, 0xe5, 0x44, 0x3b, 0xe3, 0x72, 0xd1, 0x3d, 0x38, 0x03, 0xa0, 0xbc,
  0x0e, 0xbd, 0x7b, 0x3d, 0x74, 0xce, 0x52, 0x3c, 0x1a, 0xd4, 0xed, 0x3d,
  0x22, 0xc5, 0x52, 0x3d, 0xb2, 0x5b, 0x92, 0x3c, 0xfa, 0xc7, 0xf9, 0xbc,
  0xd9, 0x3e, 0x1f, 0x3d, 0xe2, 0x22, 0x1f, 0x3d, 0xa5, 0x28, 0xca, 0x3d,
  0x58, 0x41, 0x59, 0x3d, 0x4c, 0x9a, 0x36, 0x3c, 0xd6, 0xfe, 0x8c, 0xbe,
  0xe6, 0x07, 0x92, 0x3c, 0x2a, 0x43, 0xce, 0x3d, 0x87, 0x27, 0x41, 0x3d,
  0xda, 0x96, 0xc2, 0x3c, 0x4d, 0x38, 0xab, 0xbc, 0x74, 0xd4, 0x44, 0x3d,
  0x21, 0x23, 0x2d, 0x3d, 0x83, 0x7f, 0x10, 0xbd, 0x57, 0xca, 0x0e, 0x3d,
  0x13, 0x65, 0xca, 0xbc, 0x3b, 0x24, 0x9f, 0x3d, 0x66, 0x71, 0xe8, 0x3c,
  0x58, 0x98, 0x27, 0xbc, 0x08, 0x49, 0x3e, 0xbc, 0x59, 0xe3, 0x83, 0x3d,
  0xbe, 0x83, 0x7d, 0xbe, 0xf4, 0xc9, 0x3a, 0x3c, 0xb0, 0x35, 0xd0, 0xbb,
  0x0e, 0xca, 0x75, 0x3d, 0xe4, 0xab, 0xd9, 0xbc, 0xd7, 0x78, 0xe2, 0x3d,
  0x9d, 0x67, 0x26, 0x3d, 0x29, 0xc4, 0x8e, 0x3d, 0x53, 0xb6, 0x79, 0x3d,
  0xc4, 0xa8, 0x4e, 0x3c, 0x97, 0x0c, 0x49, 0xbd, 0xdc, 0x2b, 0xf2, 0x3d,
  0xc8, 0x35, 0xe1, 0x3d, 0x1d, 0xa9, 0xcb, 0x3d, 0xeb, 0xe0, 0xf6, 0x3d,
  0x30, 0x6d, 0x4c, 0x3b, 0xc7, 0x11, 0x58, 0xbe, 0x5a, 0x54, 0xf5, 0x3c,
  0xb7, 0x00, 0xef, 0x3d, 0x97, 0xc9, 0x2d, 0x3d, 0x76, 0xe4, 0x00, 0xbd,
  0xe7, 0x2d, 0x30, 0xbd, 0x5e, 0x5c, 0x91, 0x3d, 0xd0, 0xef, 0x69, 0xbb,
  0x4c, 0x50, 0x05, 0xbc, 0x00, 0x09, 0x85, 0xbc, 0xed, 0x9c, 0xed, 0xbc,
  0x07, 0xf7, 0x6a, 0x3e, 0x50, 0x9a, 0xf1, 0xbb, 0x68, 0x99, 0x24, 0x3c,
  0x0c, 0xc6, 0x77, 0x3c, 0xd6, 0xef, 0x6d, 0x3e, 0x54, 0xca, 0xb3, 0x3e,
  0x9a, 0x3a, 0xd1, 0x3c, 0xbd, 0xfd, 0x38, 0xbd, 0x81, 0x20, 0x44, 0xbe,
  0xa2, 0x32, 0xd0, 0x3c, 0x9b, 0xe6, 0xcf, 0xbd, 0x00, 0xa0, 0xc4, 0x38,
  0x9a, 0x05, 0x77, 0xbe, 0x48, 0x9f, 0x6b, 0xbe, 0xd2, 0x6b, 0xa3, 0x3c,
  0x58, 0x57, 0x75, 0xbc, 0x55, 0xf8, 0x64, 0xbe, 0x72, 0x3d, 0x0b, 0xbe,
  0xe5, 0x99, 0x34, 0xbe, 0x0b, 0xbd, 0x1c, 0x3e, 0x60, 0x19, 0x36, 0xbb,
  0x8b, 0x32, 0xc9, 0x3e, 0x9c, 0x27, 0x78, 0x3c, 0x1b, 0xec, 0x2b, 0x3e,
  0xdd, 0xf8, 0x8c, 0x3d, 0xc0, 0x38, 0x01, 0xbd, 0xd0, 0x13, 0x32, 0xbd,
  0xee, 0x0e, 0x0b, 0xbe, 0xd8, 0xdf, 0x17, 0x3c, 0xd0, 0x82, 0x8e, 0xbb,
  0x50, 0xbc, 0x8b, 0x3b, 0x76, 0xa3, 0x06, 0xbd, 0xa4, 0xbe, 0xd6, 0xb7,
  0xcc, 0x97, 0x11, 0xbc, 0x47, 0x20, 0xb2, 0xbc, 0xb9, 0x22, 0x56, 0x3d,
  0x5d, 0xef, 0x3c, 0xbc, 0xe1, 0x14, 0xa1, 0xbc, 0xa8, 0x24, 0x68, 0xbc,
  0xb7, 0x80, 0x06, 0x3d, 0x99, 0xf9, 0x1f, 0x3d, 0x7e, 0x7c, 0x26, 0xbd,
  0x58, 0xe3, 0xd6, 0x3b, 0xa0, 0x63, 0xd8, 0xbc, 0xe9, 0x2e, 0xfe, 0xbc,
  0xcb, 0xe7, 0xa1, 0x3c, 0xe1, 0xb9, 0x20, 0x3d, 0xf3, 0xe1, 0x1b, 0x3d,
  0x19, 0x30, 0x98, 0x3c, 0xd9, 0xee, 0x90, 0xbc, 0x6d, 0x9b, 0x91, 0x3c,
  0x99, 0x38, 0x23, 0xbc, 0x8d, 0x28, 0x34, 0xbd, 0xb9, 0xcc, 0xac, 0x3b,
  0xc7, 0x75, 0x38, 0xbd, 0x9f, 0xc6, 0x2d, 0xbd, 0x23, 0x63, 0xa6, 0xbc,
  0x12, 0x1e, 0xce, 0x3c, 0x5a, 0xa6, 0x82, 0x3c, 0xe6, 0xb2, 0x69, 0xbd,
  0x04, 0x28, 0x79, 0x3c, 0x7a, 0x3c, 0xf4, 0x3c, 0xfd, 0x36, 0x33, 0xbd,
  0x67, 0x62, 0x49, 0x3d, 0x1a, 0x00, 0x5f, 0xbd, 0xe8, 0xb5, 0xa1, 0xbb,
  0x18, 0x60, 0x18, 0xbc, 0x53, 0x85, 0x0b, 0x3d, 0xb1, 0x25, 0x86, 0x3c,
  0xf0, 0x92, 0x09, 0xbd, 0xb4, 0xc2, 0x54, 0xbc, 0x9a, 0xd1, 0xc0, 0xbc,
  0xf5, 0x93, 0xd6, 0xbc, 0x6d, 0x00, 0xa0, 0xbc, 0x9f, 0x6c, 0x3e, 0xbd,
  0x98, 0xff, 0x34, 0x3c, 0xed, 0x00, 0x15, 0x3d, 0x57, 0xc4, 0x1b, 0x3d,
  0xa0, 0xf7, 0xb0, 0xbc, 0x20, 0xd5, 0x89, 0xbc, 0xda, 0x3c, 0x9c, 0x3c,
  0x8d, 0x78, 0x60, 0xbd, 0x14, 0x1c, 0x0c, 0x3d, 0x69, 0xbd, 0x16, 0xbc,
  0xb0, 0x42, 0xf2, 0x3b, 0xce, 0x03, 0xf8, 0x3c, 0xa9, 0x9e, 0x02, 0x3d,
  0xa1, 0x4c, 0x88, 0xbb, 0x54, 0xa1, 0x01, 0xbd, 0x0d, 0xc3, 0xc2, 0xbc,
  0x04, 0xa4, 0x7c, 0x3c, 0x93, 0x05, 0x01, 0x3d, 0x98, 0xac, 0x39, 0xbc,
  0x37, 0xdd, 0x49, 0x3d, 0xf4, 0xdb, 0x69, 0xbc, 0x7d, 0xc0, 0x33, 0x3d,
  0x45, 0x44, 0x1b, 0xbd, 0xf4, 0xc4, 0x70, 0x3c, 0x7a, 0x96, 0x44, 0xbd,
  0x91, 0x6d, 0xa7, 0x3c, 0xa6, 0xdb, 0x46, 0xbd, 0x4a, 0xeb, 0x21, 0x3d,
  0x9a, 0xa2, 0x16, 0xbd, 0xee, 0x7b, 0xf6, 0x3c, 0xf6, 0x3d, 0x2f, 0xbd,
  0x9f, 0xff, 0x09, 0x3d, 0x7e, 0xb0, 0xee, 0xbb, 0x71, 0x42, 0x21, 0x3d,
  0x97, 0xb4, 0x0a, 0x3a, 0x66, 0x1d, 0x01, 0xbd, 0x1a, 0xec, 0x11, 0xbd,
  0xd0, 0x60, 0x7f, 0x3b, 0x44, 0x24, 0x58, 0x3c, 0x75, 0x34, 0xa0, 0xbb,
  0x24, 0x7a, 0x4a, 0x3c, 0x63, 0x1d, 0x96, 0x3c, 0x80, 0xf1, 0x42, 0xbc,
  0x2c, 0x76, 0x25, 0xbc, 0x7a, 0xe7, 0x94, 0xbc, 0xba, 0x9d, 0xd6, 0xbc,
  0xf4, 0xf4, 0x02, 0xbd, 0x80, 0xfc, 0x15, 0xbd, 0x74, 0x91, 0x74, 0xbc,
  0x1d, 0xf5, 0x5e, 0x3c, 0xb9, 0x1a, 0x25, 0x3d, 0x02, 0xa6, 0xca, 0x3c,
  0x73, 0xa7, 0x12, 0x3d, 0xd3, 0xac, 0x13, 0x3d, 0x80, 0x68, 0x0c, 0xbd,
  0x60, 0x06, 0x44, 0x3b, 0xfd, 0x21, 0x13, 0xbd, 0x23, 0x2f, 0x47, 0xbd,
  0xa2, 0xb7, 0xf2, 0x3c, 0x80, 0xb7, 0xd1, 0x3b, 0xd0, 0x94, 0x19, 0xbb,
  0x80, 0x3e, 0x02, 0x3c, 0xc1, 0x60, 0x36, 0x3d, 0x80, 0x67, 0xfc, 0xbb,
  0x27, 0xa8, 0x3b, 0xbd, 0xa8, 0x74, 0x11, 0x3c, 0xa9, 0x35, 0x46, 0x3d,
  0x28, 0x99, 0x13, 0x3c, 0x00, 0x80, 0x2c, 0xbd, 0xc0, 0x74, 0x22, 0xbc,
  0xb0, 0xfb, 0x9e, 0xbb, 0x13, 0xcb, 0x44, 0xbd, 0xd0, 0x3f, 0xe9, 0x3b,
  0xc9, 0x3f, 0x27, 0x3d, 0x7a, 0xf7, 0x0a, 0xbd, 0xcd, 0x44, 0x24, 0xbd,
  0x30, 0xa8, 0x71, 0x3b, 0xba, 0xba, 0x34, 0xbd, 0xa0, 0x1d, 0x2a, 0xbd,
  0xe2, 0x47, 0xa4, 0x3c, 0xe0, 0x14, 0x36, 0xbd, 0x3a, 0xa1, 0x80, 0x3c,
  0xc1, 0x06, 0x3e, 0x3d, 0x98, 0x09, 0x68, 0xbc, 0x2a, 0x38, 0x31, 0xbd,
  0xe4, 0x53, 0x09, 0xbd, 0x6f, 0x07, 0x65, 0xbd, 0xe7, 0x91, 0xdc, 0xbc,
  0xe0, 0x83, 0x9e, 0xbc, 0xce, 0xbb, 0x04, 0x3c, 0x76, 0x63, 0xdc, 0x3c,
  0xf1, 0xf3, 0x9d, 0xbc, 0x4c, 0x3f, 0x2e, 0x3c, 0x00, 0x50, 0xb1, 0xbc,
  0x3c, 0xa3, 0x33, 0xbd, 0xf8, 0x9c, 0x34, 0x3d, 0x9e, 0x34, 0xc4, 0xbb,
  0xa3, 0x92, 0x13, 0xbd, 0x0c, 0x95, 0xfc, 0x3c, 0x9d, 0x1d, 0x85, 0xbc,
  0x22, 0x74, 0xf8, 0x3c, 0xd3, 0xcd, 0x23, 0x3d, 0xfe, 0x16, 0xbb, 0xbc,
  0xcb, 0x27, 0x3d, 0x3c, 0xd7, 0xae, 0x7b, 0x3c, 0xbe, 0x87, 0x0c, 0xbc,
  0x18, 0xfe, 0x04, 0xbc, 0x6f, 0x26, 0x6a, 0x3d, 0x8a, 0x46, 0x0d, 0xbd,
  0x83, 0x5a, 0x78, 0x3c, 0x74, 0xd5, 0x56, 0xbd, 0x3a, 0x09, 0xe8, 0x3c,
  0x09, 0x7f, 0x29, 0x3d, 0x92, 0xa5, 0x84, 0xbc, 0x31, 0x32, 0x32, 0x3d,
  0x92, 0xe4, 0x85, 0x3c, 0xbd, 0x57, 0x05, 0xbd, 0x57, 0x1b, 0x10, 0x3d,
  0x24, 0x69, 0xad, 0x3e, 0x0d, 0xaf, 0x19, 0xbd, 0x52, 0x74, 0xd7, 0x3c,
  0xa3, 0xcb, 0x1e, 0xbd, 0xc7, 0xb0, 0x86, 0x3e, 0xda, 0x85, 0xb7, 0x3e,
  0x5a, 0x30, 0x2d, 0xbd, 0xb4, 0x19, 0x44, 0x3c, 0xe0, 0x4d, 0x11, 0xbe,
  0x61, 0xf4, 0xa7, 0x3c, 0x81, 0x46, 0x1d, 0xbe, 0xb6, 0xfa, 0x1b, 0xbd,
  0xaa, 0xf1, 0x20, 0xbe, 0x78, 0x68, 0x80, 0xbe, 0xdd, 0x50, 0x45, 0x3d,
  0x18, 0x47, 0x94, 0xbb, 0x8e, 0xff, 0x9a, 0xbe, 0x71, 0xd2, 0x37, 0xbd,
  0x7f, 0xff, 0xfc, 0xbd, 0x4b, 0xb8, 0x05, 0x3e, 0x07, 0x92, 0xca, 0xbc,
  0xc3, 0x48, 0xba, 0x3e, 0xa2, 0x6d, 0xad, 0x3c, 0x43, 0xdc, 0x01, 0x3e,
  0x9d, 0x7d, 0x99, 0x3c, 0xd9, 0x23, 0x0a, 0x3d, 0xf4, 0xba, 0x6a, 0x3c,
  0xf0, 0x9a, 0x43, 0xbe, 0x03, 0xd6, 0x2b, 0xbd, 0xa7, 0x08, 0x0e, 0x3d,
  0xf9, 0x94, 0x13, 0x3d, 0x00, 0xda, 0x23, 0xb9, 0xbc, 0x17, 0x5d, 0x3c,
  0xc2, 0x27, 0xfc, 0x3c, 0x28, 0x3c, 0x01, 0xbc, 0xb5, 0x24, 0xac, 0xbc,
  0xc0, 0xfb, 0x8e, 0x3c, 0xed, 0x31, 0xea, 0xbc, 0x27, 0xc2, 0xa5, 0xbc,
  0xa0, 0xa5, 0x42, 0x3b, 0x66, 0x56, 0x56, 0xbd, 0xa5, 0x55, 0x61, 0xbc,
  0x77, 0xac, 0x50, 0xbd, 0x72, 0x23, 0xad, 0x3c, 0x17, 0xf6, 0xb1, 0xbc,
  0x7a, 0x19, 0x92, 0x3c, 0x86, 0x94, 0xec, 0x3c, 0x50, 0xc4, 0xde, 0x3b,
  0x7f, 0x82, 0x72, 0xbd, 0x51, 0x29, 0xde, 0x3c, 0x65, 0x23, 0xeb, 0x3c,
  0x36, 0xfb, 0xcc, 0x3c, 0x0c, 0x3a, 0x2a, 0x3c, 0x19, 0x86, 0xe3, 0x3c,
  0xc9, 0x04, 0x2a, 0x3d, 0x71, 0xaa, 0x74, 0xbd, 0x44, 0xbc, 0x03, 0xbc,
  0x3d, 0x7d, 0x1a, 0x3d, 0xe2, 0xd0, 0xad, 0x3c, 0xbc, 0xa4, 0x58, 0x3c,
  0x6d, 0x37, 0x13, 0xbd, 0xc0, 0x6f, 0x0c, 0xbd, 0x68, 0x4a, 0xb5, 0x3b,
  0x74, 0xb7, 0x83, 0xbc, 0xc9, 0x18, 0xd8, 0x3b, 0x13, 0x22, 0xa0, 0xbc,
  0x8c, 0xa8, 0x3e, 0xbc, 0xf7, 0xac, 0x50, 0xbd, 0x1f, 0x5f, 0xc6, 0x3d,
  0xc5, 0x7a, 0x87, 0xbe, 0x50, 0x1b, 0xb6, 0xbb, 0xa0, 0x77, 0x81, 0x3a,
  0x06, 0x28, 0xce, 0x3c, 0x29, 0x48, 0x2a, 0xbd, 0x2a, 0x36, 0x1e, 0x3c,
  0xd3, 0x9b, 0xd2, 0xbc, 0x77, 0x27, 0xff, 0x3d, 0x1e, 0xde, 0xdd, 0x3c,
  0xb4, 0x66, 0x2e, 0xbc, 0xd0, 0x63, 0x83, 0x3b, 0xf3, 0x3b, 0xcd, 0x3d,
  0x03, 0x53, 0x97, 0x3d, 0x93, 0xd4, 0x59, 0x3d, 0xea, 0x21, 0xd0, 0x3d,
  0xd3, 0x7a, 0x3a, 0x3d, 0x52, 0xc2, 0x88, 0xbe, 0xc3, 0x1e, 0x06, 0x3d,
  0x71, 0x96, 0xa9, 0x3d, 0xab, 0xf8, 0x94, 0x3d, 0x4e, 0x53, 0xb6, 0x3c,
  0x18, 0xd0, 0xad, 0x3b, 0x61, 0x45, 0x3a, 0x3d, 0x02, 0x49, 0xd4, 0x3c,
  0x02, 0x01, 0xc5, 0x3c, 0xf4, 0x23, 0x2f, 0xbc, 0xf3, 0x92, 0x30, 0x3d,
  0xf8, 0x60, 0x8c, 0x3e, 0x33, 0xb5, 0x3d, 0x3d, 0xe7, 0x2c, 0xcb, 0xbc,
  0x97, 0xa7, 0x44, 0xbd, 0x40, 0xb2, 0x6e, 0x3e, 0x16, 0x6f, 0xab, 0x3e,
  0x66, 0x05, 0xda, 0x3c, 0x74, 0x9d, 0x44, 0xbc, 0x95, 0x5a, 0x03, 0xbe,
  0xe0, 0x50, 0xb4, 0xbc, 0xf3, 0xb2, 0x02, 0xbe, 0xc2, 0xac, 0x98, 0x3c,
  0x10, 0x84, 0x1d, 0xbe, 0x83, 0x7c, 0x5e, 0xbe, 0xa6, 0xd7, 0x87, 0x3c,
  0xe6, 0xa5, 0x20, 0xbd, 0xc2, 0xa6, 0x70, 0xbe, 0x04, 0x87, 0xa9, 0xbd,
  0xb7, 0x7e, 0x27, 0xbe, 0xc2, 0x3d, 0x63, 0x3d, 0xd4, 0x68, 0x91, 0xbc,
  0x8f, 0x9d, 0xb2, 0x3e, 0x60, 0x8e, 0x38, 0xbd, 0x19, 0x27, 0x2e, 0x3e,
  0xc7, 0x1d, 0x62, 0x3d, 0x03, 0x85, 0x26, 0xbd, 0xa8, 0x01, 0x52, 0xbc,
  0xd6, 0x16, 0xdb, 0xbd, 0x0c, 0xcc, 0x7e, 0x3c, 0xe8, 0xcd, 0x8e, 0xbb,
  0xe8, 0x2f, 0xe9, 0xbb, 0x91, 0xd4, 0x3d, 0x3d, 0x7b, 0x6a, 0xad, 0x3e,
  0x60, 0xe4, 0xf2, 0xba, 0x5a, 0xa3, 0x89, 0x3c, 0x46, 0xc3, 0x26, 0xbd,
  0xfb, 0xd1, 0x87, 0x3e, 0x44, 0x6f, 0xc8, 0x3e, 0xc6, 0xd6, 0x08, 0xbd,
  0x90, 0x1a, 0x1e, 0xbd, 0xc3, 0x15, 0x24, 0xbe, 0x26, 0x41, 0xd4, 0x3c,
  0xe6, 0x82, 0x1d, 0xbe, 0x98, 0x9c, 0xaa, 0x3b, 0x6e, 0x90, 0x6f, 0xbe,
  0x4e, 0x0d, 0x64, 0xbe, 0xda, 0x6a, 0x20, 0xbd, 0x21, 0xc6, 0x04, 0x3d,
  0xe5, 0x0e, 0x77, 0xbe, 0x24, 0x35, 0xf7, 0xbd, 0x77, 0xa1, 0x19, 0xbe,
  0xcc, 0xd3, 0xea, 0x3d, 0xb0, 0x1d, 0xa0, 0x3b, 0x8b, 0x23, 0xa0, 0x3e,
  0x0d, 0x9a, 0x0b, 0x3d, 0x18, 0xf8, 0x4f, 0x3e, 0x0e, 0xaa, 0x81, 0x3d,
  0x00, 0xc7, 0xfe, 0x3b, 0x58, 0x38, 0x54, 0xbc, 0xb4, 0x77, 0x4a, 0xbe,
  0x40, 0x1c, 0xc6, 0xbc, 0x40, 0x0f, 0x08, 0x3c, 0xa7, 0x75, 0x2c, 0x3d,
  0xfa, 0x9c, 0x0f, 0xbd, 0x8d, 0x5a, 0x1c, 0xbd, 0x58, 0x4f, 0x34, 0xbc,
  0x58, 0x17, 0x31, 0xbc, 0x34, 0x20, 0x41, 0x3c, 0x00, 0x82, 0x64, 0x3b,
  0x74, 0x4b, 0x20, 0xbc, 0xaa, 0x5f, 0x1c, 0xbd, 0xa7, 0x23, 0x41, 0x3d,
  0x07, 0x46, 0xcf, 0xbc, 0x1a, 0xf8, 0xc6, 0xbc, 0x4d, 0x56, 0xa4, 0xbc,
  0x62, 0xd5, 0x83, 0x3c, 0x6a, 0x1f, 0x04, 0xbd, 0x80, 0x26, 0xc1, 0xb9,
  0xc3, 0x6f, 0x33, 0xbd, 0xce, 0x59, 0xca, 0x3c, 0x80, 0x9d, 0xc9, 0xbc,
  0xc0, 0x09, 0x8a, 0xbc, 0x00, 0x01, 0xcb, 0xbb, 0x30, 0x21, 0x0f, 0xbd,
  0x8c, 0xd3, 0x23, 0x3c, 0x30, 0x86, 0x2e, 0xbb, 0x07, 0xf6, 0x19, 0x3d,
  0xcd, 0x0e, 0xc2, 0xbc, 0x40, 0x1a, 0x05, 0xbd, 0xd2, 0x3a, 0x9a, 0x3c,
  0x9a, 0xb7, 0xca, 0x3c, 0x4e, 0x1a, 0x91, 0x3c, 0xa3, 0xcf, 0x23, 0x3d,
  0x8d, 0x93, 0x9d, 0xbc, 0x66, 0x50, 0x8b, 0x3c, 0xae, 0xb4, 0x82, 0x3c,
  0x4c, 0x9c, 0xa3, 0x3e, 0x30, 0xfc, 0x1c, 0xbb, 0xe8, 0x16, 0x8a, 0xbb,
  0x20, 0x15, 0x47, 0xbd, 0x15, 0x09, 0x90, 0x3e, 0xa0, 0x20, 0xa6, 0x3e,
  0xf3, 0xf0, 0x0d, 0xbd, 0xe7, 0x02, 0xea, 0xbc, 0xd7, 0x13, 0x45, 0xbe,
  0x9a, 0xd5, 0x98, 0xbc, 0x7f, 0x54, 0x10, 0xbe, 0x39, 0x67, 0x0c, 0x3d,
  0x20, 0x3c, 0x88, 0xbe, 0x43, 0xaa, 0x92, 0xbe, 0x8c, 0xac, 0x0f, 0x3c,
  0x0c, 0xc6, 0x6e, 0xbc, 0xac, 0xdc, 0x83, 0xbe, 0x25, 0x60, 0xf7, 0xbd,
  0x2a, 0x20, 0x4a, 0xbe, 0x5d, 0xff, 0x21, 0x3e, 0x91, 0xb2, 0x29, 0x3d,
  0x22, 0xec, 0x9f, 0x3e, 0x53, 0x91, 0x27, 0x3d, 0x4e, 0xcd, 0x3b, 0x3e,
  0xf2, 0xc1, 0xbd, 0x3d, 0x93, 0x3d, 0x02, 0x3d, 0x91, 0xa1, 0x30, 0x3d,
  0xfe, 0xbb, 0x2b, 0xbe, 0x82, 0x56, 0xd6, 0x3c, 0xce, 0x1c, 0xfa, 0x3c,
  0xd0, 0xb9, 0xd1, 0xbb, 0x53, 0xa0, 0x30, 0xbd, 0xa2, 0xd5, 0x13, 0x3e,
  0x06, 0x99, 0xf8, 0x3c, 0xb4, 0x23, 0x20, 0xbc, 0x9f, 0x8e, 0x39, 0x3c,
  0x78, 0x50, 0xee, 0x3d, 0x14, 0x5d, 0x9d, 0x3e, 0x84, 0x62, 0x53, 0x3c,
  0x5c, 0x0f, 0x67, 0x3c, 0x0f, 0x58, 0x98, 0xbd, 0x29, 0x84, 0x02, 0x3c,
  0xac, 0x9e, 0x1b, 0xbd, 0x00, 0x2c, 0x97, 0x38, 0x0f, 0xfd, 0x03, 0xbe,
  0xda, 0xf6, 0x9c, 0xbd, 0x53, 0x24, 0xb9, 0xbc, 0xa0, 0xf8, 0x72, 0x3b,
  0xe4, 0xb3, 0x09, 0xbe, 0x69, 0x80, 0x12, 0xbb, 0x5f, 0xa4, 0x60, 0xbd,
  0x5f, 0xaf, 0x76, 0x3d, 0x74, 0x4b, 0x05, 0xbc, 0x02, 0x97, 0x96, 0x3e,
  0x4c, 0xaa, 0x16, 0xbc, 0xc0, 0xf3, 0x42, 0x3d, 0xdc, 0xdc, 0xe6, 0xbb,
  0x7d, 0x16, 0x1c, 0x3d, 0xf4, 0xe0, 0x1f, 0x3c, 0x11, 0xac, 0x9e, 0xbd,
  0x12, 0xf5, 0xe3, 0x3c, 0xc2, 0x10, 0xf8, 0x3c, 0x00, 0x9e, 0xd4, 0xba,
  0xea, 0xdc, 0x16, 0xbd, 0x98, 0x07, 0x29, 0xbc, 0x1a, 0x92, 0xc5, 0x3c,
  0x77, 0x03, 0x42, 0x3d, 0x1d, 0xff, 0x08, 0xbd, 0xe9, 0x9d, 0x17, 0x3d,
  0x30, 0x38, 0x90, 0xbb, 0xad, 0x51, 0x17, 0xbd, 0x26, 0x19, 0xc0, 0x3c,
  0x13, 0xc0, 0x03, 0x3d, 0xc2, 0xad, 0xbc, 0x3c, 0x30, 0x61, 0x2e, 0xbb,
  0x43, 0x23, 0x1b, 0xbd, 0x34, 0x28, 0x17, 0x3c, 0x21, 0x3d, 0x11, 0x3d,
  0x80, 0xfd, 0x22, 0xbc, 0x00, 0xa5, 0x39, 0xbd, 0x63, 0xac, 0x14, 0xbd,
  0x06, 0x2b, 0x27, 0xbd, 0xb2, 0x30, 0xe0, 0x3c, 0x40, 0x18, 0xd9, 0xbc,
  0x14, 0x44, 0x02, 0xbd, 0x1a, 0x19, 0x22, 0xbd, 0x5a, 0x66, 0xff, 0x3c,
  0x8d, 0xe5, 0x45, 0xbd, 0xba, 0xe8, 0xa2, 0x3c, 0xcc, 0x0f, 0x1f, 0xbc,
  0x56, 0x39, 0x0a, 0xbd, 0x9a, 0xa2, 0xbd, 0xbc, 0xa3, 0xbe, 0x2a, 0xbd,
  0x66, 0x9f, 0xd3, 0x3c, 0x70, 0xf5, 0x16, 0xbd, 0x53, 0x65, 0x21, 0x3d,
  0x7c, 0x96, 0x86, 0xbd, 0xe6, 0xe1, 0x27, 0xbd, 0x18, 0x87, 0x47, 0xbc,
  0xe8, 0x2b, 0x09, 0xbc, 0x65, 0xd2, 0x8d, 0x3d, 0x36, 0x39, 0xc1, 0xbe,
  0xf2, 0xc9, 0x80, 0x3c, 0x94, 0x06, 0x00, 0xbd, 0xa4, 0x1e, 0x8f, 0x3e,
  0x4c, 0xf4, 0x7f, 0x3c, 0x6b, 0xb5, 0xb0, 0x3e, 0xcc, 0x4e, 0x5b, 0x3c,
  0x35, 0xe8, 0xbe, 0x3e, 0x27, 0x99, 0xae, 0x3e, 0x5d, 0xe0, 0x28, 0xbd,
  0x4e, 0x39, 0xeb, 0x3c, 0x65, 0x26, 0xd4, 0x3e, 0x41, 0xae, 0x91, 0x3e,
  0xdb, 0x42, 0x96, 0x3e, 0xfc, 0xba, 0x28, 0x3e, 0x66, 0x67, 0x1e, 0xbd,
  0x0b, 0x8f, 0xb8, 0xbe, 0x98, 0x54, 0xae, 0x3b, 0xe0, 0xbb, 0xc0, 0x3d,
  0xeb, 0xd0, 0x1a, 0x3e, 0xce, 0xe1, 0xe2, 0x3c, 0x80, 0x03, 0xd5, 0xbb,
  0xd1, 0xb9, 0x9d, 0x3e, 0x5a, 0x7b, 0x22, 0xbd, 0x83, 0x9a, 0x2c, 0x3d,
  0x80, 0xa1, 0xde, 0xbc, 0xda, 0x00, 0x34, 0xbd, 0x5e, 0x25, 0xcf, 0x3b,
  0x84, 0x22, 0x61, 0x3c, 0x00, 0x5c, 0xb0, 0xba, 0xd1, 0x6c, 0xb0, 0x3c,
  0xf2, 0x62, 0x37, 0x3d, 0x8a, 0x57, 0x62, 0xbe, 0xa1, 0x0d, 0x2d, 0x3d,
  0x3a, 0xdd, 0xab, 0x3c, 0x6c, 0xc2, 0x83, 0x3d, 0xd7, 0xfe, 0xa8, 0x3b,
  0x41, 0x32, 0xb9, 0x3d, 0xd3, 0x5d, 0xbc, 0xbc, 0xd2, 0x79, 0xea, 0x3c,
  0xd1, 0x0f, 0xe8, 0x3c, 0x8d, 0xea, 0x24, 0xbd, 0xa8, 0x42, 0x2d, 0xbc,
  0xc6, 0xa4, 0xc5, 0xbb, 0x88, 0x43, 0x49, 0x3d, 0xf7, 0xbb, 0xa6, 0x3c,
  0x37, 0x23, 0x93, 0x3d, 0xcd, 0xb2, 0xaa, 0xbc, 0xac, 0xb4, 0x31, 0xbe,
  0x90, 0xf8, 0x36, 0xbd, 0xb6, 0xa8, 0xe2, 0x3c, 0xf2, 0x83, 0x85, 0x3d,
  0xe7, 0xa2, 0x31, 0xbd, 0x4e, 0x22, 0xc7, 0x3c, 0x72, 0x0e, 0xab, 0x3d,
  0x80, 0xad, 0xad, 0x3b, 0x8a, 0x7d, 0x2d, 0xbd, 0x96, 0x3d, 0x02, 0xbd,
  0x13, 0xee, 0x0d, 0xbd, 0xa9, 0xc2, 0x76, 0x3e, 0xda, 0xcf, 0xfa, 0x3c,
  0x4d, 0xf6, 0x41, 0xbd, 0x86, 0x39, 0xea, 0x3c, 0x50, 0xa1, 0x66, 0x3e,
  0x4c, 0x3a, 0x98, 0x3e, 0x70, 0xc5, 0x0a, 0xbd, 0x30, 0x04, 0xfc, 0x3b,
  0x75, 0x90, 0x15, 0xbe, 0x30, 0x13, 0xaf, 0x3b, 0x4a, 0xff, 0x83, 0xbd,
  0x27, 0x85, 0xec, 0xbc, 0xe6, 0x31, 0x49, 0xbe, 0x1a, 0x5e, 0x23, 0xbe,
  0x00, 0x51, 0x3c, 0xbb, 0x6e, 0x42, 0xa9, 0x3c, 0x47, 0x3a, 0x76, 0xbe,
  0x6b, 0x86, 0xc9, 0xbd, 0x34, 0xe1, 0xdd, 0xbd, 0xc4, 0x5f, 0xb6, 0x3d,
  0xd1, 0xa6, 0x32, 0x3d, 0x46, 0x0e, 0xaf, 0x3e, 0x60, 0x1f, 0x90, 0xbc,
  0x11, 0xa6, 0x24, 0x3e, 0xc0, 0xcc, 0x43, 0x3d, 0x66, 0x3c, 0xa7, 0x3c,
  0x2e, 0xe0, 0xa7, 0x3c, 0x4e, 0x44, 0xf5, 0xbd, 0xa2, 0xe6, 0x8a, 0x3c,
  0x02, 0xa0, 0x8d, 0x3c, 0x62, 0x80, 0x94, 0x3c, 0x5c, 0x30, 0x7e, 0x3c,
  0x6a, 0x30, 0x33, 0xbd, 0x67, 0x80, 0x09, 0x3d, 0x26, 0x88, 0xf6, 0x3c,
  0xb1, 0xbc, 0x3a, 0x3d, 0x34, 0xb2, 0x39, 0xbc, 0xf2, 0x06, 0xfa, 0x3c,
  0x7a, 0x66, 0xcc, 0x3c, 0xfa, 0xb1, 0xea, 0xbc, 0xd3, 0x3c, 0xf2, 0xbc,
  0x00, 0xb0, 0xf5, 0x3b, 0x30, 0xdc, 0xf3, 0x3b, 0xa0, 0xf6, 0x31, 0xbb,
  0x80, 0xf2, 0x70, 0x3a, 0x68, 0x3e, 0x97, 0xbb, 0x9d, 0x24, 0x2b, 0xbd,
  0xda, 0xef, 0x9a, 0xbc, 0x80, 0x32, 0x12, 0xbd, 0x90, 0x69, 0x2f, 0xbd,
  0x46, 0x36, 0xfa, 0x3c, 0xed, 0x54, 0x34, 0xbd, 0xc2, 0x8a, 0x86, 0x3c,
  0xa0, 0x55, 0x80, 0xbc, 0xa2, 0x11, 0xc2, 0x3c, 0x80, 0x00, 0xe7, 0xbb,
  0x4d, 0xda, 0x42, 0x3d, 0x01, 0xc6, 0x34, 0x3d, 0x30, 0xa3, 0x8a, 0xbb,
  0xc0, 0x88, 0x98, 0xbc, 0x40, 0xfa, 0xcb, 0xbc, 0xf0, 0x4e, 0x43, 0xbd,
  0xd8, 0x86, 0x11, 0xbc, 0x8a, 0x66, 0x2d, 0xbd, 0x14, 0x08, 0xdf, 0x3c,
  0xae, 0x3f, 0x97, 0x3c, 0xd8, 0x83, 0x6b, 0xbc, 0xb0, 0x2b, 0xc7, 0x3b,
  0xc7, 0x05, 0x23, 0xbc, 0x78, 0xa6, 0x85, 0x3c, 0xf0, 0x72, 0x34, 0xbd,
  0x73, 0xdd, 0xc6, 0xbc, 0x82, 0x58, 0xf6, 0x3c, 0x7a, 0xba, 0xc0, 0x3c,
  0x6f, 0x83, 0xe4, 0xbc, 0x2d, 0x69, 0xf5, 0xbc, 0x10, 0x82, 0xfe, 0xbc,
  0x9e, 0xb0, 0xb4, 0x3c, 0x34, 0x22, 0x82, 0xbc, 0x00, 0x00, 0x1c, 0xba,
  0x6c, 0xf4, 0xa3, 0xbc, 0x46, 0x77, 0xe6, 0xb9, 0x12, 0x14, 0x19, 0xbb,
  0x46, 0x37, 0x51, 0xbc, 0x00, 0xa8, 0x52, 0x3b, 0xd4, 0x52, 0xe5, 0x3b,
  0x40, 0x2b, 0x2a, 0xbc, 0x3d, 0x99, 0x82, 0xbc, 0x49, 0x57, 0x18, 0xbd,
  0x13, 0x7a, 0xa2, 0xbc, 0x60, 0xc5, 0x7e, 0xbb, 0xc5, 0xf9, 0x07, 0x3c,
  0x86, 0xe2, 0xb4, 0x3c, 0x47, 0x5a, 0xc2, 0xbc, 0x18, 0x52, 0x76, 0xbc,
  0x69, 0xf9, 0x4a, 0x3d, 0xf4, 0xc2, 0x22, 0xbc, 0x73, 0xd9, 0x30, 0xbd,
  0x00, 0xe6, 0x1d, 0xbb, 0x2d, 0x45, 0x48, 0x3d, 0xb0, 0x03, 0x9e, 0xbb,
  0xf3, 0xfc, 0xc8, 0xbc, 0xda, 0xf2, 0xa6, 0xbc, 0x36, 0x02, 0x00, 0xbd,
  0x6a, 0xa6, 0x38, 0xbd, 0x5d, 0x29, 0x1a, 0xbd, 0x00, 0xcc, 0x3a, 0xbd,
  0x98, 0x3e, 0xed, 0x3b, 0x67, 0x98, 0xa0, 0xbc, 0x60, 0x2a, 0xd1, 0xbc,
  0x60, 0xa0, 0x0b, 0x3b, 0x9c, 0x24, 0x7a, 0x3c, 0x84, 0x1f, 0x53, 0x3c,
  0x2e, 0xc7, 0xd1, 0x3c, 0xf2, 0x56, 0x96, 0x3c, 0xa6, 0x4e, 0x2b, 0xbd,
  0xd3, 0x7e, 0xc6, 0xbc, 0xa4, 0x02, 0x00, 0xbd, 0x3a, 0x6d, 0x8f, 0xbc,
  0x30, 0x1c, 0x05, 0xbd, 0xd0, 0xcd, 0x99, 0x3b, 0x6d, 0x1c, 0x32, 0x3d,
  0x94, 0x22, 0x0c, 0xbd, 0xc6, 0x5e, 0x9e, 0x3c, 0x0d, 0xeb, 0xd2, 0xbc,
  0x83, 0xca, 0x2a, 0xbd, 0x92, 0x5a, 0xef, 0x3c, 0x00, 0x50, 0x95, 0xbb,
  0x2f, 0x3a, 0xfe, 0x3d, 0x77, 0xd3, 0x46, 0x3d, 0x23, 0xa2, 0x2f, 0x3d,
  0x1b, 0x69, 0x56, 0x3d, 0xa6, 0xe1, 0xc4, 0x3d, 0xa7, 0xfb, 0xe0, 0x3e,
  0x89, 0xe8, 0x19, 0x3d, 0x4c, 0xf6, 0x36, 0xbc, 0x67, 0x1b, 0x02, 0xbe,
  0xbc, 0xad, 0x32, 0xbd, 0xee, 0x42, 0x8e, 0xbd, 0x28, 0xb6, 0x2b, 0xbc,
  0xca, 0x95, 0x38, 0xbe, 0x74, 0xe0, 0x8c, 0xbd, 0x06, 0x7b, 0x8d, 0xbc,
  0x02, 0xe5, 0xb3, 0x3c, 0x46, 0xb9, 0x00, 0xbe, 0xad, 0x66, 0x45, 0x3c,
  0x51, 0xc9, 0xaf, 0xbc, 0xf1, 0x45, 0x40, 0x3d, 0x00, 0x59, 0xd2, 0x3b,
  0x73, 0x71, 0xcb, 0x3e, 0xe4, 0x59, 0x00, 0xbd, 0xa9, 0xd3, 0x5c, 0x3d,
  0x2e, 0xb0, 0x1f, 0x3d, 0xa2, 0x28, 0xe0, 0x3c, 0x53, 0x6b, 0x28, 0xbd,
  0xe6, 0x8c, 0xd2, 0xbd, 0xfd, 0xa9, 0x11, 0xbd, 0x8d, 0xa0, 0xb9, 0xbc,
  0xba, 0x13, 0xbd, 0x3c, 0x13, 0x0f, 0xaf, 0xbc, 0xa2, 0xb8, 0x32, 0x3e,
  0x30, 0xdd, 0x5a, 0x3b, 0x27, 0x15, 0x3e, 0x3d, 0x4f, 0x2d, 0x57, 0x3c,
  0x22, 0xf4, 0x98, 0x3d, 0x92, 0x58, 0xd8, 0x3e, 0x0e, 0x06, 0x87, 0x3c,
  0x77, 0x6e, 0x24, 0x3d, 0x95, 0x11, 0x13, 0xbe, 0xb8, 0x0e, 0x5a, 0x3d,
  0xf1, 0xa3, 0x86, 0xbd, 0xba, 0x9b, 0xba, 0x3c, 0xcc, 0x6c, 0x4f, 0xbe,
  0x2c, 0x6e, 0x93, 0xbd, 0x30, 0x22, 0xc9, 0xbb, 0x8c, 0x27, 0x07, 0xbc,
  0x35, 0xbd, 0x18, 0xbe, 0x80, 0x3b, 0x07, 0xbd, 0xfa, 0xa4, 0x82, 0xbd,
  0xfd, 0x2e, 0x0e, 0x3d, 0x8c, 0x99, 0x75, 0xbc, 0x7c, 0x32, 0xb9, 0x3e,
  0xf3, 0xda, 0xb9, 0xbc, 0xb8, 0x51, 0x01, 0x3e, 0xef, 0xc1, 0x00, 0x3d,
  0xd9, 0x44, 0x0d, 0x3d, 0xcc, 0x65, 0x63, 0x3c, 0xc8, 0x8d, 0xea, 0xbd,
  0xe6, 0x29, 0xc7, 0x3c, 0xbd, 0x4c, 0x38, 0x3d, 0x5a, 0xe6, 0x17, 0xbd,
  0x33, 0x73, 0x4b, 0xbd, 0x50, 0x96, 0x2a, 0x3b, 0x63, 0xea, 0x20, 0xbd,
  0x98, 0x3c, 0xf7, 0x3b, 0x84, 0xcb, 0xd2, 0x3c, 0x6e, 0x16, 0x95, 0xbb,
  0x6f, 0x6d, 0xda, 0x3c, 0xd3, 0xde, 0x2e, 0xbd, 0x58, 0x79, 0x42, 0xbc,
  0xee, 0x59, 0x4d, 0xbd, 0xa9, 0xfc, 0xfd, 0xbc, 0x3a, 0xbe, 0x4d, 0xbd,
  0xce, 0x1b, 0xb7, 0x3c, 0x6d, 0x74, 0x48, 0xbd, 0x8f, 0x24, 0x96, 0x3b,
  0x4d, 0x63, 0xcb, 0xbc, 0x54, 0x2f, 0x03, 0xbd, 0x8c, 0x75, 0xfc, 0xbb,
  0x86, 0x22, 0x0b, 0x3d, 0xa0, 0xd1, 0x66, 0xbb, 0xf3, 0x21, 0xa0, 0xbc,
  0x98, 0x6f, 0x6c, 0xbc, 0x34, 0xd5, 0x00, 0x3d, 0x3a, 0xde, 0x8d, 0x3c,
  0xf8, 0xdb, 0xb3, 0xbc, 0x02, 0xac, 0x2b, 0x3b, 0x3d, 0x8a, 0x48, 0x3d,
  0x73, 0xba, 0x31, 0x3d, 0xd9, 0x75, 0xc1, 0xbb, 0x61, 0xef, 0x42, 0x3d,
  0x26, 0x29, 0x19, 0xbd, 0xa7, 0x0b, 0x49, 0x3d, 0x3a, 0xa9, 0x07, 0xbd,
  0x72, 0xb0, 0x0d, 0x3d, 0x80, 0x82, 0x72, 0x3a, 0x98, 0x4b, 0xe1, 0x3b,
  0x72, 0xe7, 0x8a, 0x3c, 0x0c, 0x8b, 0xc7, 0xbc, 0xdc, 0x36, 0x5d, 0xbb,
  0xcc, 0xfc, 0x3b, 0x3c, 0xd0, 0xe4, 0x07, 0x3b, 0x53, 0xc1, 0x13, 0xbd,
  0xd2, 0xca, 0x2e, 0x3d, 0x8c, 0xb9, 0xab, 0x3c, 0x43, 0x68, 0x25, 0xbd,
  0x32, 0x43, 0x39, 0xbd, 0x92, 0x22, 0xaf, 0xbc, 0x00, 0xe3, 0xcf, 0x3b,
  0xd2, 0x6c, 0xb5, 0x3c, 0xf6, 0xb7, 0xf6, 0x3c, 0x0e, 0x5a, 0x65, 0x3c,
  0x36, 0xc7, 0x90, 0xba, 0xd5, 0x0c, 0x03, 0xbd, 0x7a, 0xac, 0x8c, 0x3c,
  0x24, 0x1b, 0x00, 0x3d, 0xd0, 0x3b, 0x47, 0xbd, 0xd5, 0xbf, 0x33, 0xbd,
  0x70, 0x99, 0x91, 0x3c, 0x98, 0x14, 0x56, 0xbc, 0xba, 0x17, 0xc0, 0xbc,
  0x9a, 0x9a, 0x3d, 0x3c, 0xa0, 0xa3, 0x37, 0xbd, 0x03, 0xfa, 0x47, 0x3d,
  0x50, 0x85, 0x0c, 0xbd, 0x47, 0xec, 0xa0, 0xbc, 0x25, 0x9f, 0xb5, 0xbc,
  0xa0, 0x17, 0x3c, 0x3b, 0x80, 0xc1, 0x3d, 0xbd, 0x8d, 0x6e, 0x33, 0x3d,
  0xa4, 0x62, 0x1c, 0x3b, 0x93, 0x9a, 0xcb, 0xbc, 0x18, 0x3a, 0x93, 0xbb,
  0x98, 0xa6, 0xf0, 0xbb, 0x0d, 0xa6, 0xc2, 0x3c, 0x30, 0x34, 0xf9, 0xbc,
  0x09, 0x52, 0xc4, 0x3b, 0x36, 0xa0, 0x04, 0xbd, 0x18, 0xbd, 0xb2, 0x3c,
  0xa1, 0x3b, 0xe9, 0xbb, 0xf2, 0x93, 0xe6, 0x3c, 0xc0, 0x64, 0xac, 0xba,
  0x84, 0x1b, 0x96, 0x3c, 0x80, 0x96, 0xf8, 0xbc, 0x3c, 0x95, 0xab, 0x3b,
  0x61, 0x42, 0xb4, 0xbc, 0x80, 0xce, 0x56, 0x3a, 0x77, 0xf3, 0x25, 0x3d,
  0x00, 0xd5, 0xa7, 0xb9, 0x77, 0xab, 0x97, 0x3c, 0xbd, 0xc5, 0x98, 0x3c,
  0xc0, 0x50, 0x05, 0xbc, 0x43, 0xc9, 0x10, 0xbd, 0x55, 0x73, 0x60, 0xbd,
  0xe4, 0x75, 0x0b, 0xbd, 0xcd, 0xcf, 0x45, 0xbd, 0x80, 0xb0, 0x20, 0xbd,
  0x31, 0xc9, 0x24, 0x3d, 0x3c, 0x1c, 0x81, 0x3d, 0x1a, 0xea, 0xd5, 0xbc,
  0x62, 0x0d, 0xaf, 0x3c, 0x96, 0x17, 0x94, 0xbb, 0x3f, 0x71, 0x6f, 0x3d,
  0xb2, 0x76, 0x83, 0xbe, 0x5a, 0x5e, 0x3d, 0xbd, 0x7a, 0xcf, 0x1d, 0xbd,
  0x7a, 0x1d, 0xdd, 0x3d, 0x78, 0x78, 0x3e, 0x3d, 0xec, 0xf8, 0x9b, 0x3d,
  0x91, 0x6f, 0x1e, 0x3d, 0xc2, 0xf8, 0x1a, 0x3e, 0x41, 0x20, 0xe0, 0x3d,
  0x2d, 0x55, 0x05, 0xbd, 0x52, 0x87, 0xd6, 0x3c, 0x50, 0x3f, 0x1a, 0x3e,
  0x74, 0x1a, 0xd1, 0x3d, 0xef, 0x0c, 0xd2, 0x3d, 0xa9, 0xe6, 0xa0, 0x3d,
  0x1a, 0x6e, 0x12, 0xbd, 0x98, 0x01, 0xa1, 0xbe, 0x51, 0x90, 0x25, 0x3d,
  0x5b, 0x82, 0xbe, 0x3d, 0x4d, 0x7d, 0x02, 0x3e, 0x30, 0x99, 0x54, 0x3b,
  0x50, 0x2f, 0xe9, 0xbb, 0x80, 0xf1, 0xdf, 0x3c, 0xe0, 0x11, 0x44, 0xbd,
  0x1a, 0x2d, 0x22, 0xbd, 0x4c, 0x93, 0x7a, 0x3c, 0x80, 0x3b, 0x38, 0xbc,
  0x4d, 0x13, 0x88, 0x3c, 0x1a, 0xca, 0xa6, 0xbc, 0x77, 0x5b, 0x4a, 0xbd,
  0x0b, 0x55, 0x60, 0xbd, 0xba, 0xbb, 0x40, 0x3d, 0xf1, 0x8d, 0x68, 0xbe,
  0x51, 0xb2, 0x29, 0x3d, 0x98, 0xf0, 0x1d, 0x3c, 0xab, 0xde, 0xcd, 0x3d,
  0x93, 0x78, 0xa0, 0x3c, 0x08, 0x1c, 0x10, 0x3c, 0x6d, 0x3b, 0xe1, 0xbc,
  0x67, 0xd4, 0xca, 0x3d, 0x4d, 0xe9, 0x13, 0x3d, 0x5c, 0xad, 0x76, 0x3c,
  0xcc, 0x2e, 0x4e, 0xbc, 0xb2, 0xfb, 0x83, 0x3d, 0xba, 0x01, 0x8c, 0x3d,
  0x8b, 0xea, 0xe1, 0x3c, 0xce, 0x59, 0x55, 0x3d, 0x80, 0xc4, 0x87, 0xbb,
  0x60, 0xd1, 0x67, 0xbe, 0xb3, 0x96, 0x38, 0xbd, 0x9c, 0x5b, 0xd6, 0x3d,
  0xaa, 0xc7, 0x9e, 0x3d, 0xda, 0xbf, 0xb9, 0xbc, 0x34, 0x61, 0x7c, 0x3c,
  0x93, 0xf4, 0x9d, 0x3d, 0xfa, 0x9d, 0x96, 0x3c, 0xc7, 0x83, 0xa2, 0xbc,
  0xb4, 0x41, 0x13, 0x3c, 0x80, 0x96, 0xd9, 0x39, 0x54, 0x3b, 0x22, 0x3d,
  0xb9, 0x75, 0x2a, 0x3d, 0xed, 0x03, 0x1a, 0xbd, 0xb4, 0x15, 0xfb, 0xbb,
  0xe4, 0x65, 0x26, 0x3d, 0x72, 0xb8, 0x84, 0xbe, 0x10, 0x21, 0x41, 0xbd,
  0x99, 0xd5, 0x15, 0x3d, 0xb8, 0x5e, 0xca, 0x3d, 0xb1, 0xe3, 0x4b, 0xbd,
  0xdc, 0x06, 0x46, 0x3c, 0x68, 0x73, 0x87, 0xbb, 0xd3, 0x53, 0xb9, 0x3d,
  0x77, 0x0b, 0xac, 0x3c, 0x17, 0xc4, 0x35, 0xbd, 0xa0, 0x1b, 0xb9, 0xbc,
  0x30, 0x9a, 0x0c, 0x3d, 0xf2, 0x28, 0x21, 0x3d, 0x69, 0x47, 0x88, 0x3d,
  0x85, 0x2a, 0x8f, 0x3d, 0x7d, 0xb1, 0x1a, 0xbd, 0x4c, 0x70, 0x6c, 0xbe,
  0x00, 0x7c, 0x85, 0xbc, 0xf9, 0x18, 0xaf, 0x3d, 0xff, 0x7b, 0xcd, 0x3d,
  0x19, 0xd0, 0x3a, 0x3d, 0xd8, 0x32, 0x49, 0x3c, 0xf7, 0x83, 0x12, 0x3d,
  0x58, 0x1e, 0x43, 0x3c, 0xe7, 0x43, 0x3e, 0xbd, 0x46, 0x35, 0x07, 0xbd,
  0x63, 0x62, 0x21, 0x3d, 0xb9, 0x3d, 0x1e, 0x3e, 0xe9, 0xa2, 0x45, 0x3d,
  0x40, 0x8c, 0x42, 0xbd, 0x0b, 0x1e, 0x21, 0xbd, 0xc7, 0xe8, 0x53, 0x3e,
  0x1d, 0x56, 0xaf, 0x3e, 0x00, 0xc7, 0x93, 0xbc, 0xb1, 0x31, 0x08, 0x3d,
  0x09, 0x6f, 0x16, 0xbe, 0x4f, 0x18, 0x19, 0xbc, 0x7f, 0x4f, 0x14, 0xbe,
  0xa0, 0xc1, 0xf0, 0x3a, 0xaf, 0x20, 0x78, 0xbe, 0x5c, 0x0a, 0x1c, 0xbe,
  0x93, 0x46, 0xdf, 0xbc, 0x97, 0xe1, 0x34, 0x3d, 0xfe, 0x23, 0x69, 0xbe,
  0x13, 0x7a, 0x6f, 0xbd, 0x86, 0xd5, 0x91, 0xbd, 0x68, 0x96, 0xce, 0x3d,
  0x33, 0xf6, 0x49, 0x3d, 0x64, 0x6d, 0xd3, 0x3e, 0x2d, 0x8d, 0xfc, 0xbc,
  0x92, 0xc0, 0x13, 0x3e, 0x19, 0x6b, 0xd6, 0x3c, 0x50, 0xbb, 0xeb, 0xbb,
  0xc7, 0x4d, 0x05, 0x3d, 0x15, 0x16, 0xb9, 0xbd, 0x02, 0x0f, 0x9d, 0x3c,
  0xd8, 0x88, 0x0c, 0xbc, 0x13, 0x22, 0xc8, 0xbc, 0xe8, 0x18, 0x24, 0x3c,
  0xcb, 0x09, 0x92, 0x3e, 0xda, 0x44, 0x8c, 0x3c, 0x63, 0xb5, 0x1b, 0xbd,
  0x1a, 0x26, 0xb6, 0xbc, 0xae, 0x00, 0x49, 0x3e, 0x10, 0xe8, 0xa4, 0x3e,
  0xa7, 0xc3, 0xf7, 0xbc, 0x19, 0x24, 0x49, 0x3d, 0x4c, 0xca, 0xf7, 0xbd,
  0x11, 0x75, 0x2a, 0x3d, 0x34, 0x82, 0x0d, 0xbe, 0x19, 0x0e, 0x48, 0x3d,
  0x77, 0x3d, 0x68, 0xbe, 0x1f, 0x1e, 0x36, 0xbe, 0x74, 0x1f, 0x4e, 0xbc,
  0x40, 0xf5, 0x32, 0xbc, 0xeb, 0x15, 0x40, 0xbe, 0xf3, 0x5b, 0x83, 0xbc,
  0x8f, 0xd3, 0x12, 0xbe, 0x06, 0x19, 0xd9, 0x3d, 0xc2, 0x65, 0xa9, 0x3c,
  0x9a, 0x26, 0xa5, 0x3e, 0x30, 0x22, 0x13, 0xbd, 0x7d, 0xf8, 0xd6, 0x3d,
  0xa6, 0x6e, 0x90, 0xbc, 0x22, 0x98, 0xab, 0x3c, 0x18, 0x77, 0x0c, 0xbc,
  0xb3, 0xe2, 0x62, 0xbd, 0xf3, 0xf1, 0x35, 0xbd, 0xe8, 0x2c, 0x47, 0x3c,
  0x9d, 0xa9, 0x3e, 0xbd, 0x12, 0x67, 0x9a, 0x3c, 0xf0, 0xa2, 0x94, 0x3c,
  0x83, 0x3c, 0x3e, 0xbd, 0xe9, 0x0d, 0x47, 0x3d, 0x70, 0xdc, 0x2c, 0xbd,
  0x8e, 0x3d, 0x93, 0x3c, 0xda, 0xe5, 0x5e, 0xbd, 0xdd, 0x56, 0x04, 0xbd,
  0x26, 0x12, 0x22, 0xbd, 0x29, 0x09, 0x80, 0xbb, 0x00, 0x12, 0x56, 0xbb,
  0x85, 0x07, 0xde, 0x3b, 0x1c, 0x01, 0x5f, 0x3c, 0x22, 0x61, 0x8b, 0x3c,
  0xca, 0x24, 0x17, 0xbc, 0xda, 0x8b, 0xd7, 0xbc, 0x00, 0x16, 0x28, 0xb9,
  0xd1, 0x21, 0x21, 0xbd, 0xbe, 0x08, 0x33, 0xbd, 0x80, 0x73, 0x13, 0x3d,
  0xb3, 0xf3, 0x54, 0xbd, 0x22, 0xde, 0xe8, 0x3c, 0xad, 0xfa, 0xdd, 0x3c,
  0x60, 0x5c, 0x1f, 0x3b, 0x0b, 0x45, 0xda, 0x3c, 0xaa, 0xb8, 0x33, 0x3b,
  0xfa, 0x67, 0xb9, 0xbc, 0x87, 0xba, 0xaa, 0xbc, 0xd5, 0x62, 0x1b, 0xbd,
  0xc1, 0xde, 0x1e, 0x3d, 0xe9, 0xea, 0x13, 0x3d, 0x83, 0x31, 0x41, 0xbd,
  0x00, 0x59, 0x5e, 0xbc, 0x8a, 0x5e, 0xb2, 0xbc, 0x5a, 0x04, 0xe7, 0xbc,
  0x86, 0x3d, 0xae, 0x3c, 0x88, 0xff, 0xe1, 0x3c, 0xd8, 0x80, 0x6d, 0xbc,
  0xf0, 0x1f, 0x6f, 0xbc, 0xb2, 0x05, 0xad, 0x3c, 0xd0, 0x5a, 0xfc, 0xbb,
  0x3a, 0x73, 0xd3, 0xbc, 0x09, 0x97, 0x7a, 0x3c, 0x1b, 0xd3, 0xf9, 0x3c,
  0xfa, 0x29, 0xe5, 0x3c, 0x04, 0x08, 0x83, 0xbd, 0xe3, 0x6a, 0xcf, 0x3c,
  0xc9, 0x4a, 0x38, 0x3d, 0xa8, 0xf8, 0x20, 0xbc, 0xa7, 0xf0, 0xec, 0xbc,
  0xa3, 0x4c, 0xbc, 0x3c, 0x66, 0xe8, 0x1b, 0xbd, 0xfb, 0xda, 0xbe, 0x3c,
  0xb7, 0x49, 0x43, 0x3d, 0x5d, 0x66, 0xe5, 0xbc, 0xce, 0x26, 0x9d, 0x3c,
  0xd4, 0x17, 0x30, 0xbd, 0xb5, 0xab, 0x6d, 0xbd, 0xfa, 0x08, 0xbd, 0x3c,
  0xe0, 0x1e, 0x0e, 0xbd, 0xb5, 0xfb, 0x0d, 0xbc, 0x68, 0x48, 0xf9, 0xbb,
  0xa8, 0x0a, 0x44, 0x3c, 0x01, 0x2f, 0x34, 0x3d, 0x87, 0x54, 0x2d, 0xbd,
  0x27, 0x1a, 0x5e, 0x3e, 0x2a, 0xf2, 0x38, 0xbd, 0x40, 0x79, 0x01, 0xbd,
  0x11, 0x25, 0x58, 0x3d, 0xe3, 0xed, 0x05, 0x3e, 0xbb, 0xc0, 0xcc, 0x3e,
  0x43, 0xb1, 0x08, 0x3d, 0x69, 0x87, 0x39, 0x3d, 0x87, 0x85, 0x40, 0xbe,
  0x56, 0x37, 0x3c, 0xbd, 0x21, 0x32, 0x1e, 0xbe, 0x0e, 0xa0, 0xef, 0x3c,
  0x4a, 0xab, 0x22, 0xbe, 0x24, 0x79, 0x35, 0xbe, 0xd0, 0x7f, 0x13, 0xbd,
  0x0d, 0x18, 0xe0, 0xbc, 0x72, 0x2e, 0x4e, 0xbe, 0xe8, 0x00, 0x85, 0xbd,
  0x24, 0x01, 0x77, 0xbd, 0xe7, 0x32, 0xf8, 0x3d, 0x60, 0x23, 0x0f, 0xbb,
  0x42, 0x7d, 0xc9, 0x3e, 0x62, 0xec, 0xbd, 0x3c, 0x5e, 0x88, 0xda, 0x3d,
  0xa7, 0x00, 0x8a, 0x3d, 0x5a, 0x19, 0x94, 0xbc, 0x26, 0x8f, 0x93, 0xbc,
  0x52, 0x49, 0x41, 0xbe, 0x9d, 0x93, 0x40, 0xbd, 0xa6, 0x0a, 0xf2, 0x3c,
  0xf2, 0x06, 0xd7, 0x3c, 0x01, 0xd0, 0x19, 0x3d, 0x0a, 0x43, 0xd7, 0x3c,
  0xd8, 0xa6, 0x23, 0xbc, 0x9a, 0x97, 0xe4, 0x3c, 0xc0, 0x30, 0x24, 0x3a,
  0x39, 0x72, 0x36, 0x3d, 0x41, 0x7b, 0x68, 0xbc, 0x4c, 0x6f, 0x4f, 0xbc,
  0xda, 0x38, 0xd8, 0x3c, 0x18, 0xc1, 0x71, 0xbc, 0x13, 0x42, 0xa2, 0xbc,
  0x34, 0x4a, 0x18, 0x3c, 0x27, 0xf7, 0xba, 0xbc, 0x5a, 0x4b, 0x4b, 0xbd,
  0xf1, 0xff, 0x05, 0x3d, 0xc0, 0xb7, 0x2b, 0x3c, 0x93, 0x98, 0xe9, 0xbc,
  0x8e, 0xc4, 0x91, 0x3c, 0xed, 0x4b, 0xca, 0xbc, 0x00, 0x77, 0x5f, 0xbc,
  0x1d, 0xca, 0x4b, 0xbd, 0xad, 0x33, 0x0e, 0xbd, 0xe7, 0xab, 0x7a, 0xbb,
  0x82, 0xd2, 0xad, 0x3c, 0x80, 0x8d, 0x3f, 0xba, 0x00, 0xa1, 0x97, 0xbb,
  0x06, 0xe0, 0xef, 0x3c, 0xb4, 0x54, 0x5c, 0x3c, 0xa8, 0x8c, 0x36, 0x3c,
  0x00, 0xba, 0x73, 0xbb, 0x84, 0xaf, 0x6b, 0x3c, 0x3a, 0xf8, 0x07, 0xbd,
  0xf4, 0x8d, 0x32, 0xbc, 0x4a, 0x5c, 0x70, 0xbc, 0x82, 0xef, 0x8e, 0x3c,
  0xd3, 0x0b, 0xb7, 0xbc, 0xec, 0x96, 0xaa, 0x39, 0xf6, 0xd5, 0x0e, 0x3d,
  0xda, 0xd6, 0x52, 0xbe, 0x73, 0x5f, 0x3c, 0xbd, 0xdd, 0xdb, 0x32, 0x3d,
  0x81, 0xd7, 0xc1, 0x3d, 0xb8, 0x8a, 0x01, 0x3d, 0x0d, 0x88, 0x04, 0x3c,
  0x9a, 0x31, 0x34, 0xbd, 0x67, 0x3d, 0xba, 0x3d, 0xbd, 0x61, 0xac, 0x3d,
  0x0e, 0xc1, 0xaf, 0x3c, 0x46, 0x32, 0x24, 0xbd, 0x39, 0x24, 0x87, 0x3b,
  0xee, 0xff, 0x30, 0x3d, 0xee, 0x04, 0x9b, 0x3c, 0xbe, 0xd3, 0x85, 0x3d,
  0x0d, 0xbf, 0xdd, 0xbc, 0xae, 0xba, 0x30, 0xbe, 0x2e, 0xb9, 0xa8, 0x3c,
  0x46, 0xbf, 0xa9, 0x3d, 0x1e, 0xd6, 0xc4, 0x3d, 0x47, 0x2d, 0xec, 0xbc,
  0x86, 0x5d, 0x9e, 0x3c, 0x55, 0x6e, 0x86, 0x3d, 0x8d, 0x7c, 0xc2, 0xbc,
  0xf3, 0x0a, 0x44, 0xbd, 0xd1, 0xbc, 0x1c, 0x3d, 0x46, 0x17, 0x84, 0x3c,
  0xef, 0x98, 0x0b, 0x3d, 0xb0, 0xef, 0x3d, 0xbd, 0x27, 0x0f, 0xf5, 0xbc,
  0xb6, 0xec, 0x21, 0x3d, 0x72, 0xf4, 0x1f, 0x3d, 0x49, 0x89, 0xae, 0xbe,
  0xc0, 0xed, 0xc8, 0xbc, 0x5a, 0xaa, 0x1a, 0xbd, 0xd9, 0x6f, 0x84, 0x3d,
  0xbc, 0x42, 0xa7, 0xbb, 0xd7, 0x6d, 0xc6, 0x3d, 0x4c, 0xc9, 0x4f, 0xbc,
  0xfd, 0x46, 0x30, 0x3e, 0x50, 0x40, 0x04, 0x3e, 0x60, 0x34, 0xae, 0x3a,
  0x30, 0x7e, 0x4f, 0xbb, 0x7b, 0xb6, 0x17, 0x3e, 0x9a, 0xba, 0x9f, 0x3d,
  0x33, 0x54, 0x82, 0x3d, 0x5c, 0x10, 0xde, 0x3d, 0x3a, 0x43, 0xb9, 0x3c,
  0x14, 0xae, 0x95, 0xbe, 0x34, 0x42, 0x19, 0x3c, 0x64, 0x55, 0x80, 0x3d,
  0xa0, 0x55, 0xd5, 0x3d, 0x00, 0x47, 0x55, 0xbc, 0x30, 0xbe, 0x86, 0xbb,
  0xc8, 0x53, 0xfc, 0x3d, 0xa0, 0xfc, 0x6c, 0xbb, 0x60, 0x41, 0x63, 0xbb,
  0xaa, 0x08, 0x39, 0xbd, 0xa9, 0x27, 0x42, 0x3d, 0x14, 0xc7, 0x25, 0x3e,
  0xce, 0x4c, 0xf0, 0x3c, 0x67, 0x7b, 0xad, 0xbc, 0xb0, 0x51, 0x91, 0xbb,
  0x9f, 0x40, 0x00, 0x3e, 0x66, 0x8f, 0xb6, 0x3e, 0xa7, 0x58, 0x01, 0x3d,
  0x63, 0x28, 0x12, 0x3d, 0x6d, 0xf2, 0x81, 0xbd, 0x02, 0xc8, 0x91, 0x3c,
  0xf5, 0xb3, 0x51, 0xbd, 0xda, 0xc4, 0x99, 0x3c, 0x9c, 0xc6, 0x2b, 0xbe,
  0x77, 0x16, 0xfc, 0xbd, 0x52, 0x51, 0xf4, 0x3c, 0x02, 0x1d, 0xf6, 0x3c,
  0x8a, 0xfe, 0x3b, 0xbe, 0xc8, 0xbc, 0x95, 0xbd, 0xac, 0xb2, 0xf3, 0xbd,
  0x90, 0x6a, 0x77, 0x3d, 0x34, 0x7a, 0x62, 0xbc, 0x27, 0xd5, 0xc5, 0x3e,
  0xa7, 0x59, 0x00, 0x3d, 0xe3, 0x36, 0xe3, 0x3d, 0xe4, 0x05, 0x07, 0x3d,
  0xe8, 0x4d, 0x95, 0x3b, 0x61, 0x3c, 0x23, 0x3d, 0x65, 0x7f, 0x80, 0xbd,
  0xb4, 0x9c, 0x76, 0x3c, 0xfa, 0xf0, 0xd5, 0xbc, 0x23, 0xc8, 0x4a, 0xbd,
  0x3d, 0x9b, 0x30, 0xbd, 0x4d, 0x7f, 0xc4, 0x3c, 0x18, 0x28, 0xc2, 0x3b,
  0x03, 0x4b, 0x14, 0xbd, 0x88, 0xf6, 0x10, 0xbc, 0x28, 0x51, 0xb9, 0x3c,
  0x72, 0x20, 0x7e, 0x3e, 0x98, 0xcd, 0x34, 0x3c, 0x98, 0x81, 0x1e, 0x3c,
  0xd2, 0xae, 0xa6, 0xbb, 0x33, 0x06, 0xc3, 0x3c, 0x75, 0x30, 0x45, 0xbb,
  0xc0, 0x48, 0x02, 0xba, 0x09, 0x05, 0xce, 0x3c, 0x03, 0xb0, 0xf8, 0x3b,
  0x5a, 0xb9, 0xf5, 0xbc, 0xd0, 0xd1, 0x14, 0xbd, 0x9d, 0xca, 0xc3, 0xbc,
  0x9a, 0x95, 0x36, 0xbc, 0x30, 0xd5, 0xf8, 0x3b, 0xe1, 0x44, 0x05, 0xbd,
  0x22, 0x9f, 0xf9, 0x3c, 0x31, 0x21, 0x90, 0x3e, 0xae, 0x9f, 0xae, 0x3c,
  0x4a, 0x4e, 0x81, 0xbb, 0x7d, 0x81, 0xc7, 0x3c, 0x47, 0xbf, 0x25, 0x3d,
  0x61, 0x90, 0x32, 0x3d, 0x5f, 0xaf, 0x68, 0xbd, 0x86, 0x7f, 0x89, 0xbc,
  0x30, 0x19, 0xe2, 0x3b, 0xb0, 0x8b, 0xb9, 0xbb, 0x93, 0xf2, 0x4a, 0x3d,
  0x4c, 0x5a, 0x6c, 0x3d, 0x26, 0x6a, 0xcd, 0x3c, 0x00, 0x60, 0x6e, 0xb7,
  0x9b, 0x74, 0x21, 0x3d, 0x98, 0xfd, 0x88, 0x3d, 0x06, 0xe8, 0x60, 0xbe,
  0x68, 0xa3, 0x2d, 0xbc, 0xba, 0x4b, 0xf6, 0x3c, 0x21, 0x6a, 0x5d, 0x3d,
  0x66, 0x0c, 0x37, 0xbd, 0xb3, 0xb4, 0x87, 0x3d, 0x60, 0x10, 0xf5, 0x3a,
  0x8e, 0x1d, 0x3e, 0x3d, 0x31, 0x82, 0x85, 0x3d, 0xba, 0x71, 0xb2, 0xbc,
  0xe0, 0xa4, 0xd3, 0xbc, 0x27, 0xfa, 0x8f, 0x3c, 0x2a, 0xd2, 0x8f, 0x3d,
  0x7c, 0xae, 0x85, 0x3d, 0xbe, 0x90, 0xc0, 0x3d, 0x6a, 0x12, 0x25, 0xbd,
  0xe3, 0x3c, 0x7c, 0xbe, 0x71, 0xef, 0x08, 0x3d, 0x56, 0x24, 0x83, 0x3d,
  0x61, 0x2f, 0x64, 0x3d, 0x00, 0xc5, 0x3f, 0xbc, 0x33, 0x66, 0x2b, 0x3d,
  0x41, 0x37, 0x1e, 0x3d, 0x40, 0x05, 0xb7, 0xba, 0x9c, 0xb1, 0x7d, 0x3c,
  0xc0, 0x10, 0xfc, 0x3a, 0xd3, 0x2c, 0x25, 0xbd, 0x69, 0xbc, 0x58, 0xbd,
  0xc7, 0x75, 0xeb, 0xbc, 0xfa, 0x41, 0xd8, 0x3c, 0xe8, 0x36, 0x3c, 0xbc,
  0x54, 0x53, 0x6d, 0x3b, 0xd2, 0xf7, 0x0b, 0xbc, 0xe8, 0x39, 0x00, 0xbc,
  0x60, 0xb3, 0x1c, 0x3b, 0xd8, 0xf0, 0x09, 0x3b, 0xbd, 0xdc, 0x16, 0xbd,
  0xce, 0x5d, 0x35, 0x3b, 0xc6, 0xfd, 0xf9, 0x3c, 0x0a, 0x30, 0x38, 0xbd,
  0x1a, 0xd3, 0x14, 0xbd, 0x93, 0x1b, 0xcc, 0xbc, 0x18, 0x9f, 0x50, 0xbc,
  0x27, 0xb5, 0x45, 0xbd, 0x09, 0x69, 0x5f, 0xbc, 0xf2, 0xb8, 0xb1, 0xbc,
  0xc3, 0xe4, 0x93, 0x3c, 0xf4, 0xd6, 0x15, 0x3c, 0x31, 0xc2, 0xc4, 0x3c,
  0xe8, 0xf2, 0x44, 0x3c, 0x3d, 0x61, 0x6f, 0xbc, 0xfa, 0x18, 0x0f, 0x3d,
  0x3d, 0xcf, 0x2c, 0x3d, 0x60, 0xc9, 0xa2, 0xbc, 0xef, 0x43, 0x61, 0x3c,
  0xd0, 0x97, 0x65, 0xbb, 0xa9, 0x67, 0x30, 0x3d, 0xb7, 0xaa, 0x47, 0x3d,
  0x80, 0x4f, 0x4c, 0x3c, 0x83, 0x2c, 0x41, 0xbc, 0x92, 0x42, 0xa3, 0x3c,
  0xcc, 0xb0, 0x3a, 0x3c, 0xd1, 0x0a, 0x9c, 0xbc, 0x7e, 0xe1, 0x2b, 0x3c,
  0xf0, 0x2a, 0xbd, 0xbc, 0x00, 0xbe, 0x77, 0x3b, 0x8c, 0x32, 0x40, 0x3c,
  0xdc, 0x10, 0xd9, 0xbc, 0x3c, 0x2b, 0xb3, 0x3b, 0xe6, 0xc6, 0x05, 0x3d,
  0xf4, 0xd3, 0x61, 0x3c, 0x2a, 0xb0, 0xa5, 0xbc, 0x55, 0xe0, 0x2b, 0xbb,
  0xf7, 0xe1, 0x43, 0x3d, 0x5a, 0x6d, 0x01, 0xbd, 0x57, 0xb9, 0xe7, 0x3c,
  0x39, 0x49, 0xfd, 0xbc, 0x2d, 0xd9, 0xf9, 0xbc, 0x0f, 0x51, 0x76, 0x3c,
  0x9a, 0x60, 0xc2, 0x3c, 0x47, 0xbb, 0xde, 0x3c, 0xe0, 0x92, 0x02, 0xbd,
  0xed, 0xcc, 0x4a, 0xbd, 0xfa, 0x7f, 0xf9, 0x3c, 0x01, 0x98, 0x28, 0x3d,
  0x92, 0x7f, 0xc4, 0x3c, 0x84, 0x42, 0xd9, 0xbc, 0xd0, 0x43, 0x0f, 0x3b,
  0x13, 0x3d, 0x25, 0x3d, 0x5d, 0x71, 0x23, 0xbd, 0xb9, 0xfe, 0x19, 0x3d,
  0xb0, 0x48, 0x4d, 0x3d, 0x40, 0xbb, 0xd6, 0xba, 0x98, 0x86, 0xd5, 0x3b,
  0x1a, 0xb8, 0x06, 0xbd, 0xb8, 0x14, 0x7b, 0xbc, 0xa5, 0xf6, 0x19, 0x3f,
  0x7d, 0xed, 0x36, 0xbd, 0xf3, 0x11, 0xb7, 0xbc, 0xed, 0x52, 0xcc, 0xba,
  0x00, 0xf9, 0x2e, 0x3c, 0x6a, 0xc9, 0xb4, 0xbc, 0x4c, 0xed, 0x2f, 0x3c,
  0x68, 0x64, 0xe9, 0x3b, 0x64, 0xfd, 0xc1, 0xbb, 0x00, 0xfd, 0x52, 0x39,
  0xa8, 0xd2, 0x22, 0xbc, 0xd3, 0xf7, 0x65, 0x3c, 0x9e, 0x44, 0x70, 0xbd,
  0x8b, 0xcf, 0x92, 0x3a, 0xc7, 0x5e, 0x45, 0xbd, 0x80, 0x70, 0x15, 0x3c,
  0x27, 0x61, 0x14, 0x3f, 0xcd, 0xd1, 0x31, 0x3d, 0xde, 0x86, 0x25, 0x3d,
  0x46, 0x50, 0x1b, 0x3c, 0x03, 0x65, 0x30, 0xbd, 0xd3, 0x62, 0x29, 0xbd,
  0xf3, 0xf5, 0x80, 0x3c, 0x3a, 0xaf, 0xbf, 0xbc, 0x74, 0x27, 0x71, 0x3c,
  0x5e, 0xfd, 0xff, 0xff, 0x04, 0x00, 0x00, 0x00, 0x00, 0x02, 0x00, 0x00,
  0xb2, 0x20, 0x0d, 0x3d, 0xdc, 0x36, 0xe8, 0xbd, 0xb4, 0x70, 0x50, 0xbc,
  0x03, 0x69, 0x99, 0xbd, 0x5d, 0x3e, 0xa9, 0x3e, 0x6a, 0x15, 0xd8, 0x3c,
  0x9f, 0x1e, 0x52, 0xbc, 0x07, 0x72, 0x8e, 0x3e, 0xdb, 0xab, 0xcc, 0xbb,
  0x30, 0x3c, 0x97, 0xbd, 0xcc, 0x2d, 0x3c, 0x3c, 0x9d, 0x6e, 0x79, 0xbc,
  0x70, 0xaa, 0xfa, 0xbd, 0xd6, 0x5b, 0xc2, 0xbe, 0x6c, 0x5e, 0x4b, 0xbd,
  0x75, 0x96, 0x30, 0xbd, 0xd2, 0xcc, 0xdb, 0x3c, 0x9a, 0xd7, 0xee, 0x3c,
  0xb9, 0xfd, 0x8e, 0xbe, 0x74, 0x38, 0x96, 0xbd, 0x3d, 0x23, 0xf9, 0xbc,
  0x7f, 0xb6, 0x8b, 0x3e, 0x39, 0xc7, 0x98, 0x3b, 0x08, 0xf7, 0x18, 0x3d,
  0x26, 0x07, 0x2d, 0xbd, 0x60, 0xbe, 0x9a, 0xbc, 0x30, 0x9d, 0x64, 0xbc,
  0xc6, 0xf1, 0x98, 0x3e, 0x4a, 0x8a, 0x05, 0x3d, 0x69, 0x69, 0xa5, 0xbd,
  0xb1, 0x3c, 0xa8, 0x3e, 0x62, 0x01, 0x95, 0x3e, 0xfa, 0xa2, 0xf6, 0x3c,
  0x57, 0x00, 0xaa, 0x3e, 0x1b, 0xdb, 0x8b, 0x3e, 0xa4, 0xb4, 0x7d, 0x3c,
  0x3e, 0x60, 0xc1, 0xbe, 0x7c, 0xc8, 0xbf, 0xbd, 0x59, 0xd2, 0xa5, 0x3e,
  0x63, 0xc2, 0x03, 0x3d, 0x94, 0x72, 0xa5, 0x3b, 0xe0, 0x01, 0xba, 0xbc,
  0x2d, 0xf3, 0x7d, 0x3e, 0x67, 0x7a, 0x77, 0x3e, 0x06, 0xbc, 0x8d, 0x3b,
  0xb8, 0x48, 0x99, 0x3c, 0x45, 0x06, 0xf2, 0xbb, 0xdc, 0xcd, 0x89, 0xbc,
  0x60, 0x98, 0x98, 0xbd, 0xa2, 0xdf, 0xd4, 0xbd, 0x3d, 0x56, 0x83, 0x3e,
  0x5b, 0x3f, 0x96, 0x3e, 0x35, 0x5e, 0x0d, 0x3c, 0xd9, 0x5c, 0x18, 0x3c,
  0xe6, 0xb7, 0x59, 0x3e, 0x87, 0xc0, 0x45, 0xbc, 0xff, 0x12, 0xd1, 0xbd,
  0x3d, 0x9f, 0xd5, 0xbd, 0x4c, 0xd3, 0x7d, 0x3e, 0x1a, 0x53, 0x9c, 0x3c,
  0x02, 0xe5, 0x9c, 0xbd, 0xd1, 0x82, 0xae, 0xbc, 0x55, 0xd0, 0x0c, 0xbc,
  0x12, 0x78, 0xd3, 0x3d, 0x64, 0x83, 0x26, 0x3c, 0x57, 0x27, 0xd7, 0x3d,
  0xc3, 0xa7, 0x01, 0x3d, 0xfc, 0x13, 0xb4, 0x3d, 0xdd, 0xf1, 0xa3, 0xbe,
  0x13, 0xcb, 0xf4, 0x3c, 0xbe, 0xf3, 0x12, 0xbc, 0xd8, 0x35, 0x9c, 0xbe,
  0x4e, 0xa9, 0x8d, 0x3d, 0xd0, 0x80, 0x9f, 0x3d, 0xa8, 0x53, 0x6e, 0xbc,
  0x4a, 0x25, 0xc0, 0x3d, 0xd5, 0x7d, 0x26, 0x3d, 0xab, 0xb5, 0xba, 0x3e,
  0x73, 0x3d, 0xd8, 0x3d, 0xd2, 0xd6, 0xc2, 0x3d, 0x59, 0x56, 0x41, 0x3d,
  0xf4, 0x46, 0x23, 0xbc, 0x2f, 0x2b, 0x94, 0x3e, 0xad, 0xa0, 0xf3, 0x3d,
  0xa4, 0x87, 0x9b, 0x3d, 0x00, 0x49, 0x9d, 0xbe, 0xc9, 0x18, 0x85, 0x3c,
  0xa1, 0xef, 0xf4, 0xbc, 0x14, 0x71, 0x2a, 0x3c, 0x50, 0x2a, 0xb2, 0xbb,
  0x41, 0x77, 0x85, 0xbc, 0xd8, 0x38, 0xa1, 0xbe, 0x0d, 0xe0, 0xd0, 0x3c,
  0x6c, 0x5f, 0xac, 0x3d, 0x11, 0x52, 0xab, 0xbe, 0x54, 0x22, 0x9f, 0xbe,
  0xa3, 0x94, 0x43, 0xbd, 0x20, 0x6f, 0x81, 0xbe, 0x78, 0x4f, 0x91, 0xbe,
  0xed, 0x35, 0xa6, 0xbc, 0x0e, 0x20, 0xa9, 0x3e, 0x77, 0xc8, 0xd5, 0x3d,
  0x2c, 0x2b, 0xa2, 0xbe, 0xa0, 0xef, 0x48, 0xbb, 0x39, 0x17, 0xd6, 0x39,
  0xe7, 0x5b, 0x1d, 0x3d, 0xc0, 0x0a, 0x4b, 0xbe, 0x37, 0xd9, 0x88, 0xbe,
  0x32, 0x81, 0xd5, 0x3b, 0x49, 0xb9, 0x23, 0x3c, 0x0a, 0x49, 0x0f, 0xbd,
  0x95, 0xcd, 0xe4, 0x3d, 0x2f, 0x1d, 0xb0, 0x3d, 0xab, 0xd5, 0xa7, 0x3d,
  0x8a, 0x0a, 0x91, 0xbe, 0xbe, 0x1e, 0x9e, 0xbe, 0xf0, 0x2d, 0xa9, 0x3c,
  0xd4, 0xda, 0xc4, 0x3a, 0xfb, 0x5a, 0x99, 0xbe, 0x29, 0x43, 0xe8, 0xbb,
  0x4d, 0x6a, 0xbb, 0x3d, 0x32, 0x2f, 0x9b, 0x3d, 0x33, 0xdf, 0x96, 0xbe,
  0x67, 0xec, 0x2e, 0xbd, 0x94, 0x51, 0x8b, 0x3d, 0xf9, 0xd8, 0x8c, 0x3c,
  0x49, 0x50, 0x14, 0xba, 0xbe, 0x61, 0x11, 0xbd, 0x20, 0xfa, 0xff, 0xff,
  0x24, 0xfa, 0xff, 0xff, 0x0f, 0x00, 0x00, 0x00, 0x4d, 0x4c, 0x49, 0x52,
  0x20, 0x43, 0x6f, 0x6e, 0x76, 0x65, 0x72, 0x74, 0x65, 0x64, 0x2e, 0x00,
  0x01, 0x00, 0x00, 0x00, 0x14, 0x00, 0x00, 0x00, 0x00, 0x00, 0x0e, 0x00,
  0x18, 0x00, 0x14, 0x00, 0x10, 0x00, 0x0c, 0x00, 0x08, 0x00, 0x04, 0x00,
  0x0e, 0x00, 0x00, 0x00, 0x14, 0x00, 0x00, 0x00, 0x1c, 0x00, 0x00, 0x00,
  0x24, 0x01, 0x00, 0x00, 0x28, 0x01, 0x00, 0x00, 0x2c, 0x01, 0x00, 0x00,
  0x04, 0x00, 0x00, 0x00, 0x6d, 0x61, 0x69, 0x6e, 0x00, 0x00, 0x00, 0x00,
  0x04, 0x00, 0x00, 0x00, 0xcc, 0x00, 0x00, 0x00, 0x84, 0x00, 0x00, 0x00,
  0x50, 0x00, 0x00, 0x00, 0x14, 0x00, 0x00, 0x00, 0x00, 0x00, 0x0e, 0x00,
  0x1a, 0x00, 0x14, 0x00, 0x10, 0x00, 0x0c, 0x00, 0x0b, 0x00, 0x04, 0x00,
  0x0e, 0x00, 0x00, 0x00, 0x1c, 0x00, 0x00, 0x00, 0x00, 0x00, 0x00, 0x09,
  0x1c, 0x00, 0x00, 0x00, 0x20, 0x00, 0x00, 0x00, 0x01, 0x00, 0x00, 0x00,
  0x00, 0x00, 0x06, 0x00, 0x08, 0x00, 0x04, 0x00, 0x06, 0x00, 0x00, 0x00,
  0x00, 0x00, 0x80, 0x3f, 0x01, 0x00, 0x00, 0x00, 0x0a, 0x00, 0x00, 0x00,
  0x01, 0x00, 0x00, 0x00, 0x09, 0x00, 0x00, 0x00, 0x9a, 0xff, 0xff, 0xff,
  0x10, 0x00, 0x00, 0x00, 0x00, 0x00, 0x00, 0x08, 0x0c, 0x00, 0x00, 0x00,
  0x10, 0x00, 0x00, 0x00, 0xe8, 0xfa, 0xff, 0xff, 0x01, 0x00, 0x00, 0x00,
  0x09, 0x00, 0x00, 0x00, 0x03, 0x00, 0x00, 0x00, 0x08, 0x00, 0x00, 0x00,
  0x01, 0x00, 0x00, 0x00, 0x06, 0x00, 0x00, 0x00, 0xca, 0xff, 0xff, 0xff,
  0x10, 0x00, 0x00, 0x00, 0x00, 0x00, 0x00, 0x08, 0x10, 0x00, 0x00, 0x00,
  0x14, 0x00, 0x00, 0x00, 0xba, 0xff, 0xff, 0xff, 0x00, 0x00, 0x00, 0x01,
  0x01, 0x00, 0x00, 0x00, 0x08, 0x00, 0x00, 0x00, 0x03, 0x00, 0x00, 0x00,
  0x07, 0x00, 0x00, 0x00, 0x02, 0x00, 0x00, 0x00, 0x05, 0x00, 0x00, 0x00,
  0x00, 0x00, 0x0e, 0x00, 0x16, 0x00, 0x00, 0x00, 0x10, 0x00, 0x0c, 0x00,
  0x0b, 0x00, 0x04, 0x00, 0x0e, 0x00, 0x00, 0x00, 0x18, 0x00, 0x00, 0x00,
  0x00, 0x00, 0x00, 0x08, 0x18, 0x00, 0x00, 0x00, 0x1c, 0x00, 0x00, 0x00,
  0x00, 0x00, 0x06, 0x00, 0x08, 0x00, 0x07, 0x00, 0x06, 0x00, 0x00, 0x00,
  0x00, 0x00, 0x00, 0x01, 0x01, 0x00, 0x00, 0x00, 0x07, 0x00, 0x00, 0x00,
  0x03, 0x00, 0x00, 0x00, 0x00, 0x00, 0x00, 0x00, 0x04, 0x00, 0x00, 0x00,
  0x03, 0x00, 0x00, 0x00, 0x01, 0x00, 0x00, 0x00, 0x0a, 0x00, 0x00, 0x00,
  0x01, 0x00, 0x00, 0x00, 0x00, 0x00, 0x00, 0x00, 0x0b, 0x00, 0x00, 0x00,
  0x40, 0x04, 0x00, 0x00, 0xd8, 0x03, 0x00, 0x00, 0x70, 0x03, 0x00, 0x00,
  0x14, 0x03, 0x00, 0x00, 0xc4, 0x02, 0x00, 0x00, 0x68, 0x02, 0x00, 0x00,
  0x0c, 0x02, 0x00, 0x00, 0x74, 0x01, 0x00, 0x00, 0xdc, 0x00, 0x00, 0x00,
  0x60, 0x00, 0x00, 0x00, 0x04, 0x00, 0x00, 0x00, 0x02, 0xfc, 0xff, 0xff,
  0x00, 0x00, 0x00, 0x01, 0x14, 0x00, 0x00, 0x00, 0x1c, 0x00, 0x00, 0x00,
  0x1c, 0x00, 0x00, 0x00, 0x0b, 0x00, 0x00, 0x00, 0x34, 0x00, 0x00, 0x00,
  0x02, 0x00, 0x00, 0x00, 0xff, 0xff, 0xff, 0xff, 0x02, 0x00, 0x00, 0x00,
  0xec, 0xfb, 0xff, 0xff, 0x19, 0x00, 0x00, 0x00, 0x53, 0x74, 0x61, 0x74,
  0x65, 0x66, 0x75, 0x6c, 0x50, 0x61, 0x72, 0x74, 0x69, 0x74, 0x69, 0x6f,
  0x6e, 0x65, 0x64, 0x43, 0x61, 0x6c, 0x6c, 0x3a, 0x30, 0x00, 0x00, 0x00,
  0x02, 0x00, 0x00, 0x00, 0x01, 0x00, 0x00, 0x00, 0x02, 0x00, 0x00, 0x00,
  0x5a, 0xfc, 0xff, 0xff, 0x00, 0x00, 0x00, 0x01, 0x14, 0x00, 0x00, 0x00,
  0x1c, 0x00, 0x00, 0x00, 0x1c, 0x00, 0x00, 0x00, 0x0a, 0x00, 0x00, 0x00,
  0x54, 0x00, 0x00, 0x00, 0x02, 0x00, 0x00, 0x00, 0xff, 0xff, 0xff, 0xff,
  0x02, 0x00, 0x00, 0x00, 0x44, 0xfc, 0xff, 0xff, 0x3a, 0x00, 0x00, 0x00,
  0x73, 0x65, 0x71, 0x75, 0x65, 0x6e, 0x74, 0x69, 0x61, 0x6c, 0x5f, 0x33,
  0x2f, 0x64, 0x65, 0x6e, 0x73, 0x65, 0x5f, 0x31, 0x34, 0x2f, 0x4d, 0x61,
  0x74, 0x4d, 0x75, 0x6c, 0x3b, 0x73, 0x65, 0x71, 0x75, 0x65, 0x6e, 0x74,
  0x69, 0x61, 0x6c, 0x5f, 0x33, 0x2f, 0x64, 0x65, 0x6e, 0x73, 0x65, 0x5f,
  0x31, 0x34, 0x2f, 0x42, 0x69, 0x61, 0x73, 0x41, 0x64, 0x64, 0x00, 0x00,
  0x02, 0x00, 0x00, 0x00, 0x01, 0x00, 0x00, 0x00, 0x02, 0x00, 0x00, 0x00,
  0xd2, 0xfc, 0xff, 0xff, 0x00, 0x00, 0x00, 0x01, 0x14, 0x00, 0x00, 0x00,
  0x1c, 0x00, 0x00, 0x00, 0x1c, 0x00, 0x00, 0x00, 0x09, 0x00, 0x00, 0x00,
  0x70, 0x00, 0x00, 0x00, 0x02, 0x00, 0x00, 0x00, 0xff, 0xff, 0xff, 0xff,
  0x40, 0x00, 0x00, 0x00, 0xbc, 0xfc, 0xff, 0xff, 0x55, 0x00, 0x00, 0x00,
  0x73, 0x65, 0x71, 0x75, 0x65, 0x6e, 0x74, 0x69, 0x61, 0x6c, 0x5f, 0x33,
  0x2f, 0x64, 0x65, 0x6e, 0x73, 0x65, 0x5f, 0x31, 0x33, 0x2f, 0x4d, 0x61,
  0x74, 0x4d, 0x75, 0x6c, 0x3b, 0x73, 0x65, 0x71, 0x75, 0x65, 0x6e, 0x74,
  0x69, 0x61, 0x6c, 0x5f, 0x33, 0x2f, 0x64, 0x65, 0x6e, 0x73, 0x65, 0x5f,
  0x31, 0x33, 0x2f, 0x52, 0x65, 0x6c, 0x75, 0x3b, 0x73, 0x65, 0x71, 0x75,
  0x65, 0x6e, 0x74, 0x69, 0x61, 0x6c, 0x5f, 0x33, 0x2f, 0x64, 0x65, 0x6e,
  0x73, 0x65, 0x5f, 0x31, 0x33, 0x2f, 0x42, 0x69, 0x61, 0x73, 0x41, 0x64,
  0x64, 0x00, 0x00, 0x00, 0x02, 0x00, 0x00, 0x00, 0x01, 0x00, 0x00, 0x00,
  0x40, 0x00, 0x00, 0x00, 0x66, 0xfd, 0xff, 0xff, 0x00, 0x00, 0x00, 0x01,
  0x14, 0x00, 0x00, 0x00, 0x1c, 0x00, 0x00, 0x00, 0x1c, 0x00, 0x00, 0x00,
  0x08, 0x00, 0x00, 0x00, 0x70, 0x00, 0x00, 0x00, 0x02, 0x00, 0x00, 0x00,
  0xff, 0xff, 0xff, 0xff, 0x20, 0x00, 0x00, 0x00, 0x50, 0xfd, 0xff, 0xff,
  0x55, 0x00, 0x00, 0x00, 0x73, 0x65, 0x71, 0x75, 0x65, 0x6e, 0x74, 0x69,
  0x61, 0x6c, 0x5f, 0x33, 0x2f, 0x64, 0x65, 0x6e, 0x73, 0x65, 0x5f, 0x31,
  0x32, 0x2f, 0x4d, 0x61, 0x74, 0x4d, 0x75, 0x6c, 0x3b, 0x73, 0x65, 0x71,
  0x75, 0x65, 0x6e, 0x74, 0x69, 0x61, 0x6c, 0x5f, 0x33, 0x2f, 0x64, 0x65,
  0x6e, 0x73, 0x65, 0x5f, 0x31, 0x32, 0x2f, 0x52, 0x65, 0x6c, 0x75, 0x3b,
  0x73, 0x65, 0x71, 0x75, 0x65, 0x6e, 0x74, 0x69, 0x61, 0x6c, 0x5f, 0x33,
  0x2f, 0x64, 0x65, 0x6e, 0x73, 0x65, 0x5f, 0x31, 0x32, 0x2f, 0x42, 0x69,
  0x61, 0x73, 0x41, 0x64, 0x64, 0x00, 0x00, 0x00, 0x02, 0x00, 0x00, 0x00,
  0x01, 0x00, 0x00, 0x00, 0x20, 0x00, 0x00, 0x00, 0x5e, 0xfe, 0xff, 0xff,
  0x00, 0x00, 0x00, 0x01, 0x10, 0x00, 0x00, 0x00, 0x10, 0x00, 0x00, 0x00,
  0x07, 0x00, 0x00, 0x00, 0x3c, 0x00, 0x00, 0x00, 0xd4, 0xfd, 0xff, 0xff,
  0x2c, 0x00, 0x00, 0x00, 0x73, 0x65, 0x71, 0x75, 0x65, 0x6e, 0x74, 0x69,
  0x61, 0x6c, 0x5f, 0x33, 0x2f, 0x64, 0x65, 0x6e, 0x73, 0x65, 0x5f, 0x31,
  0x34, 0x2f, 0x42, 0x69, 0x61, 0x73, 0x41, 0x64, 0x64, 0x2f, 0x52, 0x65,
  0x61, 0x64, 0x56, 0x61, 0x72, 0x69, 0x61, 0x62, 0x6c, 0x65, 0x4f, 0x70,
  0x00, 0x00, 0x00, 0x00, 0x01, 0x00, 0x00, 0x00, 0x02, 0x00, 0x00, 0x00,
  0xb6, 0xfe, 0xff, 0xff, 0x00, 0x00, 0x00, 0x01, 0x10, 0x00, 0x00, 0x00,
  0x10, 0x00, 0x00, 0x00, 0x06, 0x00, 0x00, 0x00, 0x3c, 0x00, 0x00, 0x00,
  0x2c, 0xfe, 0xff, 0xff, 0x2c, 0x00, 0x00, 0x00, 0x73, 0x65, 0x71, 0x75,
  0x65, 0x6e, 0x74, 0x69, 0x61, 0x6c, 0x5f, 0x33, 0x2f, 0x64, 0x65, 0x6e,
  0x73, 0x65, 0x5f, 0x31, 0x33, 0x2f, 0x42, 0x69, 0x61, 0x73, 0x41, 0x64,
  0x64, 0x2f, 0x52, 0x65, 0x61, 0x64, 0x56, 0x61, 0x72, 0x69, 0x61, 0x62,
  0x6c, 0x65, 0x4f, 0x70, 0x00, 0x00, 0x00, 0x00, 0x01, 0x00, 0x00, 0x00,
  0x40, 0x00, 0x00, 0x00, 0x0e, 0xff, 0xff, 0xff, 0x00, 0x00, 0x00, 0x01,
  0x10, 0x00, 0x00, 0x00, 0x10, 0x00, 0x00, 0x00, 0x05, 0x00, 0x00, 0x00,
  0x2c, 0x00, 0x00, 0x00, 0x84, 0xfe, 0xff, 0xff, 0x1c, 0x00, 0x00, 0x00,
  0x73, 0x65, 0x71, 0x75, 0x65, 0x6e, 0x74, 0x69, 0x61, 0x6c, 0x5f, 0x33,
  0x2f, 0x64, 0x65, 0x6e, 0x73, 0x65, 0x5f, 0x31, 0x32, 0x2f, 0x4d, 0x61,
  0x74, 0x4d, 0x75, 0x6c, 0x00, 0x00, 0x00, 0x00, 0x02, 0x00, 0x00, 0x00,
  0x20, 0x00, 0x00, 0x00, 0x05, 0x00, 0x00, 0x00, 0x5a, 0xff, 0xff, 0xff,
  0x00, 0x00, 0x00, 0x01, 0x10, 0x00, 0x00, 0x00, 0x10, 0x00, 0x00, 0x00,
  0x04, 0x00, 0x00, 0x00, 0x3c, 0x00, 0x00, 0x00, 0xd0, 0xfe, 0xff, 0xff,
  0x2c, 0x00, 0x00, 0x00, 0x73, 0x65, 0x71, 0x75, 0x65, 0x6e, 0x74, 0x69,
  0x61, 0x6c, 0x5f, 0x33, 0x2f, 0x64, 0x65, 0x6e, 0x73, 0x65, 0x5f, 0x31,
  0x32, 0x2f, 0x42, 0x69, 0x61, 0x73, 0x41, 0x64, 0x64, 0x2f, 0x52, 0x65,
  0x61, 0x64, 0x56, 0x61, 0x72, 0x69, 0x61, 0x62, 0x6c, 0x65, 0x4f, 0x70,
  0x00, 0x00, 0x00, 0x00, 0x01, 0x00, 0x00, 0x00, 0x20, 0x00, 0x00, 0x00,
  0xb2, 0xff, 0xff, 0xff, 0x00, 0x00, 0x00, 0x01, 0x10, 0x00, 0x00, 0x00,
  0x10, 0x00, 0x00, 0x00, 0x03, 0x00, 0x00, 0x00, 0x2c, 0x00, 0x00, 0x00,
  0x28, 0xff, 0xff, 0xff, 0x1c, 0x00, 0x00, 0x00, 0x73, 0x65, 0x71, 0x75,
  0x65, 0x6e, 0x74, 0x69, 0x61, 0x6c, 0x5f, 0x33, 0x2f, 0x64, 0x65, 0x6e,
  0x73, 0x65, 0x5f, 0x31, 0x33, 0x2f, 0x4d, 0x61, 0x74, 0x4d, 0x75, 0x6c,
  0x00, 0x00, 0x00, 0x00, 0x02, 0x00, 0x00, 0x00, 0x40, 0x00, 0x00, 0x00,
  0x20, 0x00, 0x00, 0x00, 0x00, 0x00, 0x16, 0x00, 0x18, 0x00, 0x14, 0x00,
  0x00, 0x00, 0x10, 0x00, 0x0c, 0x00, 0x08, 0x00, 0x00, 0x00, 0x00, 0x00,
  0x00, 0x00, 0x07, 0x00, 0x16, 0x00, 0x00, 0x00, 0x00, 0x00, 0x00, 0x01,
  0x10, 0x00, 0x00, 0x00, 0x10, 0x00, 0x00, 0x00, 0x02, 0x00, 0x00, 0x00,
  0x2c, 0x00, 0x00, 0x00, 0x8c, 0xff, 0xff, 0xff, 0x1c, 0x00, 0x00, 0x00,
  0x73, 0x65, 0x71, 0x75, 0x65, 0x6e, 0x74, 0x69, 0x61, 0x6c, 0x5f, 0x33,
  0x2f, 0x64, 0x65, 0x6e, 0x73, 0x65, 0x5f, 0x31, 0x34, 0x2f, 0x4d, 0x61,
  0x74, 0x4d, 0x75, 0x6c, 0x00, 0x00, 0x00, 0x00, 0x02, 0x00, 0x00, 0x00,
  0x02, 0x00, 0x00, 0x00, 0x40, 0x00, 0x00, 0x00, 0x00, 0x00, 0x16, 0x00,
  0x1c, 0x00, 0x18, 0x00, 0x00, 0x00, 0x14, 0x00, 0x10, 0x00, 0x0c, 0x00,
  0x00, 0x00, 0x00, 0x00, 0x08, 0x00, 0x07, 0x00, 0x16, 0x00, 0x00, 0x00,
  0x00, 0x00, 0x00, 0x01, 0x14, 0x00, 0x00, 0x00, 0x20, 0x00, 0x00, 0x00,
  0x20, 0x00, 0x00, 0x00, 0x01, 0x00, 0x00, 0x00, 0x40, 0x00, 0x00, 0x00,
  0x02, 0x00, 0x00, 0x00, 0xff, 0xff, 0xff, 0xff, 0x05, 0x00, 0x00, 0x00,
  0x04, 0x00, 0x04, 0x00, 0x04, 0x00, 0x00, 0x00, 0x20, 0x00, 0x00, 0x00,
  0x73, 0x65, 0x72, 0x76, 0x69, 0x6e, 0x67, 0x5f, 0x64, 0x65, 0x66, 0x61,
  0x75, 0x6c, 0x74, 0x5f, 0x64, 0x65, 0x6e, 0x73, 0x65, 0x5f, 0x31, 0x32,
  0x5f, 0x69, 0x6e, 0x70, 0x75, 0x74, 0x3a, 0x30, 0x00, 0x00, 0x00, 0x00,
  0x02, 0x00, 0x00, 0x00, 0x01, 0x00, 0x00, 0x00, 0x05, 0x00, 0x00, 0x00,
  0x02, 0x00, 0x00, 0x00, 0x20, 0x00, 0x00, 0x00, 0x04, 0x00, 0x00, 0x00,
  0xf4, 0xff, 0xff, 0xff, 0x19, 0x00, 0x00, 0x00, 0x00, 0x00, 0x00, 0x19,
  0x0c, 0x00, 0x0c, 0x00, 0x0b, 0x00, 0x00, 0x00, 0x00, 0x00, 0x04, 0x00,
  0x0c, 0x00, 0x00, 0x00, 0x09, 0x00, 0x00, 0x00, 0x00, 0x00, 0x00, 0x09
};
unsigned int FFT_model_quantized_tflite_len = 11904;
