/* Copyright 2019 The TensorFlow Authors. All Rights Reserved.

Licensed under the Apache License, Version 2.0 (the "License");
you may not use this file except in compliance with the License.
You may obtain a copy of the License at

    http://www.apache.org/licenses/LICENSE-2.0

Unless required by applicable law or agreed to in writing, software
distributed under the License is distributed on an "AS IS" BASIS,
WITHOUT WARRANTIES OR CONDITIONS OF ANY KIND, either express or implied.
See the License for the specific language governing permissions and
limitations under the License.
==============================================================================*/

// Automatically created from a TensorFlow Lite flatbuffer using the command:
// xxd -i sine_model.tflite > sine_model_data.cc
// See the README for a full description of the creation process.

#include "multi_model_data.h"

// We need to keep the data array aligned on some architectures.
#ifdef __has_attribute
#define HAVE_ATTRIBUTE(x) __has_attribute(x)
#else
#define HAVE_ATTRIBUTE(x) 0
#endif
#if HAVE_ATTRIBUTE(aligned) || (defined(__GNUC__) && !defined(__clang__))
#define DATA_ALIGN_ATTRIBUTE __attribute__((aligned(4)))
#else
#define DATA_ALIGN_ATTRIBUTE
#endif

const unsigned char g_multi_model_data[] DATA_ALIGN_ATTRIBUTE = {
    0x1c, 0x00, 0x00, 0x00, 0x54, 0x46, 0x4c, 0x33, 0x14, 0x00, 0x20, 0x00,
  0x1c, 0x00, 0x18, 0x00, 0x14, 0x00, 0x10, 0x00, 0x0c, 0x00, 0x00, 0x00,
  0x08, 0x00, 0x04, 0x00, 0x14, 0x00, 0x00, 0x00, 0x1c, 0x00, 0x00, 0x00,
  0x98, 0x00, 0x00, 0x00, 0xf0, 0x00, 0x00, 0x00, 0x4c, 0x07, 0x00, 0x00,
  0x5c, 0x07, 0x00, 0x00, 0x98, 0x0c, 0x00, 0x00, 0x03, 0x00, 0x00, 0x00,
  0x01, 0x00, 0x00, 0x00, 0x10, 0x00, 0x00, 0x00, 0x00, 0x00, 0x0a, 0x00,
  0x10, 0x00, 0x0c, 0x00, 0x08, 0x00, 0x04, 0x00, 0x0a, 0x00, 0x00, 0x00,
  0x0c, 0x00, 0x00, 0x00, 0x1c, 0x00, 0x00, 0x00, 0x3c, 0x00, 0x00, 0x00,
  0x0f, 0x00, 0x00, 0x00, 0x73, 0x65, 0x72, 0x76, 0x69, 0x6e, 0x67, 0x5f,
  0x64, 0x65, 0x66, 0x61, 0x75, 0x6c, 0x74, 0x00, 0x01, 0x00, 0x00, 0x00,
  0x04, 0x00, 0x00, 0x00, 0x90, 0xff, 0xff, 0xff, 0x09, 0x00, 0x00, 0x00,
  0x04, 0x00, 0x00, 0x00, 0x08, 0x00, 0x00, 0x00, 0x64, 0x65, 0x6e, 0x73,
  0x65, 0x5f, 0x35, 0x33, 0x00, 0x00, 0x00, 0x00, 0x01, 0x00, 0x00, 0x00,
  0x04, 0x00, 0x00, 0x00, 0x46, 0xf9, 0xff, 0xff, 0x04, 0x00, 0x00, 0x00,
  0x0e, 0x00, 0x00, 0x00, 0x64, 0x65, 0x6e, 0x73, 0x65, 0x5f, 0x35, 0x31,
  0x5f, 0x69, 0x6e, 0x70, 0x75, 0x74, 0x00, 0x00, 0x02, 0x00, 0x00, 0x00,
  0x34, 0x00, 0x00, 0x00, 0x04, 0x00, 0x00, 0x00, 0xdc, 0xff, 0xff, 0xff,
  0x0c, 0x00, 0x00, 0x00, 0x04, 0x00, 0x00, 0x00, 0x13, 0x00, 0x00, 0x00,
  0x43, 0x4f, 0x4e, 0x56, 0x45, 0x52, 0x53, 0x49, 0x4f, 0x4e, 0x5f, 0x4d,
  0x45, 0x54, 0x41, 0x44, 0x41, 0x54, 0x41, 0x00, 0x08, 0x00, 0x0c, 0x00,
  0x08, 0x00, 0x04, 0x00, 0x08, 0x00, 0x00, 0x00, 0x0b, 0x00, 0x00, 0x00,
  0x04, 0x00, 0x00, 0x00, 0x13, 0x00, 0x00, 0x00, 0x6d, 0x69, 0x6e, 0x5f,
  0x72, 0x75, 0x6e, 0x74, 0x69, 0x6d, 0x65, 0x5f, 0x76, 0x65, 0x72, 0x73,
  0x69, 0x6f, 0x6e, 0x00, 0x0d, 0x00, 0x00, 0x00, 0x58, 0x06, 0x00, 0x00,
  0x50, 0x06, 0x00, 0x00, 0x3c, 0x06, 0x00, 0x00, 0xe4, 0x05, 0x00, 0x00,
  0x94, 0x05, 0x00, 0x00, 0x04, 0x05, 0x00, 0x00, 0xf4, 0x00, 0x00, 0x00,
  0xa4, 0x00, 0x00, 0x00, 0x9c, 0x00, 0x00, 0x00, 0x94, 0x00, 0x00, 0x00,
  0x8c, 0x00, 0x00, 0x00, 0x6c, 0x00, 0x00, 0x00, 0x04, 0x00, 0x00, 0x00,
  0xf6, 0xf9, 0xff, 0xff, 0x04, 0x00, 0x00, 0x00, 0x58, 0x00, 0x00, 0x00,
  0x0c, 0x00, 0x00, 0x00, 0x08, 0x00, 0x0e, 0x00, 0x08, 0x00, 0x04, 0x00,
  0x08, 0x00, 0x00, 0x00, 0x10, 0x00, 0x00, 0x00, 0x28, 0x00, 0x00, 0x00,
  0x00, 0x00, 0x06, 0x00, 0x08, 0x00, 0x04, 0x00, 0x06, 0x00, 0x00, 0x00,
  0x04, 0x00, 0x00, 0x00, 0x01, 0x00, 0x00, 0x00, 0xea, 0x03, 0x00, 0x00,
  0x00, 0x00, 0x0a, 0x00, 0x10, 0x00, 0x0c, 0x00, 0x08, 0x00, 0x04, 0x00,
  0x0a, 0x00, 0x00, 0x00, 0x02, 0x00, 0x00, 0x00, 0x02, 0x00, 0x00, 0x00,
  0x04, 0x00, 0x00, 0x00, 0x06, 0x00, 0x00, 0x00, 0x32, 0x2e, 0x31, 0x33,
  0x2e, 0x30, 0x00, 0x00, 0x5a, 0xfa, 0xff, 0xff, 0x04, 0x00, 0x00, 0x00,
  0x10, 0x00, 0x00, 0x00, 0x31, 0x2e, 0x35, 0x2e, 0x30, 0x00, 0x00, 0x00,
  0x00, 0x00, 0x00, 0x00, 0x00, 0x00, 0x00, 0x00, 0x40, 0xf5, 0xff, 0xff,
  0x44, 0xf5, 0xff, 0xff, 0x48, 0xf5, 0xff, 0xff, 0x82, 0xfa, 0xff, 0xff,
  0x04, 0x00, 0x00, 0x00, 0x40, 0x00, 0x00, 0x00, 0x2f, 0x72, 0x6a, 0x3e,
  0xf2, 0x94, 0x00, 0xbf, 0xb3, 0x64, 0xd5, 0x3e, 0xf6, 0xbf, 0x1b, 0x3b,
  0x2d, 0x33, 0xa2, 0xbe, 0xf0, 0x01, 0xb8, 0x3e, 0xe4, 0xa0, 0x0e, 0xbf,
  0xb4, 0xd6, 0x0f, 0x3f, 0x82, 0x7f, 0x0b, 0xbf, 0x6f, 0x55, 0x2d, 0x3f,
  0xf6, 0x56, 0x16, 0x3f, 0x04, 0x70, 0x88, 0xbd, 0xf8, 0x85, 0x8e, 0xbe,
  0x1b, 0xec, 0xeb, 0x3e, 0x28, 0x86, 0x1b, 0x3f, 0x62, 0x8d, 0x16, 0xbf,
  0xce, 0xfa, 0xff, 0xff, 0x04, 0x00, 0x00, 0x00, 0x00, 0x04, 0x00, 0x00,
  0x51, 0x90, 0xaa, 0x3c, 0xe6, 0x5a, 0x3d, 0x3e, 0x27, 0xcb, 0xcd, 0x3e,
  0x75, 0x8f, 0x11, 0x3e, 0x08, 0xaa, 0x20, 0x3d, 0xb4, 0x9f, 0x9b, 0x3e,
  0x09, 0x2e, 0x81, 0x3e, 0x7f, 0x73, 0x34, 0x3d, 0x94, 0x1b, 0x1e, 0x3e,
  0x4d, 0xa4, 0x9f, 0x3e, 0x22, 0xbe, 0x14, 0xbe, 0x90, 0xed, 0x90, 0xbd,
  0xfa, 0x97, 0x80, 0x3e, 0xf7, 0x92, 0x30, 0x3e, 0x0d, 0x24, 0x8a, 0x3e,
  0xea, 0x11, 0x7b, 0x3e, 0x8e, 0x8c, 0x18, 0xbe, 0x60, 0x3a, 0x5a, 0xbc,
  0xf2, 0xa0, 0x80, 0x3e, 0x68, 0x24, 0x78, 0xbe, 0xdd, 0xae, 0xaa, 0xbe,
  0xac, 0x4f, 0x17, 0xbe, 0x15, 0xd3, 0xeb, 0xbd, 0x2a, 0x29, 0xbb, 0xbe,
  0x9b, 0x36, 0xe3, 0xbe, 0xc8, 0xcd, 0xa8, 0x3e, 0x74, 0xdc, 0xd5, 0x3d,
  0x3c, 0x4a, 0xf6, 0x3d, 0x54, 0xfe, 0xb6, 0xbe, 0xe9, 0x49, 0x3d, 0x3e,
  0xb7, 0xb7, 0xb7, 0xbe, 0x6c, 0x91, 0x74, 0x3e, 0xbc, 0xda, 0x99, 0x3d,
  0x82, 0x90, 0x5f, 0x3e, 0x84, 0xad, 0x8d, 0xbc, 0xce, 0x0a, 0x82, 0x3e,
  0x76, 0x71, 0x7e, 0xbe, 0x42, 0xf5, 0x2b, 0x3d, 0x2c, 0x63, 0x87, 0xbe,
  0x8e, 0x92, 0x87, 0x3e, 0x61, 0x36, 0x25, 0x3e, 0xb1, 0xdf, 0x85, 0xbe,
  0x84, 0xb2, 0xea, 0xbd, 0xa7, 0xec, 0x93, 0x3e, 0xaa, 0x13, 0x72, 0x3e,
  0x38, 0x00, 0x90, 0x3d, 0x15, 0xa8, 0x88, 0x3e, 0x65, 0x9b, 0x14, 0x3e,
  0x6d, 0x8f, 0x05, 0xbf, 0x24, 0x7a, 0xc9, 0xbd, 0x5d, 0xe3, 0xda, 0xbd,
  0xda, 0x80, 0xac, 0x3c, 0x18, 0x42, 0x0c, 0xbf, 0x44, 0xaf, 0x01, 0x3e,
  0x34, 0xf2, 0x21, 0x3e, 0xf9, 0x9a, 0xf8, 0xbd, 0x0a, 0x0b, 0x13, 0x3e,
  0xf6, 0xf7, 0x53, 0xbd, 0x6d, 0x1a, 0xca, 0x3e, 0xa8, 0x74, 0x03, 0x3d,
  0x5e, 0x98, 0xc1, 0x3d, 0x44, 0x3f, 0x10, 0x3e, 0xec, 0xac, 0x95, 0x3d,
  0xa2, 0x3a, 0x37, 0xbe, 0x3c, 0x93, 0x0c, 0x3e, 0x40, 0x4b, 0x05, 0x3d,
  0xb9, 0x45, 0xaa, 0x3d, 0x1a, 0x60, 0x2b, 0x3e, 0x8b, 0x6e, 0x2b, 0xbe,
  0x27, 0x4a, 0xe7, 0x3e, 0xf1, 0x2e, 0xbb, 0x3d, 0x2f, 0xc3, 0xea, 0x3e,
  0x65, 0xbf, 0x4c, 0xbd, 0x85, 0x14, 0xe3, 0xbe, 0x38, 0x80, 0x08, 0xbd,
  0xe8, 0x84, 0x86, 0xbe, 0xb0, 0x21, 0x0c, 0xbe, 0x14, 0xe5, 0x60, 0x3e,
  0x4e, 0x66, 0x36, 0x3e, 0xdc, 0x8d, 0x07, 0xbe, 0xaa, 0x41, 0x08, 0x3f,
  0x51, 0x8e, 0xb6, 0x3e, 0x01, 0x8f, 0x9b, 0xbe, 0x4b, 0x5b, 0x30, 0x3e,
  0x15, 0xf9, 0xa2, 0xbd, 0xda, 0x69, 0x2c, 0xbe, 0x5c, 0x8d, 0xfc, 0x3e,
  0xe0, 0x13, 0x9c, 0x3e, 0xd3, 0xe0, 0x87, 0x3e, 0x59, 0x1c, 0x7f, 0xbe,
  0x58, 0x75, 0xd1, 0xbe, 0x80, 0x71, 0x19, 0xbd, 0x4b, 0xed, 0x5a, 0x3e,
  0x46, 0x42, 0xe6, 0x3e, 0xd3, 0x20, 0x96, 0x3e, 0xb2, 0xf7, 0x80, 0xbd,
  0xe3, 0xee, 0xa8, 0xbe, 0xd4, 0x0f, 0xda, 0xbd, 0x34, 0x35, 0x45, 0x3d,
  0xf6, 0x42, 0x8d, 0x3e, 0xae, 0xbf, 0x28, 0x3e, 0x70, 0xb7, 0x47, 0x3e,
  0xb9, 0x68, 0xf4, 0xbe, 0x91, 0xe5, 0xe1, 0x3e, 0x03, 0xc9, 0x80, 0x3d,
  0xe4, 0x27, 0x19, 0xbf, 0x7c, 0x69, 0x95, 0xbe, 0x2e, 0x0b, 0x40, 0xbe,
  0x97, 0x8d, 0xe7, 0x3c, 0x71, 0x63, 0xdf, 0x3c, 0xdf, 0x1f, 0xb1, 0x3e,
  0xa2, 0x0d, 0xb0, 0xbe, 0x2a, 0x1d, 0x61, 0xbe, 0xc7, 0xcf, 0xa1, 0x3e,
  0x2f, 0x60, 0xf3, 0xbd, 0xea, 0x1f, 0xbc, 0x3e, 0x9e, 0x1a, 0x52, 0x3e,
  0x68, 0xe0, 0x8d, 0x3e, 0x08, 0xd6, 0x69, 0x3e, 0x28, 0xf5, 0x4a, 0xbe,
  0x3a, 0x29, 0xa5, 0xbe, 0xc0, 0x2b, 0xd1, 0x3d, 0x63, 0x42, 0xc7, 0x3e,
  0xde, 0xe9, 0x76, 0x3e, 0x73, 0xbb, 0xbb, 0xbd, 0x21, 0xdc, 0xbf, 0x3e,
  0x14, 0x78, 0xc2, 0xbe, 0x0a, 0x54, 0x92, 0x3d, 0x00, 0x84, 0xdf, 0x3c,
  0x6c, 0x97, 0xfd, 0x3d, 0xe4, 0x54, 0x8a, 0xbe, 0xe8, 0xb5, 0x17, 0xbe,
  0x80, 0x52, 0x13, 0x3c, 0x80, 0x7a, 0x2b, 0x3d, 0xde, 0x6b, 0xa2, 0xbe,
  0xf9, 0x3f, 0xc1, 0x3e, 0x23, 0x7a, 0x9e, 0xbe, 0x2c, 0xd7, 0xa4, 0xbe,
  0x16, 0x81, 0x4e, 0x3e, 0xec, 0xd0, 0xc1, 0x3d, 0xbb, 0x17, 0xb4, 0x3e,
  0x04, 0x44, 0x0b, 0xbe, 0x59, 0x78, 0xaa, 0x3e, 0xab, 0x3c, 0x80, 0x3e,
  0x63, 0x5c, 0xee, 0x3e, 0xba, 0xbe, 0x99, 0xbe, 0x9c, 0x5c, 0x53, 0x3d,
  0xc0, 0xfb, 0x3b, 0x3e, 0xb8, 0x76, 0xdc, 0x3d, 0x0d, 0xe8, 0x8f, 0x3e,
  0x85, 0x59, 0x17, 0xbe, 0x06, 0xe6, 0x96, 0x3e, 0x9f, 0xa2, 0x31, 0x3e,
  0xe8, 0xcd, 0x20, 0x3e, 0x6c, 0x47, 0x94, 0xbe, 0x5e, 0x45, 0x61, 0x3e,
  0xc3, 0xc9, 0x9c, 0xbe, 0x45, 0xf1, 0xfd, 0x3e, 0x73, 0x41, 0x8b, 0x3e,
  0x1a, 0x80, 0x2c, 0x3c, 0x49, 0x7a, 0x07, 0x3f, 0xd0, 0x94, 0xeb, 0xbd,
  0xae, 0x09, 0xb1, 0x3e, 0x3c, 0xc4, 0x22, 0x3e, 0xa3, 0x53, 0xbb, 0xbe,
  0xcb, 0xd7, 0x25, 0x3e, 0x68, 0x00, 0x77, 0xbe, 0x0b, 0x74, 0xc2, 0x3d,
  0xfc, 0xf9, 0x03, 0x3e, 0x4c, 0xf0, 0xa2, 0x3e, 0x80, 0xd0, 0xca, 0xbd,
  0xe0, 0x15, 0xbf, 0xbe, 0x26, 0x97, 0xd7, 0x3e, 0x77, 0x0d, 0x26, 0x3d,
  0x59, 0x39, 0xab, 0x3e, 0x2b, 0x0e, 0x7e, 0xbe, 0x48, 0x9b, 0x11, 0xbf,
  0xde, 0xf5, 0x9b, 0xbe, 0x98, 0xb1, 0x94, 0x3e, 0xea, 0xc5, 0xa1, 0x3e,
  0x70, 0x07, 0xe4, 0xbd, 0x43, 0x86, 0x8c, 0xbe, 0x4b, 0xa3, 0x09, 0xbf,
  0x93, 0xe3, 0xcb, 0x3c, 0xc2, 0xb0, 0x90, 0xbe, 0x20, 0x62, 0xda, 0xbe,
  0xd0, 0x91, 0x66, 0xbd, 0x7c, 0xf5, 0xe5, 0xbd, 0x1c, 0x1a, 0xaf, 0x3e,
  0xd9, 0xb7, 0x5c, 0xbe, 0xaa, 0x8a, 0xdd, 0xbe, 0x9c, 0xfb, 0xab, 0x3e,
  0x20, 0x81, 0xa4, 0xbe, 0x44, 0x7c, 0xc7, 0x3d, 0x36, 0xb7, 0x58, 0x3e,
  0x95, 0x97, 0x91, 0xbe, 0x00, 0x7c, 0x4a, 0x3c, 0xd8, 0x16, 0x87, 0xbe,
  0xf4, 0x4a, 0x90, 0x3d, 0xdf, 0xf4, 0xd2, 0xbe, 0xd0, 0xe0, 0x26, 0xbe,
  0xec, 0x54, 0x23, 0xbe, 0xc5, 0x4d, 0x82, 0xbe, 0x1b, 0xae, 0x90, 0x3e,
  0x40, 0xbd, 0x90, 0xbe, 0xa2, 0x2d, 0x0e, 0x3e, 0xbb, 0x8b, 0xd8, 0x3e,
  0xd0, 0x96, 0x5c, 0xbd, 0xc1, 0xa5, 0x17, 0x3e, 0xeb, 0x98, 0xa8, 0xbe,
  0xc5, 0x7e, 0x82, 0x3e, 0x3c, 0x79, 0x13, 0xbe, 0x2d, 0x07, 0xd4, 0xbe,
  0x40, 0xc4, 0xb8, 0xbe, 0x41, 0x80, 0xf4, 0xbd, 0xf0, 0x32, 0x53, 0xbd,
  0x5f, 0x60, 0x89, 0x3e, 0x5a, 0x08, 0x91, 0xbe, 0x2c, 0xc4, 0xe5, 0xbd,
  0x0f, 0x92, 0xa5, 0x3e, 0xef, 0x81, 0xce, 0xbe, 0x30, 0xdc, 0x01, 0xbe,
  0xb3, 0x28, 0x5e, 0xbe, 0xf6, 0x90, 0x08, 0xbe, 0xfd, 0x52, 0x37, 0xbe,
  0xc9, 0xe9, 0xc0, 0x3e, 0xea, 0x05, 0xdb, 0x3e, 0x51, 0x17, 0x82, 0x3e,
  0xaf, 0x81, 0x0d, 0x3d, 0x7a, 0x55, 0xaf, 0xbe, 0xf2, 0x20, 0xe6, 0x3d,
  0xb2, 0xd7, 0x73, 0xbe, 0xda, 0x74, 0xf1, 0x3e, 0x5e, 0x07, 0xea, 0x3e,
  0x75, 0x42, 0x84, 0x3e, 0xa9, 0x72, 0xaf, 0x3e, 0x41, 0x04, 0x03, 0x3e,
  0xc4, 0x6d, 0x65, 0xbe, 0x70, 0xf5, 0xa3, 0xbc, 0xbe, 0x82, 0x82, 0xbd,
  0x05, 0x56, 0x5c, 0xbe, 0xd0, 0xf2, 0x73, 0xbd, 0xe8, 0x56, 0x60, 0xbd,
  0x38, 0x8e, 0x91, 0xbe, 0x24, 0x68, 0xdb, 0x3d, 0xac, 0xa3, 0xd2, 0x3d,
  0x31, 0x55, 0xb7, 0xbe, 0xd8, 0x15, 0xd7, 0xbd, 0x3c, 0xbe, 0xda, 0x3d,
  0x10, 0x54, 0xa7, 0xbe, 0x80, 0x1f, 0xbd, 0xbe, 0x77, 0x11, 0xad, 0x3e,
  0xcc, 0x4e, 0xe6, 0xbd, 0x82, 0x16, 0x82, 0xbe, 0x14, 0xfb, 0xf4, 0x3d,
  0x0f, 0x62, 0xac, 0x3e, 0xda, 0xfe, 0xff, 0xff, 0x04, 0x00, 0x00, 0x00,
  0x80, 0x00, 0x00, 0x00, 0x34, 0x17, 0xce, 0x3e, 0xff, 0x2f, 0x3c, 0xbc,
  0xc3, 0x24, 0xf1, 0xbe, 0x9f, 0x15, 0xa3, 0xbe, 0x64, 0x4d, 0x58, 0xbd,
  0xa1, 0x15, 0x18, 0x3f, 0xfa, 0xf9, 0xb5, 0x3e, 0xa3, 0x5c, 0xfc, 0x3e,
  0x25, 0x67, 0xc2, 0xbe, 0x17, 0x39, 0x50, 0x3e, 0x0a, 0x0d, 0x05, 0x3c,
  0x9c, 0x49, 0x8b, 0xbe, 0x17, 0x3d, 0x94, 0x3e, 0x59, 0x0b, 0x92, 0x3d,
  0xc8, 0x2c, 0x17, 0xbf, 0x6e, 0x29, 0xd0, 0x3e, 0xaf, 0xce, 0x8c, 0xbc,
  0xa7, 0x38, 0x1e, 0x3f, 0x82, 0xf1, 0xa7, 0x3e, 0x95, 0xcb, 0x45, 0xbe,
  0x34, 0x02, 0xff, 0xbe, 0x50, 0xe9, 0x61, 0xbd, 0x80, 0x6b, 0x98, 0xbb,
  0x10, 0x65, 0x3e, 0xbe, 0x8b, 0xf1, 0x12, 0xbc, 0x64, 0x4a, 0x8c, 0x3e,
  0x22, 0x90, 0x08, 0x3f, 0x7e, 0x5b, 0x6b, 0x3e, 0x34, 0xb8, 0xbe, 0xbe,
  0xec, 0x08, 0x58, 0xbe, 0xa6, 0x6d, 0xb0, 0xbe, 0xf3, 0xe7, 0x08, 0x3f,
  0x66, 0xff, 0xff, 0xff, 0x04, 0x00, 0x00, 0x00, 0x40, 0x00, 0x00, 0x00,
  0x79, 0x9d, 0x88, 0x3d, 0x00, 0x00, 0x00, 0x00, 0x4b, 0x17, 0x44, 0xbc,
  0xa9, 0x2a, 0x90, 0xbd, 0xe7, 0xad, 0x85, 0xbc, 0x88, 0x58, 0x92, 0xbd,
  0x0c, 0x9e, 0x5d, 0xbe, 0xfc, 0x33, 0x0b, 0xbe, 0xaa, 0xed, 0x46, 0x3d,
  0xd9, 0xa6, 0x5a, 0x3d, 0x00, 0x00, 0x00, 0x00, 0x00, 0x00, 0x00, 0x00,
  0x04, 0x37, 0x09, 0xbb, 0x6c, 0x1d, 0x76, 0xbd, 0x00, 0x00, 0x00, 0x00,
  0xa0, 0x02, 0x19, 0xbd, 0xb2, 0xff, 0xff, 0xff, 0x04, 0x00, 0x00, 0x00,
  0x40, 0x00, 0x00, 0x00, 0x03, 0xbd, 0xf3, 0xbb, 0x9d, 0xed, 0x06, 0xbc,
  0xce, 0x8d, 0x9e, 0x3b, 0x3a, 0xfb, 0x92, 0xbe, 0xa1, 0xe0, 0xe9, 0xbb,
  0x8a, 0x72, 0x81, 0xbb, 0x8b, 0xf8, 0x6f, 0xbd, 0x21, 0x62, 0xe6, 0x3c,
  0x00, 0x00, 0x00, 0x00, 0xb7, 0xd5, 0xf0, 0xba, 0x08, 0x2b, 0x45, 0x3c,
  0xbd, 0x80, 0x8a, 0x3c, 0x00, 0x00, 0x00, 0x00, 0xf8, 0x4b, 0x46, 0xbd,
  0x65, 0x28, 0x29, 0xbb, 0x00, 0x00, 0x00, 0x00, 0x00, 0x00, 0x06, 0x00,
  0x08, 0x00, 0x04, 0x00, 0x06, 0x00, 0x00, 0x00, 0x04, 0x00, 0x00, 0x00,
  0x04, 0x00, 0x00, 0x00, 0x92, 0xd9, 0x45, 0x3a, 0xe0, 0xfa, 0xff, 0xff,
  0xe4, 0xfa, 0xff, 0xff, 0x0f, 0x00, 0x00, 0x00, 0x4d, 0x4c, 0x49, 0x52,
  0x20, 0x43, 0x6f, 0x6e, 0x76, 0x65, 0x72, 0x74, 0x65, 0x64, 0x2e, 0x00,
  0x01, 0x00, 0x00, 0x00, 0x14, 0x00, 0x00, 0x00, 0x00, 0x00, 0x0e, 0x00,
  0x18, 0x00, 0x14, 0x00, 0x10, 0x00, 0x0c, 0x00, 0x08, 0x00, 0x04, 0x00,
  0x0e, 0x00, 0x00, 0x00, 0x14, 0x00, 0x00, 0x00, 0x1c, 0x00, 0x00, 0x00,
  0xd8, 0x00, 0x00, 0x00, 0xdc, 0x00, 0x00, 0x00, 0xe0, 0x00, 0x00, 0x00,
  0x04, 0x00, 0x00, 0x00, 0x6d, 0x61, 0x69, 0x6e, 0x00, 0x00, 0x00, 0x00,
  0x03, 0x00, 0x00, 0x00, 0x80, 0x00, 0x00, 0x00, 0x38, 0x00, 0x00, 0x00,
  0x04, 0x00, 0x00, 0x00, 0x9a, 0xff, 0xff, 0xff, 0x10, 0x00, 0x00, 0x00,
  0x00, 0x00, 0x00, 0x08, 0x0c, 0x00, 0x00, 0x00, 0x10, 0x00, 0x00, 0x00,
  0x5c, 0xfb, 0xff, 0xff, 0x01, 0x00, 0x00, 0x00, 0x09, 0x00, 0x00, 0x00,
  0x03, 0x00, 0x00, 0x00, 0x08, 0x00, 0x00, 0x00, 0x06, 0x00, 0x00, 0x00,
  0x01, 0x00, 0x00, 0x00, 0xca, 0xff, 0xff, 0xff, 0x10, 0x00, 0x00, 0x00,
  0x00, 0x00, 0x00, 0x08, 0x10, 0x00, 0x00, 0x00, 0x14, 0x00, 0x00, 0x00,
  0xba, 0xff, 0xff, 0xff, 0x00, 0x00, 0x00, 0x01, 0x01, 0x00, 0x00, 0x00,
  0x08, 0x00, 0x00, 0x00, 0x03, 0x00, 0x00, 0x00, 0x07, 0x00, 0x00, 0x00,
  0x05, 0x00, 0x00, 0x00, 0x02, 0x00, 0x00, 0x00, 0x00, 0x00, 0x0e, 0x00,
  0x16, 0x00, 0x00, 0x00, 0x10, 0x00, 0x0c, 0x00, 0x0b, 0x00, 0x04, 0x00,
  0x0e, 0x00, 0x00, 0x00, 0x18, 0x00, 0x00, 0x00, 0x00, 0x00, 0x00, 0x08,
  0x18, 0x00, 0x00, 0x00, 0x1c, 0x00, 0x00, 0x00, 0x00, 0x00, 0x06, 0x00,
  0x08, 0x00, 0x07, 0x00, 0x06, 0x00, 0x00, 0x00, 0x00, 0x00, 0x00, 0x01,
  0x01, 0x00, 0x00, 0x00, 0x07, 0x00, 0x00, 0x00, 0x03, 0x00, 0x00, 0x00,
  0x00, 0x00, 0x00, 0x00, 0x04, 0x00, 0x00, 0x00, 0x03, 0x00, 0x00, 0x00,
  0x01, 0x00, 0x00, 0x00, 0x09, 0x00, 0x00, 0x00, 0x01, 0x00, 0x00, 0x00,
  0x00, 0x00, 0x00, 0x00, 0x0a, 0x00, 0x00, 0x00, 0xcc, 0x03, 0x00, 0x00,
  0x58, 0x03, 0x00, 0x00, 0xe4, 0x02, 0x00, 0x00, 0x88, 0x02, 0x00, 0x00,
  0x38, 0x02, 0x00, 0x00, 0xe8, 0x01, 0x00, 0x00, 0x98, 0x01, 0x00, 0x00,
  0xfc, 0x00, 0x00, 0x00, 0x60, 0x00, 0x00, 0x00, 0x04, 0x00, 0x00, 0x00,
  0x72, 0xfc, 0xff, 0xff, 0x00, 0x00, 0x00, 0x01, 0x14, 0x00, 0x00, 0x00,
  0x1c, 0x00, 0x00, 0x00, 0x1c, 0x00, 0x00, 0x00, 0x0a, 0x00, 0x00, 0x00,
  0x34, 0x00, 0x00, 0x00, 0x02, 0x00, 0x00, 0x00, 0xff, 0xff, 0xff, 0xff,
  0x01, 0x00, 0x00, 0x00, 0x5c, 0xfc, 0xff, 0xff, 0x19, 0x00, 0x00, 0x00,
  0x53, 0x74, 0x61, 0x74, 0x65, 0x66, 0x75, 0x6c, 0x50, 0x61, 0x72, 0x74,
  0x69, 0x74, 0x69, 0x6f, 0x6e, 0x65, 0x64, 0x43, 0x61, 0x6c, 0x6c, 0x3a,
  0x30, 0x00, 0x00, 0x00, 0x02, 0x00, 0x00, 0x00, 0x01, 0x00, 0x00, 0x00,
  0x01, 0x00, 0x00, 0x00, 0xca, 0xfc, 0xff, 0xff, 0x00, 0x00, 0x00, 0x01,
  0x14, 0x00, 0x00, 0x00, 0x1c, 0x00, 0x00, 0x00, 0x1c, 0x00, 0x00, 0x00,
  0x09, 0x00, 0x00, 0x00, 0x74, 0x00, 0x00, 0x00, 0x02, 0x00, 0x00, 0x00,
  0xff, 0xff, 0xff, 0xff, 0x10, 0x00, 0x00, 0x00, 0xb4, 0xfc, 0xff, 0xff,
  0x58, 0x00, 0x00, 0x00, 0x73, 0x65, 0x71, 0x75, 0x65, 0x6e, 0x74, 0x69,
  0x61, 0x6c, 0x5f, 0x31, 0x37, 0x2f, 0x64, 0x65, 0x6e, 0x73, 0x65, 0x5f,
  0x35, 0x32, 0x2f, 0x4d, 0x61, 0x74, 0x4d, 0x75, 0x6c, 0x3b, 0x73, 0x65,
  0x71, 0x75, 0x65, 0x6e, 0x74, 0x69, 0x61, 0x6c, 0x5f, 0x31, 0x37, 0x2f,
  0x64, 0x65, 0x6e, 0x73, 0x65, 0x5f, 0x35, 0x32, 0x2f, 0x52, 0x65, 0x6c,
  0x75, 0x3b, 0x73, 0x65, 0x71, 0x75, 0x65, 0x6e, 0x74, 0x69, 0x61, 0x6c,
  0x5f, 0x31, 0x37, 0x2f, 0x64, 0x65, 0x6e, 0x73, 0x65, 0x5f, 0x35, 0x32,
  0x2f, 0x42, 0x69, 0x61, 0x73, 0x41, 0x64, 0x64, 0x00, 0x00, 0x00, 0x00,
  0x02, 0x00, 0x00, 0x00, 0x01, 0x00, 0x00, 0x00, 0x10, 0x00, 0x00, 0x00,
  0x62, 0xfd, 0xff, 0xff, 0x00, 0x00, 0x00, 0x01, 0x14, 0x00, 0x00, 0x00,
  0x1c, 0x00, 0x00, 0x00, 0x1c, 0x00, 0x00, 0x00, 0x08, 0x00, 0x00, 0x00,
  0x74, 0x00, 0x00, 0x00, 0x02, 0x00, 0x00, 0x00, 0xff, 0xff, 0xff, 0xff,
  0x10, 0x00, 0x00, 0x00, 0x4c, 0xfd, 0xff, 0xff, 0x58, 0x00, 0x00, 0x00,
  0x73, 0x65, 0x71, 0x75, 0x65, 0x6e, 0x74, 0x69, 0x61, 0x6c, 0x5f, 0x31,
  0x37, 0x2f, 0x64, 0x65, 0x6e, 0x73, 0x65, 0x5f, 0x35, 0x31, 0x2f, 0x4d,
  0x61, 0x74, 0x4d, 0x75, 0x6c, 0x3b, 0x73, 0x65, 0x71, 0x75, 0x65, 0x6e,
  0x74, 0x69, 0x61, 0x6c, 0x5f, 0x31, 0x37, 0x2f, 0x64, 0x65, 0x6e, 0x73,
  0x65, 0x5f, 0x35, 0x31, 0x2f, 0x52, 0x65, 0x6c, 0x75, 0x3b, 0x73, 0x65,
  0x71, 0x75, 0x65, 0x6e, 0x74, 0x69, 0x61, 0x6c, 0x5f, 0x31, 0x37, 0x2f,
  0x64, 0x65, 0x6e, 0x73, 0x65, 0x5f, 0x35, 0x31, 0x2f, 0x42, 0x69, 0x61,
  0x73, 0x41, 0x64, 0x64, 0x00, 0x00, 0x00, 0x00, 0x02, 0x00, 0x00, 0x00,
  0x01, 0x00, 0x00, 0x00, 0x10, 0x00, 0x00, 0x00, 0x6a, 0xfe, 0xff, 0xff,
  0x00, 0x00, 0x00, 0x01, 0x10, 0x00, 0x00, 0x00, 0x10, 0x00, 0x00, 0x00,
  0x07, 0x00, 0x00, 0x00, 0x2c, 0x00, 0x00, 0x00, 0xd4, 0xfd, 0xff, 0xff,
  0x1d, 0x00, 0x00, 0x00, 0x73, 0x65, 0x71, 0x75, 0x65, 0x6e, 0x74, 0x69,
  0x61, 0x6c, 0x5f, 0x31, 0x37, 0x2f, 0x64, 0x65, 0x6e, 0x73, 0x65, 0x5f,
  0x35, 0x33, 0x2f, 0x4d, 0x61, 0x74, 0x4d, 0x75, 0x6c, 0x00, 0x00, 0x00,
  0x02, 0x00, 0x00, 0x00, 0x01, 0x00, 0x00, 0x00, 0x10, 0x00, 0x00, 0x00,
  0xb6, 0xfe, 0xff, 0xff, 0x00, 0x00, 0x00, 0x01, 0x10, 0x00, 0x00, 0x00,
  0x10, 0x00, 0x00, 0x00, 0x06, 0x00, 0x00, 0x00, 0x2c, 0x00, 0x00, 0x00,
  0x20, 0xfe, 0xff, 0xff, 0x1d, 0x00, 0x00, 0x00, 0x73, 0x65, 0x71, 0x75,
  0x65, 0x6e, 0x74, 0x69, 0x61, 0x6c, 0x5f, 0x31, 0x37, 0x2f, 0x64, 0x65,
  0x6e, 0x73, 0x65, 0x5f, 0x35, 0x32, 0x2f, 0x4d, 0x61, 0x74, 0x4d, 0x75,
  0x6c, 0x00, 0x00, 0x00, 0x02, 0x00, 0x00, 0x00, 0x10, 0x00, 0x00, 0x00,
  0x10, 0x00, 0x00, 0x00, 0x02, 0xff, 0xff, 0xff, 0x00, 0x00, 0x00, 0x01,
  0x10, 0x00, 0x00, 0x00, 0x10, 0x00, 0x00, 0x00, 0x05, 0x00, 0x00, 0x00,
  0x2c, 0x00, 0x00, 0x00, 0x6c, 0xfe, 0xff, 0xff, 0x1d, 0x00, 0x00, 0x00,
  0x73, 0x65, 0x71, 0x75, 0x65, 0x6e, 0x74, 0x69, 0x61, 0x6c, 0x5f, 0x31,
  0x37, 0x2f, 0x64, 0x65, 0x6e, 0x73, 0x65, 0x5f, 0x35, 0x31, 0x2f, 0x4d,
  0x61, 0x74, 0x4d, 0x75, 0x6c, 0x00, 0x00, 0x00, 0x02, 0x00, 0x00, 0x00,
  0x10, 0x00, 0x00, 0x00, 0x02, 0x00, 0x00, 0x00, 0x4e, 0xff, 0xff, 0xff,
  0x00, 0x00, 0x00, 0x01, 0x10, 0x00, 0x00, 0x00, 0x10, 0x00, 0x00, 0x00,
  0x04, 0x00, 0x00, 0x00, 0x3c, 0x00, 0x00, 0x00, 0xb8, 0xfe, 0xff, 0xff,
  0x2d, 0x00, 0x00, 0x00, 0x73, 0x65, 0x71, 0x75, 0x65, 0x6e, 0x74, 0x69,
  0x61, 0x6c, 0x5f, 0x31, 0x37, 0x2f, 0x64, 0x65, 0x6e, 0x73, 0x65, 0x5f,
  0x35, 0x31, 0x2f, 0x42, 0x69, 0x61, 0x73, 0x41, 0x64, 0x64, 0x2f, 0x52,
  0x65, 0x61, 0x64, 0x56, 0x61, 0x72, 0x69, 0x61, 0x62, 0x6c, 0x65, 0x4f,
  0x70, 0x00, 0x00, 0x00, 0x01, 0x00, 0x00, 0x00, 0x10, 0x00, 0x00, 0x00,
  0xa6, 0xff, 0xff, 0xff, 0x00, 0x00, 0x00, 0x01, 0x10, 0x00, 0x00, 0x00,
  0x10, 0x00, 0x00, 0x00, 0x03, 0x00, 0x00, 0x00, 0x3c, 0x00, 0x00, 0x00,
  0x10, 0xff, 0xff, 0xff, 0x2d, 0x00, 0x00, 0x00, 0x73, 0x65, 0x71, 0x75,
  0x65, 0x6e, 0x74, 0x69, 0x61, 0x6c, 0x5f, 0x31, 0x37, 0x2f, 0x64, 0x65,
  0x6e, 0x73, 0x65, 0x5f, 0x35, 0x32, 0x2f, 0x42, 0x69, 0x61, 0x73, 0x41,
  0x64, 0x64, 0x2f, 0x52, 0x65, 0x61, 0x64, 0x56, 0x61, 0x72, 0x69, 0x61,
  0x62, 0x6c, 0x65, 0x4f, 0x70, 0x00, 0x00, 0x00, 0x01, 0x00, 0x00, 0x00,
  0x10, 0x00, 0x00, 0x00, 0x00, 0x00, 0x16, 0x00, 0x18, 0x00, 0x14, 0x00,
  0x00, 0x00, 0x10, 0x00, 0x0c, 0x00, 0x08, 0x00, 0x00, 0x00, 0x00, 0x00,
  0x00, 0x00, 0x07, 0x00, 0x16, 0x00, 0x00, 0x00, 0x00, 0x00, 0x00, 0x01,
  0x10, 0x00, 0x00, 0x00, 0x10, 0x00, 0x00, 0x00, 0x02, 0x00, 0x00, 0x00,
  0x3c, 0x00, 0x00, 0x00, 0x80, 0xff, 0xff, 0xff, 0x2d, 0x00, 0x00, 0x00,
  0x73, 0x65, 0x71, 0x75, 0x65, 0x6e, 0x74, 0x69, 0x61, 0x6c, 0x5f, 0x31,
  0x37, 0x2f, 0x64, 0x65, 0x6e, 0x73, 0x65, 0x5f, 0x35, 0x33, 0x2f, 0x42,
  0x69, 0x61, 0x73, 0x41, 0x64, 0x64, 0x2f, 0x52, 0x65, 0x61, 0x64, 0x56,
  0x61, 0x72, 0x69, 0x61, 0x62, 0x6c, 0x65, 0x4f, 0x70, 0x00, 0x00, 0x00,
  0x01, 0x00, 0x00, 0x00, 0x01, 0x00, 0x00, 0x00, 0x00, 0x00, 0x16, 0x00,
  0x1c, 0x00, 0x18, 0x00, 0x00, 0x00, 0x14, 0x00, 0x10, 0x00, 0x0c, 0x00,
  0x00, 0x00, 0x00, 0x00, 0x08, 0x00, 0x07, 0x00, 0x16, 0x00, 0x00, 0x00,
  0x00, 0x00, 0x00, 0x01, 0x14, 0x00, 0x00, 0x00, 0x20, 0x00, 0x00, 0x00,
  0x20, 0x00, 0x00, 0x00, 0x01, 0x00, 0x00, 0x00, 0x40, 0x00, 0x00, 0x00,
  0x02, 0x00, 0x00, 0x00, 0xff, 0xff, 0xff, 0xff, 0x02, 0x00, 0x00, 0x00,
  0x04, 0x00, 0x04, 0x00, 0x04, 0x00, 0x00, 0x00, 0x20, 0x00, 0x00, 0x00,
  0x73, 0x65, 0x72, 0x76, 0x69, 0x6e, 0x67, 0x5f, 0x64, 0x65, 0x66, 0x61,
  0x75, 0x6c, 0x74, 0x5f, 0x64, 0x65, 0x6e, 0x73, 0x65, 0x5f, 0x35, 0x31,
  0x5f, 0x69, 0x6e, 0x70, 0x75, 0x74, 0x3a, 0x30, 0x00, 0x00, 0x00, 0x00,
  0x02, 0x00, 0x00, 0x00, 0x01, 0x00, 0x00, 0x00, 0x02, 0x00, 0x00, 0x00,
  0x01, 0x00, 0x00, 0x00, 0x10, 0x00, 0x00, 0x00, 0x0c, 0x00, 0x0c, 0x00,
  0x0b, 0x00, 0x00, 0x00, 0x00, 0x00, 0x04, 0x00, 0x0c, 0x00, 0x00, 0x00,
  0x09, 0x00, 0x00, 0x00, 0x00, 0x00, 0x00, 0x09};
const int g_multi_model_data_len = 3308;
